, 247592
. 209125
__zh-cn__ 204413
the 161453
to 101795
of 94834
and 86615
a 85328
that 73482
I 67401
in 60836
is 52541
you 50346
&quot; 49949
it 48541
&apos;s 46065
we 45467
And 35938
this 33922
was 25534
for 23221
are 22867
have 22337
they 21153
on 21049
— 20195
with 19957
can 18814
? 18499
So 18045
&apos;t 18017
what 17605
about 17394
be 16380
as 15283
at 15158
not 14852
all 14408
do 14033
there 13858
It 13618
&apos;re 13478
my 13399
people 12794
like 12727
one 12670
from 12606
so 12323
an 11567
but 11518
: 11474
) 11449
( 11443
We 11133
our 11033
just 10936
or 10701
But 10561
The 10285
very 10139
these 10131
me 10112
out 9791
if 9782
by 9510
them 9429
know 9393
going 9244
up 9144
had 8912
when 8869
more 8858
because 8729
he 8490
see 8407
were 8308
think 8248
their 8029
which 8014
who 7941
how 7910
would 7821
really 7770
your 7648
&apos;ve 7550
us 7538
get 7491
This 7071
time 7037
&apos;m 7027
has 6955
here 6953
world 6897
You 6891
then 6881
into 6576
some 6544
actually 6404
will 6318
don 6313
way 6290
years 6207
Laughter 6202
now 6127
Now 5966
where 5956
things 5912
They 5863
other 5824
been 5780
could 5746
go 5700
want 5656
make 5427
something 4958
said 4950
much 4889
than 4842
right 4776
those 4721
first 4689
no 4675
also 4629
thing 4525
two 4525
little 4500
That 4448
got 4447
look 4377
back 4367
over 4168
only 4137
his 4126
say 4083
need 4080
work 4073
What 4034
In 3990
most 3972
even 3944
she 3942
life 3921
take 3878
♫ 3878
many 3857
lot 3807
kind 3805
did 3725
around 3663
Applause 3662
new 3659
There 3634
different 3514
good 3407
her 3334
through 3317
down 3305
every 3255
&apos;ll 3251
same 3180
Well 3167
come 3145
He 3123
being 3118
use 3109
doing 3016
If 2969
; 2919
put 2910
day 2906
percent 2816
called 2788
&apos;d 2755
any 2751
made 2715
three 2628
tell 2526
today 2510
year 2488
why 2486
fact 2484
human 2480
well 2473
change 2467
its 2459
find 2457
didn 2450
started 2446
great 2385
able 2377
idea 2377
own 2376
talk 2337
after 2311
Thank 2299
let 2278
last 2253
before 2233
might 2217
big 2215
went 2212
better 2206
thought 2197
never 2195
important 2173
should 2151
still 2129
course 2126
story 2126
another 2123
together 2122
give 2121
problem 2114
part 2103
him 2085
off 2078
system 2069
came 2034
ago 2025
few 1998
next 1993
start 1988
bit 1978
show 1973
does 1972
used 1962
brain 1955
again 1940
place 1926
When 1918
each 1899
technology 1879
mean 1865
too 1855
A 1844
between 1841
&apos; 1841
example 1831
water 1815
question 1806
found 1784
data 1779
looking 1759
end 1750
understand 1736
long 1730
done 1727
point 1721
women 1719
wanted 1695
Because 1684
doesn 1680
away 1660
live 1656
love 1655
sort 1654
How 1650
children 1642
real 1629
call 1627
ever 1623
always 1618
whole 1610
trying 1605
million 1586
believe 1556
may 1555
country 1554
school 1548
working 1545
person 1544
using 1528
help 1524
try 1519
information 1513
! 1469
means 1465
took 1464
feel 1462
10 1456
thinking 1453
everything 1444
power 1437
four 1426
money 1417
create 1414
become 1399
old 1392
small 1387
My 1379
less 1379
One 1375
maybe 1366
man 1363
kids 1357
future 1348
space 1346
enough 1345
number 1338
These 1332
quite 1329
happened 1327
home 1322
design 1319
making 1305
food 1295
comes 1294
best 1292
five 1291
getting 1286
She 1280
sense 1278
am 1274
second 1274
left 1272
social 1270
talking 1267
body 1266
without 1264
times 1259
interesting 1257
Let 1250
energy 1242
Here 1242
told 1237
building 1233
probably 1228
countries 1218
coming 1204
lives 1203
light 1198
stuff 1197
ask 1192
pretty 1190
Africa 1188
saw 1179
such 1174
dollars 1171
ways 1168
family 1168
anything 1167
No 1165
Why 1162
across 1157
happen 1140
men 1139
living 1130
hard 1125
For 1121
asked 1120
room 1117
days 1115
simple 1115
build 1114
play 1113
moment 1113
young 1109
seen 1106
case 1106
experience 1103
makes 1102
side 1096
care 1091
having 1085
science 1080
happens 1072
learn 1061
later 1059
says 1059
As 1057
picture 1054
half 1054
New 1050
city 1050
move 1044
All 1043
reason 1040
process 1038
Earth 1037
goes 1035
almost 1035
else 1028
20 1026
far 1025
project 1024
while 1019
high 1018
age 1018
billion 1014
cells 1008
inside 1005
computer 1005
health 1000
nothing 1000
set 999
problems 996
yet 991
bad 988
global 987
often 985
myself 983
planet 982
business 977
looked 977
community 976
both 975
possible 972
book 972
hand 971
already 967
history 962
car 962
single 961
saying 959
answer 955
amazing 953
hope 952
months 950
government 949
child 949
remember 949
whether 944
form 933
ideas 933
basically 933
wrong 931
-@@ 929
keep 929
looks 927
sure 925
once 924
within 923
face 923
&#91; 922
public 922
&#93; 919
group 918
someone 918
line 908
matter 907
heard 907
United 902
read 899
beautiful 899
re@@ 896
open 895
bring 895
imagine 895
six 890
un@@ 889
wasn 886
order 880
true 879
guy 877
piece 875
built 874
mind 873
words 873
top 870
places 865
’ 861
video 860
under 857
works 857
turn 855
job 855
music 851
became 849
species 845
happening 843
isn 843
knew 842
couple 841
control 840
friends 833
decided 832
though 832
... 826
until 825
completely 825
Internet 824
word 823
itself 822
taking 821
run 819
language 819
education 818
stories 818
share 817
company 817
must 816
society 814
against 813
night 812
States 810
nature 810
America 809
since 804
30 803
woman 802
India 801
learned 799
level 797
name 796
cancer 796
head 794
hear 793
research 792
disease 791
everybody 789
questions 785
gets 784
Okay 780
model 775
large 774
stop 774
exactly 771
animals 770
couldn 766
themselves 763
heart 759
ourselves 759
art 758
sometimes 757
created 755
kinds 752
worked 752
ones 749
per 748
huge 744
students 744
mother 742
particular 739
study 737
hours 736
environment 733
past 732
Then 730
rather 728
everyone 727
thousands 722
house 720
along 719
front 719
somebody 719
50 719
least 718
war 718
news 716
universe 713
sound 706
Oh 705
changed 704
turns 703
lots 702
outside 701
others 701
100 700
won 695
s 695
state 694
gave 693
systems 691
OK 691
early 689
taken 687
God 683
figure 682
instead 679
learning 679
China 672
cell 671
American 670
entire 669
black 668
S@@ 668
minutes 667
land 667
cities 666
TED 665
difference 663
machine 662
behind 661
natural 660
seeing 659
companies 656
needed 654
difficult 652
beginning 652
reality 652
century 651
Or 650
happy 649
takes 648
York 645
leave 645
moving 641
began 641
parents 639
image 639
culture 638
air 637
finally 636
turned 635
cannot 632
close 632
guys 632
population 631
perhaps 630
eyes 630
free 629
economic 628
view 627
terms 627
father 627
area 625
given 624
needs 623
team 623
easy 622
in@@ 621
game 619
during 617
scale 612
Some 612
ability 610
parts 609
size 609
middle 608
death 605
wonderful 605
amount 604
15 604
fish 603
realized 602
local 601
At 599
Do 597
felt 596
media 593
market 591
third 591
phone 591
political 590
powerful 589
simply 588
based 588
grow 587
longer 586
People 583
seven 582
field 582
lost 579
hands 579
oil 579
deal 578
certain 578
Yeah 576
To 575
walk 574
humans 572
U.S. 571
known 571
week 569
gone 568
challenge 565
yourself 565
born 563
interested 563
quickly 562
red 560
common 560
full 558
whatever 557
tried 556
opportunity 555
changes 553
ocean 553
weeks 551
spent 550
Just 550
Is 550
growth 548
spend 548
Yes 544
economy 542
surface 542
cost 542
Our 541
friend 537
growing 535
shows 533
pay 532
incredible 531
program 531
sitting 530
alone 528
either 527
poor 527
rest 527
Music 527
wouldn 526
white 524
eight 523
behavior 523
developed 522
technologies 521
areas 520
met 519
brought 519
structure 519
die 519
feet 518
step 517
realize 517
girl 516
value 515
buy 514
test 513
speak 512
physical 512
Right 511
climate 510
books 510
complex 508
green 507
ground 507
Not 507
On 506
access 506
CA 506
telling 504
average 504
patients 504
er 502
numbers 500
blue 500
images 500
risk 497
DNA 497
paper 495
scientists 494
ice 494
girls 493
starting 492
fear 491
animal 490
miles 490
literally 488
material 488
write 485
40 484
hundreds 484
morning 483
attention 481
feeling 481
individual 478
Can 478
watch 478
key 475
tools 475
P@@ 475
movement 474
giving 474
eat 474
seems 473
ate 473
wrote 471
issue 471
forward 470
led 467
understanding 466
support 466
discovered 465
voice 465
audience 465
knowledge 464
rate 463
industry 462
A@@ 461
result 460
creating 457
millions 457
o 457
gives 457
ed 457
B@@ 456
cars 454
produce 453
kid 453
solution 452
running 450
short 450
World 450
blood 448
personal 447
map 447
fly 447
center 446
generation 446
cut 446
changing 445
network 445
force 445
clear 443
recently 443
nice 442
development 441
stage 441
hold 441
bottom 439
solve 436
dark 436
innovation 436
tiny 436
film 436
anyone 436
T@@ 435
begin 435
choice 433
C@@ 432
deep 431
box 431
relationship 431
absolutely 431
major 431
digital 431
son 431
talked 429
developing 429
English 429
groups 428
computers 427
thank 427
Europe 427
putting 426
explain 425
chance 425
meet 422
died 422
theory 421
allow 421
available 419
reasons 419
showed 419
plants 419
sea 419
normal 418
becomes 418
yes 418
several 417
save 417
seem 417
impact 417
fun 417
color 417
haven 416
law 416
towards 415
effect 415
ated 414
fast 414
lab 414
patient 414
online 414
especially 413
soon 413
lived 413
stand 413
truth 412
resources 412
playing 412
product 410
act 410
designed 409
type 409
M@@ 409
similar 409
asking 409
First 407
incredibly 406
device 406
experiment 406
cool 405
t 405
likely 405
special 404
shape 404
approach 403
knows 402
issues 401
By 401
South 400
guess 400
pictures 400
rules 399
stay 399
bigger 399
evolution 399
action 399
message 398
Google 398
Maybe 397
involved 395
trust 394
focus 394
ers 394
cause 393
medical 393
plant 393
baby 392
beyond 391
showing 391
writing 391
send 390
es 390
rights 389
situation 388
journey 387
R@@ 387
particularly 386
worth 386
ing 385
F@@ 384
aren 384
reach 383
dead 383
table 383
potential 382
eye 382
violence 382
modern 381
k@@ 381
basic 380
communities 379
movie 379
examples 378
Every 378
present 378
drive 377
sounds 377
drugs 377
G@@ 376
security 375
perfect 375
street 374
walking 374
leaders 373
sex 373
evidence 373
low 373
12 372
hit 371
trees 371
class 371
moved 369
lead 369
biggest 369
drug 369
starts 369
ready 368
scientific 368
teach 368
Look 368
largest 367
okay 367
grew 366
i 365
certainly 365
anybody 365
onto 364
democracy 364
hundred 363
After 362
y@@ 362
develop 362
carbon 362
wants 362
national 362
Who 362
measure 361
Of 361
lines 361
Chinese 361
exciting 360
skin 360
among 359
pick 359
wall 359
month 358
meant 358
strong 357
connected 357
mine 357
Where 357
dream 357
al 357
quality 356
D@@ 356
code 356
safe 355
schools 355
higher 354
poverty 353
wife 353
road 351
role 351
11 350
further 350
favorite 350
hour 350
choose 350
continue 350
camera 348
crazy 348
nine 348
nuclear 348
Even 347
Don 347
period 347
projects 346
vision 346
obviously 346
faster 345
Video 345
robot 345
L@@ 345
office 344
everywhere 344
object 344
solar 343
tree 342
objects 341
including 340
plan 340
d@@ 340
named 339
tool 339
fight 338
fire 338
shown 338
eventually 338
add 338
sit 337
materials 337
families 337
village 337
success 337
allowed 337
H@@ 337
Mars 337
buildings 337
cases 336
results 336
follow 336
genes 336
fall 335
b@@ 335
models 335
p@@ 334
totally 334
notice 334
creative 334
killed 334
individuals 333
extraordinary 333
compassion 333
student 332
K@@ 332
self-@@ 331
forms 331
North 331
software 331
mass 330
break 330
E@@ 330
ended 330
worse 329
complicated 328
door 328
late 328
lose 328
wind 328
response 327
medicine 327
traditional 326
Most 326
listen 326
essentially 326
sent 326
e@@ 326
crisis 326
conversation 325
Today 325
boy 325
o@@ 325
increase 325
screen 325
jobs 325
older 324
teacher 324
biology 324
bacteria 324
perspective 323
context 322
watching 322
suddenly 322
Those 322
memory 322
West 321
above 321
25 321
song 321
nobody 321
list 321
supposed 321
minute 320
smart 320
spread 319
taught 319
speed 318
general 318
pieces 318
larger 318
teachers 318
60 317
architecture 317
site 317
al@@ 317
college 317
standing 315
electricity 315
loved 315
activity 315
progress 313
tells 313
thousand 313
service 313
finding 312
fundamental 312
forest 312
waste 311
indeed 311
N@@ 311
hospital 311
wait 311
alive 310
kept 310
shot 310
products 310
extremely 310
With 309
treatment 309
exist 308
somewhere 308
Are 308
usually 308
source 307
international 307
organization 307
successful 307
en@@ 307
excited 307
ted 307
games 307
serious 306
expect 306
revolution 305
rich 305
allows 305
interest 305
ating 304
neurons 304
truly 304
sorts 303
an@@ 303
goal 303
written 303
African 302
specific 302
wish 302
moral 302
anymore 301
machines 301
bodies 301
record 301
200 299
impossible 299
recognize 299
training 298
protect 298
reading 298
dis@@ 297
freedom 297
intelligence 297
City 297
solutions 296
patterns 296
private 296
page 296
/ 295
TV 295
de@@ 295
please 295
happiness 294
doctor 294
series 294
income 294
pattern 294
ation 294
provide 293
HIV 293
sun 293
greatest 293
cold 293
workers 292
conditions 292
somehow 292
gas 292
bunch 292
visual 292
uses 291
g@@ 291
Americans 291
skills 290
healthy 290
position 289
anywhere 289
becoming 289
bed 289
upon 288
challenges 288
ting 288
points 287
weren 287
beings 287
floor 286
kill 286
military 285
governments 285
clearly 285
expensive 284
positive 284
costs 283
80 283
actual 283
region 282
consider 282
decades 282
travel 281
feed 281
hot 281
♪ 281
War 280
yeah 280
di@@ 280
fully 280
institutions 280
himself 280
wonder 279
critical 279
touch 279
town 278
18 278
waiting 278
stars 278
price 278
brains 278
ant 277
main 277
daughter 277
Chris 277
studies 276
current 276
tend 276
walked 276
humanity 276
famous 275
y 275
subject 275
smaller 275
dangerous 274
seconds 274
lower 274
over@@ 274
range 274
policy 274
diseases 274
version 273
ts 273
production 273
s@@ 272
engineering 272
police 272
concept 272
Another 271
values 271
capital 271
foot 271
services 270
throughout 270
beauty 270
store 269
train 269
direction 269
a@@ 269
slow 269
financial 268
rise 268
clean 268
board 268
ran 268
mental 268
Imagine 268
self 268
decade 267
immediately 267
O@@ 267
meaning 267
fine 267
citizens 267
shared 266
fantastic 266
ates 266
organizations 266
East 266
programs 266
king 265
therefore 264
laws 264
speaking 264
streets 263
final 263
content 263
unique 262
t@@ 262
dance 262
search 262
dog 262
ar@@ 261
following 261
forth 261
driving 261
levels 261
invented 261
pain 261
mostly 261
robots 260
greater 260
effective 260
connect 259
Like 259
dying 259
University 259
Which 259
recent 258
sky 258
earlier 258
Afghanistan 257
sell 257
mom 257
W@@ 257
virus 257
mobile 257
peace 256
aid 256
decisions 256
familiar 256
genetic 256
London 256
meeting 256
helped 256
legs 256
understood 255
text 255
various 254
i@@ 254
useful 254
connection 254
sign 254
magic 254
massive 253
urban 253
decision 253
conflict 252
choices 252
pull 252
politics 251
except 251
weight 251
terrible 251
Many 250
near 250
treat 250
summer 249
ahead 249
press 249
enormous 249
forget 248
environmental 248
California 248
whose 248
aware 248
ch@@ 248
flow 247
pressure 247
stopped 247
track 247
societies 246
secret 246
television 246
colleagues 246
communicate 246
wealth 245
religion 245
consciousness 245
prison 244
career 244
de 244
From 244
seemed 244
John 244
strange 244
anyway 244
listening 243
teaching 243
minds 243
ab@@ 243
instance 242
nation 242
fuel 242
fit 242
70 241
sat 241
produced 241
am@@ 241
survive 241
function 241
flying 240
sustainable 240
infrastructure 240
temperature 240
types 240
closer 240
worry 239
ly 239
math 239
National 239
arm 239
slide 238
complete 238
-c@@ 238
e 238
performance 238
atmosphere 238
hole 238
ac@@ 238
experiments 238
remarkable 237
directly 237
inspired 237
photograph 237
Western 236
played 236
c@@ 236
attack 236
Your 236
raise 236
Two 236
address 235
states 235
communication 235
Think 235
at@@ 235
artist 235
doctors 235
paid 235
explore 235
term 234
li@@ 234
practice 233
although 233
web 233
zero 233
apart 233
draw 231
capacity 231
Take 231
willing 231
physics 231
worst 231
networks 231
degrees 231
event 230
straight 230
basis 230
ants 230
female 230
lights 229
cultural 229
Instead 229
effects 229
answers 229
path 229
website 229
ancient 228
below 228
ball 228
decide 228
afraid 228
u@@ 228
original 228
race 228
ti@@ 228
supply 228
markets 227
co@@ 227
His 227
obvious 227
noticed 226
90 226
rule 226
bought 226
I@@ 226
differently 225
legal 225
active 225
plastic 225
stick 225
sleep 225
slightly 224
highly 223
feels 223
quick 223
forces 222
m 222
carry 222
hearing 222
push 222
scientist 222
birth 222
con@@ 222
f@@ 221
diversity 221
published 221
Facebook 221
corner 220
nearly 220
square 220
oh 220
devices 220
biological 220
2 220
held 220
designers 220
character 219
experiences 219
causes 219
be@@ 219
Great 219
twice 218
gotten 218
heat 218
chemical 218
sharing 218
or@@ 218
evolved 218
emotional 218
David 217
er@@ 217
fix 217
differences 217
bringing 217
radio 217
shift 217
central 217
molecules 217
on@@ 216
r@@ 216
helping 216
justice 215
ship 215
return 215
blind 215
speech 215
Dr. 214
complexity 214
members 214
purpose 214
cover 213
apply 213
relationships 213
possibly 213
e-@@ 213
sick 213
as@@ 213
Man 213
genome 213
stem 213
gene 213
spending 212
responsibility 212
easily 212
significant 212
Japan 212
painting 212
mountain 212
engage 211
improve 211
farmers 211
sold 211
achieve 211
San 211
birds 211
non-@@ 211
task 211
drop 210
eating 210
V@@ 210
easier 210
bone 210
party 209
landscape 209
Indian 209
500 209
funny 208
turning 208
missing 208
conference 208
neighborhood 207
In@@ 207
total 207
Hey 207
boys 207
forever 207
Thanks 207
broken 206
le@@ 206
discover 206
surgery 206
glass 206
n@@ 206
structures 205
notion 205
lies 205
brings 205
mission 205
16 205
dollar 205
related 204
none 204
win 204
creates 204
standard 203
popular 203
focused 203
reduce 203
hair 203
k 203
agree 202
civil 202
passion 202
entirely 202
efficient 202
park 202
trial 202
creativity 202
10,000 202
strategy 200
moments 200
describe 200
earth 200
However 200
300 200
raised 200
matters 200
organisms 200
ri@@ 199
passed 199
male 199
dad 199
giant 199
Sometimes 198
window 198
m@@ 198
opened 198
loss 198
join 198
knowing 197
pass 197
trouble 197
bridge 197
babies 197
tissue 197
opportunities 196
soil 196
os@@ 196
Actually 196
degree 196
1,000 196
trade 195
Over 195
importantly 195
identity 195
artists 195
imagination 195
h@@ 195
bo@@ 194
als 194
24 194
studying 194
v@@ 194
en 194
leading 194
religious 193
necessary 193
respect 193
lucky 193
possibility 193
walls 192
offer 192
afford 192
14 192
investment 192
river 192
figured 191
meters 191
fighting 191
Washington 191
Twitter 191
ar 191
opposite 191
Iraq 191
letter 191
etc 191
despite 190
fairly 190
billions 190
Audience 190
calls 190
extra 190
ous 190
bank 190
French 189
Asia 189
British 189
tremendous 189
definition 189
stuck 189
virtual 189
majority 188
ultimately 188
brand 188
rock 188
sing 188
crime 188
ter 188
era 188
trained 187
engineers 187
suffering 187
Again 187
industrial 187
bees 187
See 186
moon 186
planets 186
colors 186
star 186
necessarily 186
visit 186
emotions 186
Second 186
respond 185
phones 185
phenomenon 185
wild 185
throw 185
faces 185
catch 184
holding 184
pounds 184
benefits 184
z@@ 184
yellow 184
noise 184
surprise 184
spaces 183
limited 183
invisible 183
report 183
proud 183
effort 183
background 183
discovery 183
malaria 183
email 183
believed 183
names 183
boat 183
demand 182
re 182
caught 182
campaign 182
Once 182
An 182
check 182
compared 182
graph 182
elements 181
dreams 181
extreme 181
collective 181
Did 181
base 181
block 181
AIDS 180
J@@ 180
saving 180
st@@ 180
Have 180
helps 180
vast 180
depression 180
failure 180
responsible 180
core 179
photo 179
hidden 179
Brazil 179
studied 179
balance 179
sorry 179
consequences 179
competition 179
unfortunately 179
sh@@ 179
whom 178
inter@@ 178
oxygen 178
predict 178
Very 178
creatures 178
leads 178
arms 177
sector 177
1 177
argue 177
cycle 177
Mr. 177
affect 177
brother 177
managed 177
l@@ 176
finished 176
edge 176
husband 176
childhood 176
$ 176
agriculture 176
signal 176
lo@@ 176
gender 176
events 176
sand 176
cheap 176
European 176
Web 176
labor 175
lack 175
treated 175
lesson 175
im@@ 175
damage 175
benefit 175
ends 175
invest 175
pre@@ 175
ters 174
ans 174
distance 174
Life 174
signals 173
Re@@ 173
leaving 173
quote 173
shouldn 173
motion 173
13 173
wear 173
creation 173
sudden 172
fascinating 172
planning 172
everyday 172
u 172
Three 172
concerned 172
el@@ 172
account 172
lie 172
mouse 172
Good 172
rain 172
interact 172
card 172
leadership 172
married 171
transform 171
kilometers 171
leader 171
invited 171
deeply 171
coffee 171
mentioned 171
magazine 171
separate 171
flight 171
bear 171
foreign 170
17 170
engineer 170
threat 170
Y@@ 170
steps 170
factory 170
per@@ 169
followed 169
profound 169
enjoy 169
stood 169
Germany 169
forced 169
si@@ 169
condition 169
considered 169
More 169
note 169
ad@@ 169
harder 168
constantly 168
businesses 168
platform 168
generations 168
typical 168
deliver 168
Con@@ 168
traffic 168
exists 168
tough 168
it@@ 168
smell 168
failed 168
represent 167
Everybody 167
moves 167
seriously 167
j@@ 167
continent 167
due 167
fields 167
Each 167
date 167
surprising 167
w@@ 167
p 167
begins 167
ine 167
commercial 167
random 167
est 166
paint 166
picked 166
target 166
ages 166
Everything 166
hate 166
da 166
tions 165
farm 165
re-@@ 165
ro@@ 165
university 165
filled 165
CO2 165
plane 165
gay 165
3D 165
negative 165
rates 165
grown 165
prevent 165
d 165
movies 165
Mexico 164
GDP 164
oceans 164
calling 164
folks 164
weird 164
tons 163
launched 163
electric 163
described 163
closed 163
net 163
wide 163
circle 163
hadn 163
n 163
fell 163
survival 162
slowly 162
bi@@ 162
property 162
th@@ 162
advantage 162
sequence 162
caused 162
homes 161
otherwise 161
experts 161
adults 161
Big 161
currently 161
president 161
Australia 161
le 161
debate 161
accept 160
op@@ 160
avoid 160
Their 160
driven 160
meat 160
talks 160
der 160
organized 160
increasingly 160
9 159
surprised 159
identify 159
safety 159
daily 159
spot 159
count 159
researchers 159
spirit 159
finger 159
Would 159
essential 159
cloud 159
unless 158
Z@@ 158
trip 158
worried 158
civilization 158
hasn 158
sister 158
wearing 158
fashion 158
ent 158
photos 158
rural 158
mathematics 158
reaction 158
organic 157
mothers 157
particles 157
paying 157
multiple 157
microbes 157
leaves 157
sentence 157
honest 156
g 156
perfectly 156
normally 156
vehicle 156
om@@ 156
keeping 156
capable 156
2,000 156
received 156
equal 156
drawing 156
existence 156
principle 156
interaction 155
jump 155
equivalent 155
protein 155
ra@@ 155
aging 155
pages 155
struggle 154
scene 154
contact 154
se@@ 154
chain 154
users 154
ness 154
Come 154
ap@@ 154
mouth 154
gap 154
marriage 154
experienced 154
dealing 153
influence 153
ic 153
sites 153
requires 153
quantum 153
processes 153
arrived 153
argument 153
hell 153
wisdom 153
watched 153
insects 153
tomorrow 153
museum 152
heads 152
tion 152
belief 152
principles 152
charge 152
400 152
bits 152
waves 152
Canada 152
bread 152
ings 151
ex@@ 151
Einstein 151
Times 151
galaxies 151
artificial 151
spoke 151
E 151
dinner 151
dry 151
voices 151
Richard 151
toward 150
rid 150
hopefully 150
producing 150
double 150
B 150
U.K. 150
tens 150
collect 150
stress 150
compare 150
ons 150
opening 150
deeper 150
article 150
Iran 150
technical 150
covered 150
desire 150
exercise 150
nervous 150
emerging 149
brilliant 149
languages 149
um 149
ve 149
manage 149
leg 149
Does 149
thinks 149
Go 149
promise 149
cure 149
match 149
molecule 149
corruption 149
increasing 149
weapons 148
ps 148
detail 148
testing 148
mile 148
Since 148
100,000 148
ations 148
fellow 148
designing 148
grandmother 148
la 148
variety 147
airplane 147
sad 147
ha@@ 147
Kenya 147
ton 147
warming 147
qu@@ 146
holes 146
layer 146
versus 146
sub@@ 146
independent 146
20th 146
economics 146
U@@ 146
universal 146
galaxy 146
breast 146
designer 146
George 146
facing 146
professional 146
President 146
alternative 145
messages 145
nations 145
bus 145
method 145
les 145
feelings 145
release 145
cameras 145
risks 145
possibilities 145
soldiers 145
lunch 145
evolutionary 145
direct 145
suggest 145
facts 145
techniques 145
satellite 145
switch 145
selling 144
roll 144
blocks 144
adult 144
saved 144
highest 144
letters 144
effectively 144
grade 144
fill 144
clinical 144
finish 143
out@@ 143
Bill 143
Street 143
Francisco 143
tr@@ 143
underneath 143
processing 143
thoughts 143
muscle 143
gold 143
enter 142
specifically 142
3@@ 142
affected 142
par@@ 142
rare 142
ding 142
operating 142
Please 142
shapes 142
mis@@ 142
broke 142
importance 142
Could 142
characters 142
weather 142
sources 142
desert 142
regular 142
inequality 142
houses 141
curious 141
losing 141
intellectual 141
sending 141
ad 141
&apos;@@ 140
drink 140
dots 140
acting 140
faith 140
comfortable 140
strength 139
appear 139
associated 139
killing 139
vote 139
3 139
ds 139
accident 139
trillion 139
advanced 139
station 139
movements 139
ordinary 139
shoes 139
connections 139
bird 139
flu 139
island 139
details 138
management 138
feedback 138
generate 138
link 138
engine 138
metal 138
Sun 138
ded 138
he@@ 138
scared 138
grandfather 138
dynamic 138
electrical 138
Yet 138
fail 138
ur@@ 137
construction 137
prove 137
remote 137
beat 137
politicians 137
introduce 137
yesterday 137
heavy 137
emissions 137
long-term 137
ec@@ 137
Middle 137
epidemic 137
es@@ 137
35 137
fourth 137
sp@@ 137
radiation 137
relatively 137
collection 137
Israel 136
x 136
row 136
north 136
south 136
mo@@ 136
Last 136
lifetime 136
ist 136
sides 136
gun 136
sexual 136
narrative 136
victims 135
define 135
expected 135
fair 135
D 135
cultures 135
seat 135
MIT 135
empty 135
credit 135
roughly 135
goods 135
dimensions 135
increased 134
existing 134
centers 134
2000 134
worldwide 134
150 134
plus 134
unit 134
ma@@ 134
represents 134
super@@ 134
wake 134
forests 134
puts 134
l 134
formed 134
2@@ 134
copy 134
rapidly 133
ring 133
lady 133
valuable 133
medium 133
awful 133
previous 133
equipment 133
addition 133
conversations 133
carefully 133
chemistry 133
employees 133
professor 133
terrorism 133
fresh 132
high-@@ 132
theater 132
chemicals 132
ity 132
exact 132
wondering 132
se 132
interface 132
organism 132
express 132
videos 132
Mar@@ 132
maps 132
depends 131
consumption 131
carrying 131
cognitive 131
bright 131
organs 131
ag@@ 131
capture 131
wave 131
NASA 131
stupid 131
cards 131
analysis 131
ism 131
setting 131
vaccine 131
wood 131
tumor 131
conscious 131
intelligent 131
Di@@ 130
2008 130
ling 130
absolute 130
budget 130
molecular 130
location 130
gentlemen 130
convinced 130
statistics 130
graduate 130
ks 130
coal 130
steel 130
logic 130
distribution 129
Women 129
France 129
coast 129
require 129
teeth 129
resistance 129
round 129
Paul 129
flies 129
Britain 129
is@@ 129
activities 128
t-@@ 128
joy 128
buying 128
serve 128
sample 128
spectrum 128
behaviors 128
keeps 128
remain 128
driver 128
partner 128
components 128
however 128
Center 128
recorded 128
potentially 128
roof 127
Nigeria 127
em@@ 127
mortality 127
innovative 127
y-@@ 127
inner 127
honor 127
expression 127
resource 127
vi@@ 127
ot@@ 127
manufacturing 127
member 127
trick 127
engaged 126
camp 126
shop 126
tradition 126
lessons 126
properties 126
21st 126
option 126
flat 126
bag 126
required 126
chair 126
equality 126
ic@@ 126
Al@@ 126
sees 126
battle 126
discussion 125
concrete 125
sophisticated 125
b 125
ride 125
combination 125
under@@ 125
liked 125
singing 125
18@@ 125
battery 125
classroom 125
added 125
destruction 125
primary 125
visible 125
introduced 125
ties 125
bar 125
II 125
healthcare 125
pe@@ 125
While 124
relevant 124
applied 124
Perhaps 124
Institute 124
invention 124
technological 124
exploration 124
reached 124
ancestors 124
joined 124
former 124
definitely 124
user 124
England 124
factors 124
lying 124
swim 124
regions 124
metaphor 124
anti-@@ 123
foundation 123
volume 123
master 123
trials 123
environments 123
relative 123
sensitive 123
hide 123
Anderson 123
Japanese 123
ge@@ 123
participate 123
lay 123
ker 123
cl@@ 123
whenever 123
symptoms 123
winter 122
mountains 122
mistake 122
transportation 122
radical 122
partners 122
pre-@@ 122
one-@@ 122
status 122
gift 122
bio@@ 122
ir@@ 122
tri@@ 122
bubble 122
pulled 122
solved 121
democratic 121
fund 121
gravity 121
et 121
click 121
convince 121
newspaper 121
worlds 121
generally 121
perform 121
launch 121
quiet 121
traveling 121
ies 121
actions 121
transformation 121
mystery 121
collaboration 121
fold 121
protection 121
James 121
Anyway 121
election 121
interests 120
sight 120
productive 120
il@@ 120
Five 120
challenging 120
explained 120
released 120
An@@ 120
literature 120
stone 120
d-@@ 120
Congress 120
- 120
replace 120
capitalism 120
rooms 120
encourage 120
restaurant 120
immune 120
Amazon 120
player 119
typically 119
bar@@ 119
Wow 119
ally 119
kitchen 119
Los 119
rising 119
liquid 119
ent@@ 119
car@@ 119
ins 119
gain 119
fewer 119
falling 119
mathematical 119
doubt 119
vulnerable 119
Bank 119
Charles 119
2010 119
operate 119
tive 119
fl@@ 119
institution 119
3,000 118
T 118
consumer 118
tail 118
99 118
horse 118
Nobody 118
5,000 118
emotion 118
breath 118
Her 118
awareness 118
Only 118
acts 118
outcome 118
transition 118
perception 118
awesome 118
clip 118
Michael 118
photographs 118
mention 118
me@@ 118
signs 117
entrepreneurs 117
evening 117
neighbors 117
songs 117
roads 117
claim 117
occurred 117
goals 117
75 117
lets 117
detect 117
bomb 117
Something 117
situations 117
operation 117
remains 117
el 117
dropped 117
notes 117
viruses 117
print 117
swimming 117
illness 117
attacks 117
diet 117
poem 117
factor 117
grid 116
frame 116
ultimate 116
percentage 116
tonight 116
sets 116
crash 116
up@@ 116
remind 116
accurate 116
Will 116
soul 116
naturally 116
therapy 116
poetry 116
exchange 116
unknown 116
Russia 116
worker 115
C 115
arts 115
silence 115
afternoon 115
ul@@ 115
practical 115
fossil 115
hospitals 115
wars 115
chose 115
novel 115
School 115
pregnant 115
prepared 115
silk 115
Pacific 115
coral 115
evil 115
include 115
infected 115
printing 115
boxes 115
struck 114
motor 114
ah 114
fundamentally 114
style 114
parent 114
correct 114
proteins 114
to@@ 114
figures 114
4 114
opinion 114
unusual 114
options 114
reward 114
sugar 114
inspiration 113
cross 113
cortex 113
pleasure 113
funding 113
embrace 113
joke 113
Everyone 113
faced 113
memories 113
continued 113
false 113
constant 113
warm 113
empathy 113
King 113
runs 113
cat 113
studio 112
chart 112
defined 112
according 112
signed 112
advice 112
ia 112
Pakistan 112
Harvard 112
Ar@@ 112
performing 112
enable 112
violent 111
closely 111
amounts 111
chicken 111
sphere 111
explanation 111
cutting 111
mechanism 111
prime 111
occur 111
organ 111
ically 111
ears 111
State 111
hurt 111
linked 111
z 111
director 111
teams 111
ecosystem 111
senses 111
illegal 111
fingers 111
boring 111
antibiotics 111
confidence 111
Obama 111
GPS 111
economies 110
admit 110
Finally 110
hoping 110
ending 110
providing 110
tape 110
distributed 110
tests 110
instrument 110
wing 110
pi@@ 110
sensors 110
computing 110
films 110
pair 110
authority 110
burning 110
statement 110
deaths 110
string 110
ance 110
autism 110
mistakes 110
ment 109
severe 109
ol@@ 109
ten 109
church 109
te@@ 109
ators 109
agreed 109
&amp; 109
efficiency 109
ch 109
U.N. 109
globe 109
dramatic 109
appreciate 109
pro@@ 109
ours 109
dancing 109
expand 109
sl@@ 109
vehicles 109
curve 109
zone 109
smile 109
topic 109
writer 109
Also 109
Ch@@ 109
45 109
January 109
library 109
staff 109
Number 109
Unfortunately 109
allowing 109
algorithms 109
Arab 108
hotel 108
September 108
meaningful 108
busy 108
R 108
ked 108
thin 108
collected 108
chip 108
wondered 108
angry 108
ality 108
policies 108
YouTube 108
seeds 108
Muslim 107
solving 107
display 107
pollution 107
nor 107
drives 107
protected 107
atoms 107
ator 107
cave 107
clothes 107
season 107
fiction 107
younger 107
peak 107
criminal 107
21 107
sc@@ 107
ne@@ 107
22 107
hits 107
skill 107
privacy 107
architect 106
length 106
Egypt 106
tic 106
Sh@@ 106
wire 106
dense 106
judge 106
evolve 106
largely 106
sts 106
Park 106
flew 106
personally 106
tax 106
um@@ 106
tested 106
aspects 106
De@@ 106
Before 106
creature 106
laugh 106
Union 106
nose 106
frankly 106
PM 106
thanks 106
disappear 106
suffer 106
handle 106
measured 106
os 106
grows 106
balloon 106
marketing 105
2009 105
bu@@ 105
score 105
feeding 105
jail 105
disaster 105
Valley 105
refugees 105
puzzle 105
sports 105
shoot 105
error 105
interview 105
shaped 105
dozen 105
dogs 105
expert 105
odd 105
engaging 104
h 104
parking 104
fishing 104
bottle 104
th 104
aspect 104
Darwin 104
garden 104
army 104
falls 104
climb 104
succeed 104
functions 104
conclusion 104
abuse 104
destroyed 104
flowers 104
gs 104
controlled 104
combine 104
suit 104
mix 104
sustainability 104
stream 104
musical 104
bias 104
records 104
monkey 104
assume 104
finance 104
decline 104
players 103
extent 103
electronic 103
spreading 103
selection 103
implications 103
2007 103
Angeles 103
applications 103
causing 103
exposed 103
Ex@@ 103
raw 103
savings 103
paintings 103
anger 103
eggs 103
insurance 103
pushing 103
Day 103
bones 103
danger 103
fat 103
documents 103
collapse 102
Boston 102
recognized 102
Al 102
hydrogen 102
physically 102
remove 102
scan 102
fed 102
zoom 102
trend 102
ought 102
fake 102
input 102
well-@@ 102
taste 102
offered 102
limits 102
bet 102
Ad@@ 102
borders 102
secure 101
architects 101
ladies 101
grain 101
fears 101
harm 101
Chicago 101
combined 101
tracking 101
grab 101
Thomas 101
debt 101
German 101
stayed 101
carried 101
centuries 101
du@@ 101
ster 101
mon@@ 101
passionate 101
populations 101
technique 101
corporate 101
equation 101
horrible 101
placed 101
title 101
journalist 101
relate 101
miss 101
sunlight 101
domestic 100
element 100
About 100
unexpected 100
framework 100
rely 100
department 100
maintain 100
proof 100
Christmas 100
8 100
toxic 100
internal 100
shall 100
tall 100
comfort 100
60s 100
theme 100
hi@@ 100
conservation 100
patent 100
presented 100
Steve 100
Museum 100
pollen 100
wine 100
upper 99
collecting 99
repair 99
attempt 99
snow 99
Paris 99
burn 99
reference 99
plays 99
traveled 99
provided 99
tics 99
three-dimensional 99
des 99
Tom 99
Korea 99
-like 99
Remember 99
consumers 99
two-@@ 99
suicide 99
mirror 99
ty 99
ter@@ 99
Hi 99
well-being 99
fusion 99
circumstances 98
transformed 98
appropriate 98
av@@ 98
ain 98
height 98
somewhat 98
whale 98
instruments 98
Africans 98
go@@ 98
tically 98
equally 98
unlike 98
raising 98
Be@@ 98
stronger 98
breathe 98
customers 98
7 98
Other 98
gu@@ 98
exploring 98
5 98
generated 98
underwater 98
enemy 98
cents 98
iPhone 98
Project 98
al-@@ 97
mechanical 97
ve@@ 97
accepted 97
ics 97
abstract 97
Science 97
mammals 97
ens 97
quarter 97
samples 97
tu@@ 97
neighbor 97
existed 97
ves 97
commitment 97
uc@@ 97
insight 97
vaccines 97
greenhouse 97
nowhere 97
survey 97
ical 97
US 97
fruit 97
sum 97
subjects 97
feature 97
court 96
connecting 96
floating 96
Mo@@ 96
rocks 96
border 96
scary 96
magnetic 96
section 96
thrown 96
May 96
dies 96
cooking 96
wireless 96
dramatically 96
recording 96
button 96
outcomes 96
plans 96
determine 96
so-called 96
careful 96
drinking 96
crowd 96
split 96
humor 96
micro@@ 96
cheaper 96
ke@@ 96
logical 95
contrast 95
clinic 95
pl@@ 95
laboratory 95
invent 95
hero 95
19th 95
personality 95
prize 95
stock 95
features 95
House 95
symbol 95
ke 95
70s 95
Ah 95
Co@@ 95
resolution 95
sa@@ 95
automatically 95
conventional 95
seed 95
overall 95
Never 95
lung 95
exhibition 95
plate 95
imagined 95
Four 95
presence 94
International 94
painful 94
low-@@ 94
90s 94
pop 94
Manhattan 94
solid 94
educational 94
ky 94
rational 94
receive 94
overcome 94
Car@@ 94
tries 94
practices 94
surrounded 94
celebrate 94
grand 94
reverse 94
et@@ 94
Global 94
papers 94
wanting 94
man@@ 94
youth 94
dignity 94
bee 94
so@@ 94
crops 94
colony 94
te 94
sweet 94
reaching 93
courage 93
Sweden 93
nets 93
Foundation 93
Latin 93
captured 93
reported 93
depend 93
Th@@ 93
efforts 93
obsessed 93
paradigm 93
toy 93
latest 93
ble 93
oldest 93
translate 93
Next 93
for@@ 93
searching 93
doors 93
ten@@ 93
June 93
suggests 93
classic 93
hungry 93
shark 93
disorders 93
Art 93
piano 93
drove 93
whales 93
represented 92
windows 92
classes 92
housing 92
truck 92
emergency 92
la@@ 92
phase 92
orbit 92
barely 92
chaos 92
privilege 92
plenty 92
wheel 92
angle 92
poorest 92
application 92
lifestyle 92
banks 92
removed 92
600 92
ads 92
us@@ 92
incentives 92
Central 92
Woman 92
slavery 92
crying 91
three-@@ 91
grass 91
density 91
.@@ 91
wherever 91
habitat 91
dust 91
Nothing 91
breathing 91
ously 91
communications 91
accessible 91
ard 91
Mc@@ 91
beliefs 91
tea 91
cooperation 91
roots 91
layers 91
gray 91
experiencing 91
oc@@ 91
recognition 91
dioxide 91
committed 91
disorder 91
hang 91
ge 91
interactive 91
algorithm 91
brothers 91
ors 90
hall 90
transparency 90
apartment 90
polio 90
neither 90
meter 90
kers 90
mess 90
virtually 90
locked 90
organize 90
neuron 90
laser 90
19 90
Tell 90
root 90
Get 90
Hollywood 90
appears 90
phrase 90
clock 90
ence 90
optimistic 90
ped 90
Pole 90
Basically 90
behavioral 90
standards 89
mark 89
80s 89
dot 89
Atlantic 89
liver 89
pocket 89
microscope 89
increases 89
precisely 89
hearts 89
sisters 89
historical 89
facial 89
shoulder 89
s-@@ 89
curiosity 89
Be 89
Indeed 89
Revolution 89
2011 89
philosophy 89
axis 89
fascinated 89
suppose 89
monkeys 89
DH 89
designs 88
Health 88
component 88
Se@@ 88
hardware 88
cute 88
presentation 88
founded 88
loud 88
lovely 88
beach 88
rice 88
post 88
script 88
robotic 88
cup 88
fi@@ 88
breaking 88
spring 88
Le@@ 88
balls 88
channel 88
expectations 88
mice 88
surgeon 88
extract 88
produces 88
whereas 88
needle 88
c 88
rocket 88
agenda 87
band 87
villages 87
adapt 87
soft 87
apple 87
neighborhoods 87
pointed 87
Nations 87
attached 87
Any 87
ideal 87
involves 87
alized 87
methods 87
funded 87
limit 87
visited 87
heroes 87
the@@ 87
prices 87
pool 87
ear 87
frozen 87
dirty 87
ized 87
do@@ 87
shock 87
advertising 87
ines 87
in-@@ 87
birthday 87
ignore 87
ugly 87
Talk 87
concepts 87
identical 87
shame 87
Apple 87
treating 87
hunger 87
Islam 87
27 86
amongst 86
depending 86
license 86
mechanisms 86
animation 86
ing@@ 86
stations 86
ill 86
Ma@@ 86
gather 86
bl@@ 86
tired 86
pushed 86
herself 86
football 86
mate 86
Adam 86
uncomfortable 86
infinite 86
milk 86
guns 86
no@@ 86
behave 86
White 86
aside 86
integrated 86
economists 86
pure 86
Wikipedia 86
achieved 86
psychology 86
electronics 86
concern 85
2005 85
Me@@ 85
fixed 85
50,000 85
underground 85
meetings 85
4@@ 85
usual 85
embedded 85
reflect 85
diverse 85
delivered 85
properly 85
functional 85
psychological 85
23 85
silent 85
surely 85
opposed 85
picking 85
stands 85
globally 85
prototype 85
laughing 85
cartoon 85
consume 85
shake 85
stable 85
seek 85
spiritual 85
legacy 85
ful 85
isolated 85
official 85
responses 85
capita 85
flower 85
Antarctica 85
clouds 85
passing 85
6@@ 85
objective 85
speaker 85
crucial 84
ha 84
dedicated 84
cow 84
distant 84
parallel 84
blow 84
entertainment 84
Mon@@ 84
marine 84
units 84
gut 84
directions 84
enabled 84
destroy 84
ping 84
threw 84
cry 84
a-@@ 84
diagnosed 84
productivity 84
Really 84
laid 84
touched 84
ca@@ 84
ary 84
Alzheimer 84
nest 84
sticks 84
forgotten 84
clever 84
dinosaurs 84
app 84
co-@@ 84
alization 83
stores 83
appeared 83
infection 83
prefer 83
bike 83
shut 83
affordable 83
laughter 83
abilities 83
adding 83
ying 83
controlling 83
myth 83
2004 83
educated 83
reminded 83
divided 83
guide 83
entered 83
Voice 83
lens 83
slides 83
males 83
likes 83
colleague 83
Stanford 83
contract 83
invite 83
missed 83
mer 83
non@@ 83
Rwanda 83
Nature 83
chest 83
year-old 83
skull 83
conflicts 82
ey 82
toilet 82
luck 82
citizen 82
ably 82
measuring 82
super 82
federal 82
ber@@ 82
elected 82
open-source 82
drawn 82
defense 82
load 82
Ghana 82
cord 82
inspire 82
farmer 82
ching 82
cr@@ 82
shooting 82
Congo 82
author 82
laptop 82
makers 82
obesity 82
diabetes 82
sons 82
holds 82
chimpanzees 82
regime 82
variation 82
elsewhere 82
BG 82
Robert 82
SS 82
escape 81
profit 81
hire 81
ph@@ 81
friendly 81
pilot 81
inspiring 81
extinct 81
interactions 81
killer 81
Martin 81
proper 81
struggling 81
apparently 81
divide 81
victim 81
head@@ 81
daughters 81
fought 81
4,000 81
October 81
ver@@ 81
ars 81
Make 81
6 81
parties 81
underlying 81
Children 81
mi@@ 81
governance 81
contribute 81
advance 81
focusing 80
ceiling 80
northern 80
consequence 80
granted 80
1@@ 80
hanging 80
views 80
innovations 80
letting 80
ms 80
tied 80
He@@ 80
X 80
telephone 80
elephant 80
fluid 80
essence 80
estimate 80
clients 80
elections 80
choosing 80
Texas 80
Pro@@ 80
yours 80
imaging 80
grandchildren 80
ob@@ 80
Bush 80
provides 80
host 80
strategies 80
journalists 80
headed 80
universities 80
Per@@ 80
rec@@ 80
hum 80
minister 79
route 79
x@@ 79
Give 79
65 79
bicycle 79
ler 79
Space 79
discoveries 79
continues 79
reveal 79
religions 79
ingredients 79
ore 79
permanent 79
cook 79
opens 79
O 79
naked 79
Wall 79
unclear 79
includes 79
ni@@ 79
ina 79
2006 79
fuels 79
strangers 79
er-@@ 79
mainly 79
Jim 79
ensure 79
drill 79
pink 79
permission 79
blog 79
dependent 79
rarely 79
writers 79
session 79
nutrients 79
subtle 79
blah 79
powers 79
dolphins 79
bears 79
engagement 78
actors 78
dec@@ 78
tasks 78
Ethiopia 78
ci@@ 78
95 78
actor 78
thick 78
transport 78
returned 78
spectacular 78
confident 78
hardly 78
identified 78
brown 78
flexible 78
dozens 78
simplicity 78
tears 78
trends 78
assumptions 78
disappeared 78
finds 78
intense 78
lift 78
ig@@ 78
favor 78
darkness 78
ley 78
disability 78
pile 78
harvest 78
transparent 78
ta@@ 78
biologists 78
programming 78
recovery 78
polar 78
informed 77
improvement 77
capability 77
stages 77
graphic 77
Bang 77
5@@ 77
edges 77
dy 77
agencies 77
Time 77
walks 77
welcome 77
gonna 77
Italy 77
agricultural 77
four-@@ 77
vertical 77
promote 77
engineered 77
spinal 77
Ten 77
trans@@ 77
boundaries 77
agency 77
tube 77
anti@@ 77
pig 77
Dan 77
characteristics 77
r 77
owned 77
links 77
Mary 77
relations 76
weak 76
storm 76
originally 76
garbage 76
Island 76
loop 76
seats 76
backwards 76
pa@@ 76
mechanics 76
ology 76
speakers 76
illusion 76
ered 76
Mom 76
lawyer 76
dress 76
repeat 76
spots 76
interacting 76
academic 76
desk 76
document 76
20,000 76
Arctic 76
brief 76
reduced 76
react 76
wh@@ 76
combat 76
southern 76
output 76
neuroscience 76
aircraft 76
bars 76
Whether 76
served 76
satellites 76
symmetry 76
-to-@@ 76
forming 75
During 75
painted 75
stops 75
rolling 75
2003 75
har@@ 75
begun 75
ce@@ 75
ale 75
Hello 75
rat 75
flows 75
can@@ 75
east 75
Oxford 75
determined 75
lecture 75
sha@@ 75
announced 75
sculpture 75
spoken 75
contain 75
genius 75
7@@ 75
richer 75
bill 75
reform 75
west 75
sentences 75
pace 75
Haiti 75
muscles 75
knee 75
ignorance 75
mid-@@ 75
spider 75
BF 75
ze 74
globalization 74
tap 74
Uganda 74
ships 74
footprint 74
Par@@ 74
liberal 74
drivers 74
ridiculous 74
predicted 74
briefly 74
musicians 74
protecting 74
chances 74
bur@@ 74
investing 74
gi@@ 74
targets 74
suggesting 74
circles 74
tag 74
Un@@ 74
chosen 74
32 74
flag 74
inch 74
extended 74
weapon 74
biodiversity 74
synthetic 74
ho@@ 74
Six 74
back@@ 74
ner 74
tragedy 74
filter 74
failing 74
Am 74
initial 74
pat@@ 74
mixed 74
facility 73
tie 73
ethical 73
immediate 73
furniture 73
smoke 73
chips 73
impacts 73
els 73
sur@@ 73
hitting 73
monitor 73
ger 73
precise 73
250 73
ize 73
educate 73
fan 73
discuss 73
Human 73
positions 73
compete 73
answered 73
hand@@ 73
vital 73
reputation 73
Ra@@ 73
id@@ 73
we@@ 73
treatments 73
scales 73
ving 73
till 73
dimension 73
sacred 73
primarily 72
golf 72
confused 72
tour 72
attract 72
safer 72
orange 72
dig 72
injury 72
simulation 72
ink 72
wi@@ 72
alien 72
tip 72
fiber 72
unable 72
w 72
meal 72
earn 72
pairs 72
dly 72
ches 72
Ocean 72
ru@@ 72
surveillance 72
vessels 72
operations 72
theories 72
observation 72
diagram 72
perceive 72
fied 72
emerged 72
Spanish 72
expanding 72
Mark 72
blame 72
artistic 72
printed 72
upset 72
Muslims 72
nerve 72
Rio 72
exponential 72
dialogue 71
supported 71
dr@@ 71
shed 71
owner 71
serving 71
Bi@@ 71
controls 71
dictionary 71
dish 71
officer 71
accidents 71
hey 71
wise 71
physicist 71
En@@ 71
extinction 71
cast 71
Har@@ 71
mor@@ 71
wash 71
lawyers 71
boss 71
gl@@ 71
affects 71
tackle 71
plot 71
ste@@ 71
suffered 71
Obviously 71
magical 71
farming 71
ecosystems 71
Eastern 71
cash 71
winning 71
firm 71
tank 71
Green 71
established 71
widely 71
Things 71
contemporary 71
Narrator 71
fore@@ 71
ear@@ 71
chocolate 71
morality 71
landed 71
Sea 71
2001 70
Red 70
belong 70
interestingly 70
realm 70
maker 70
tech 70
Was 70
contains 70
figuring 70
Boy 70
explaining 70
fabulous 70
shopping 70
izing 70
adopted 70
afterwards 70
CEO 70
rescue 70
tricks 70
Isn 70
prosperity 70
loan 70
extend 70
1990s 70
photographed 70
iron 70
architectural 70
elderly 70
physician 70
ments 70
reports 70
war@@ 70
volunteers 70
gotta 70
radically 70
ff 70
Back 70
probability 70
St@@ 70
origin 70
participants 70
ga@@ 70
download 70
translation 70
hackers 70
dominant 70
transplant 70
threats 70
demonstrate 69
broad 69
au@@ 69
transmission 69
anxiety 69
exception 69
conclude 69
ak 69
ka 69
brave 69
ma 69
pack 69
ances 69
su@@ 69
gr@@ 69
steal 69
ou@@ 69
ingly 69
covering 69
ay 69
translated 69
gradually 69
Pe@@ 69
encounter 69
emerge 69
transfer 69
methane 69
separated 69
Li@@ 69
Soviet 69
periods 69
NSA 69
stones 69
asks 69
Me 69
optimism 69
2012 69
leverage 69
mode 68
fabric 68
Long 68
fortunate 68
pitch 68
multi-@@ 68
skeleton 68
loans 68
wider 68
attitude 68
half-@@ 68
islands 68
secrets 68
33 68
Act 68
symbols 68
Nobel 68
Prize 68
refugee 68
threatened 68
soldier 68
cur@@ 68
club 68
2050 68
ry 68
Girl 68
photography 68
nurses 68
flip 68
unprecedented 68
leap 68
corporations 68
circuit 68
cats 68
smoking 68
inevitable 68
depressed 68
None 68
consistent 68
currency 68
all@@ 68
caring 68
trucks 68
ana 68
connectivity 68
Su@@ 68
terrorist 68
genocide 68
Bible 68
narrow 68
sensory 68
Law 68
humanitarian 68
Higgs 68
terrorists 67
ut@@ 67
array 67
partly 67
High 67
located 67
scores 67
Lo@@ 67
sales 67
expansion 67
Blue 67
Gulf 67
burden 67
depth 67
tuna 67
successfully 67
calculate 67
intuition 67
heaven 67
Qu@@ 67
arrested 67
earthquake 67
kes 67
ed@@ 67
mad 67
armed 67
smarter 67
grateful 67
wings 67
ward 67
categories 67
resistant 67
photographer 67
profits 67
alize 67
tribes 67
River 67
Department 67
-year-old 67
primitive 67
cor@@ 67
gods 67
Southern 67
shrimp 67
Florida 67
Cambridge 67
deserve 67
printer 67
elite 67
graphics 67
recover 67
chapter 67
genetically 67
terror 67
expertise 67
corn 67
rhythm 67
poet 67
ver 66
prepare 66
Minister 66
Rome 66
Within 66
1980s 66
alizing 66
Gates 66
analyze 66
marry 66
sion 66
Ford 66
shots 66
120 66
shelter 66
approaches 66
mayor 66
chairs 66
rapid 66
limb 66
sheet 66
database 66
charity 66
fragile 66
Russian 66
crossing 66
hu@@ 66
Third 66
v 66
protest 66
res@@ 66
airport 66
Bar@@ 66
March 66
footage 66
lighting 66
air@@ 66
teenagers 66
Peter 66
suggested 66
Without 66
gh@@ 66
rivers 66
stability 66
additional 66
measures 66
jumped 66
competitive 66
sal@@ 66
pump 66
gen@@ 66
terrifying 66
native 66
closest 66
peaceful 66
ass 66
bags 66
-based 66
motivation 66
bats 66
Christian 65
Northern 65
8@@ 65
reliable 65
General 65
December 65
particle 65
Saturn 65
strongly 65
astonishing 65
predictions 65
telescope 65
prediction 65
representation 65
climbing 65
Bo@@ 65
linear 65
bizarre 65
sleeping 65
Taliban 65
dic@@ 65
traditions 65
homeless 65
assets 65
collaborative 65
autonomous 65
poly@@ 65
Jewish 65
February 65
uncle 65
dive 65
mail 65
versions 65
adventure 65
Microsoft 65
chief 65
remembered 65
domain 65
observe 65
baseball 65
Research 65
openness 65
her@@ 65
algae 65
fifth 65
tends 65
f 65
drawings 65
detailed 65
file 65
participation 65
ff@@ 65
Council 65
lions 65
excitement 65
lake 65
RB 65
instructions 65
penguins 65
F 64
adapted 64
ders 64
de-@@ 64
subway 64
26 64
enables 64
br@@ 64
waters 64
sharks 64
aim 64
frequency 64
Little 64
fraction 64
witness 64
ths 64
revenue 64
helpful 64
pretend 64
quest 64
ats 64
beer 64
quit 64
Until 64
ys 64
lands 64
cable 64
a.m. 64
sheep 64
frustrated 64
zing 64
fy 64
eaten 64
zones 64
miracle 64
crop 64
category 64
fastest 64
posted 64
id 64
description 64
cartoons 64
rush 64
Greek 64
investors 64
Sorry 64
activists 64
surfaces 64
fires 64
tional 64
invested 64
qualities 64
fying 64
opera 64
constructed 64
gram 64
Frank 64
regret 64
ish 64
channels 64
colonies 64
insect 64
zed 64
rough 64
1970s 64
buried 64
intuitive 63
dressed 63
gathering 63
od@@ 63
talent 63
via 63
mobility 63
innocent 63
wildlife 63
motivated 63
renewable 63
Ph.D. 63
surprisingly 63
entering 63
burned 63
initially 63
bs 63
ses 63
ative 63
Child 63
warning 63
Scott 63
So@@ 63
Mother 63
pulling 63
toys 63
badly 63
trains 63
storytelling 63
whatsoever 63
Pi@@ 63
experimental 63
bug 63
viral 63
throwing 63
silly 63
healthier 63
listened 63
drew 63
glad 63
convert 63
recipe 63
glasses 63
kick 63
Bay 63
Yorker 63
neural 63
Ebola 63
intervention 62
Should 62
survived 62
sits 62
assumption 62
disabled 62
pound 62
demonstration 62
achievement 62
explosion 62
9@@ 62
Moon 62
feminist 62
Friday 62
clothing 62
pen 62
golden 62
empowered 62
reactions 62
happier 62
shifting 62
newspapers 62
sport 62
agreement 62
purposes 62
confront 62
Wh@@ 62
diagnosis 62
interviewed 62
tumors 62
ecological 62
MS 62
washing 62
tribe 62
Bob 62
drone 62
Jesus 62
profoundly 61
peoples 61
ned 61
offers 61
ubiquitous 61
extension 61
delivery 61
Both 61
reduction 61
applying 61
tes 61
airplanes 61
estate 61
inches 61
700 61
Ne@@ 61
plain 61
professionals 61
scenario 61
pu@@ 61
Although 61
explains 61
remaining 61
MRI 61
super-@@ 61
Italian 61
senior 61
fathers 61
five-@@ 61
breaks 61
bathroom 61
computation 61
conservative 61
perceived 61
judgment 61
females 61
winds 61
publish 61
hired 61
replicate 61
stroke 61
planes 61
ently 61
rent 61
medication 61
tragic 61
il 61
merely 61
mysterious 61
horizon 61
arrive 61
prisoners 61
Technology 61
improving 61
end@@ 61
offices 61
outer 61
Sa@@ 61
compassionate 61
Po@@ 61
orders 61
Islamic 61
instant 61
worms 61
robust 61
endangered 61
included 61
expectancy 61
grandparents 61
origami 61
Square 60
influenced 60
garage 60
factories 60
30,000 60
headlines 60
replaced 60
instantly 60
industries 60
Moore 60
crew 60
analogy 60
alism 60
estimates 60
worthy 60
17@@ 60
6,000 60
Jo@@ 60
refer 60
reducing 60
rebuild 60
gathered 60
claims 60
distinct 60
tune 60
aged 60
scenes 60
all-@@ 60
independence 60
ken 60
drops 60
matrix 60
dinosaur 60
Com@@ 60
gate 60
bored 60
tone 60
supporting 60
Spain 60
simultaneously 60
Islands 60
Norway 60
tent 60
unlikely 60
shipping 60
labs 60
pigs 60
entrepreneur 60
closing 60
den@@ 60
healing 60
scratch 60
cap@@ 60
historic 60
pyramid 60
beating 60
microbial 60
comet 60
Derek 60
loc@@ 59
pride 59
authorities 59
facilities 59
ite 59
ratio 59
insights 59
neat 59
50s 59
tures 59
bor@@ 59
flowing 59
arguments 59
venture 59
res 59
nurse 59
X-ray 59
July 59
soup 59
oo@@ 59
sed 59
glamorous 59
audio 59
offering 59
navigate 59
Sunday 59
Ac@@ 59
wired 59
silver 59
compelling 59
To@@ 59
Somebody 59
ws 59
cooperate 59
observed 59
Smith 59
poster 59
unbelievable 59
shirt 59
mat@@ 59
Silicon 59
infections 59
wealthy 59
ents 59
injustice 59
stored 59
Tim 59
fer@@ 59
1960 59
trace 59
ali@@ 59
tra@@ 59
smooth 59
mosquito 59
besides 59
ta 59
van 59
tim@@ 59
errors 59
L.A. 59
clay 59
-and-@@ 58
ning 58
ess 58
o-@@ 58
sanitation 58
fancy 58
highway 58
improved 58
attractive 58
reasonable 58
external 58
tical 58
tic@@ 58
discovering 58
preserve 58
supplies 58
branch 58
Peace 58
Gu@@ 58
pants 58
Zealand 58
conducted 58
courses 58
ns 58
athletes 58
household 58
beautifully 58
jellyfish 58
com@@ 58
gases 58
tracks 58
mining 58
wound 58
For@@ 58
imagery 58
articles 58
20@@ 58
client 58
bottles 58
mapping 58
wheelchair 58
bas@@ 58
shell 58
reflection 58
review 58
demographic 58
dear 58
bat 58
capabilities 58
Arabic 58
stays 58
cycles 58
Love 58
stepped 58
agent 58
cheese 58
structural 58
civic 58
circuits 58
dolphin 58
oxytocin 58
MK 58
Nelson 57
ets 57
Being 57
fits 57
é 57
continuous 57
on-@@ 57
Henry 57
downtown 57
precious 57
plug 57
funds 57
woke 57
ges 57
fibers 57
someday 57
luxury 57
taxes 57
cosmic 57
shadow 57
freely 57
camps 57
trajectory 57
realizing 57
medicines 57
fe@@ 57
pursue 57
hated 57
Ro@@ 57
El@@ 57
staying 57
terribly 57
selected 57
toes 57
fortunately 57
rope 57
risky 57
multi@@ 57
simpler 57
palm 57
Shanghai 57
Suddenly 57
seeking 57
barrier 57
previously 57
magnitude 57
bedroom 57
panels 57
mood 57
boom 57
institutional 57
personalized 57
Eric 57
queen 57
ering 57
&apos;clock 57
deaf 57
wedding 57
dominated 57
command 57
mindset 57
ise 57
storage 57
salt 57
str@@ 57
predictable 57
correctly 57
Social 56
believing 56
NGOs 56
initiative 56
Her@@ 56
slums 56
tower 56
boats 56
interior 56
estimated 56
lifted 56
procedure 56
generous 56
Put 56
Sure 56
safely 56
continuing 56
Gore 56
phenomena 56
audiences 56
profile 56
officials 56
gentleman 56
sacrifice 56
fication 56
proposed 56
cha@@ 56
voting 56
kills 56
Delhi 56
expecting 56
bend 56
an-@@ 56
comment 56
preparing 56
Dad 56
Sir 56
neck 56
Olympics 56
continents 56
ignored 56
flash 56
demands 56
trash 56
hopes 56
ely 56
completed 56
collectively 56
keyboard 56
bucks 56
College 56
trauma 56
assignment 56
socially 56
1960s 56
proportion 56
resilience 56
ep@@ 56
Lab 56
logy 56
Up 56
Secondly 56
Hall 56
difficulty 56
vacuum 56
hunting 56
tissues 56
rats 56
kingdom 56
communicating 56
expedition 56
concerns 56
entropy 56
ooh 56
copyright 56
ban@@ 55
X@@ 55
large-scale 55
residents 55
shops 55
packed 55
seemingly 55
wires 55
wed 55
800 55
package 55
bound 55
historically 55
overwhelming 55
Star 55
beneath 55
binary 55
sun@@ 55
Army 55
corals 55
fac@@ 55
nights 55
foods 55
transmit 55
impressive 55
encouraged 55
wore 55
bombs 55
lit 55
Indonesia 55
drones 55
curriculum 55
Tri@@ 55
le-@@ 55
Ben 55
measurements 55
fallen 55
tur@@ 55
ery 55
machinery 55
mold 55
Si@@ 55
200,000 55
mentor 55
economist 55
discipline 55
ko 55
aw@@ 55
Its 55
pause 55
substance 55
construct 55
generating 55
specialized 55
administration 55
bul@@ 55
absence 55
gra@@ 55
counter 55
Black 55
branches 55
traits 55
pharmaceutical 55
damaged 55
mathematicians 55
connects 55
stranger 55
anonymous 55
uncertainty 55
strategic 55
Homo 55
85 55
landing 55
pulse 55
dating 55
comments 55
reactor 55
canopy 55
Gabby 55
label 54
paradox 54
tension 54
planted 54
sheets 54
bri@@ 54
manner 54
1950s 54
15@@ 54
physicists 54
Alexander 54
knife 54
shocked 54
Whatever 54
intensive 54
panel 54
straightforward 54
shine 54
propose 54
sexy 54
collapsed 54
fa@@ 54
lock 54
performed 54
pr@@ 54
activist 54
boards 54
dynamics 54
geometry 54
tru@@ 54
vacation 54
alcohol 54
vegetables 54
min@@ 54
teenage 54
cotton 54
14@@ 54
ved 54
Still 54
accounts 54
challenged 54
Y 54
temperatures 54
rating 54
occasionally 54
believes 54
Security 54
retirement 54
ots 54
paralyzed 54
approaching 54
G 54
seas 54
interpretation 54
wa@@ 54
nutrition 54
ay@@ 54
powered 54
electrodes 54
chains 54
valley 54
restore 54
Man@@ 54
district 54
melt 54
Parkinson 54
remembering 54
politically 53
2002 53
heading 53
Ha@@ 53
column 53
ach@@ 53
wheat 53
hip 53
reminds 53
donor 53
ulate 53
Johnson 53
ched 53
locations 53
surrounding 53
labeled 53
nuts 53
graduated 53
follows 53
ambitious 53
honestly 53
Lord 53
promised 53
tsunami 53
obstacles 53
attacked 53
beaten 53
Listen 53
S 53
homework 53
Ap@@ 53
Or@@ 53
sti@@ 53
tongue 53
fate 53
damn 53
pill 53
tre@@ 53
strike 53
tion-@@ 53
destroying 53
hypothesis 53
Au@@ 53
hill 53
portraits 53
work@@ 53
Jack 53
Design 53
Anybody 53
smallest 53
and@@ 53
intensity 53
ian 53
minimum 53
Almost 53
ideology 53
asteroid 53
fo@@ 53
suck 53
wor@@ 53
describing 53
Bra@@ 53
po@@ 53
post-@@ 53
ven@@ 53
suspect 53
mainstream 53
organizing 53
spin 53
scanner 53
Court 53
Sp@@ 53
16@@ 53
Indians 53
soap 53
intended 52
ls 52
installed 52
extraordinarily 52
helicopter 52
down@@ 52
wheels 52
integration 52
shy 52
comedy 52
guilty 52
Br@@ 52
sizes 52
yield 52
annual 52
ongoing 52
curves 52
origins 52
sta@@ 52
covers 52
I. 52
La 52
signature 52
phosphorus 52
convey 52
ture 52
counting 52
Brazilian 52
ang@@ 52
bite 52
format 52
ene 52
disabilities 52
banking 52
Except 52
parks 52
Joe 52
clarity 52
reef 52
Turns 52
authentic 52
hiding 52
commit 52
Seattle 52
upside 52
shit 52
trapped 52
tendency 52
ists 52
Am@@ 52
refused 52
advances 52
succeeded 52
honey 52
gaps 52
elephants 52
crimes 52
ory 52
prisons 52
nearby 52
cellular 52
chimpanzee 52
den 52
items 52
sensor 52
internet 52
memes 52
accountability 52
locally 52
constraints 52
sharp 52
nerves 52
realities 51
broader 51
Cor@@ 51
grocery 51
recycling 51
1990 51
appeal 51
volunteer 51
proved 51
farms 51
Zero 51
occurs 51
evolving 51
sciences 51
temporary 51
pri@@ 51
staring 51
28 51
calories 51
regardless 51
bow 51
backs 51
Go@@ 51
decrease 51
telescopes 51
equations 51
Academy 51
indigenous 51
utterly 51
excellent 51
literacy 51
assistance 51
Chile 51
sustain 51
Ladies 51
prostate 51
appearance 51
shelf 51
workforce 51
portion 51
wives 51
acknowledge 51
sk@@ 51
Ab@@ 51
urge 51
yourselves 51
cuts 51
rape 51
speaks 51
lungs 51
Carolina 51
romantic 51
planetary 51
glue 51
activate 51
ethnic 51
transforming 51
comp@@ 51
k-@@ 51
automobile 51
log 51
blindness 51
bond 51
adopt 51
sub-@@ 51
Brown 51
awkward 51
injured 51
em 51
pointing 51
dung 51
selfish 51
abundance 51
illustrate 51
breeding 51
Organization 51
approved 51
ites 51
Korean 51
Professor 51
march 51
ber 51
loving 51
pole 51
ards 51
agents 51
revealed 51
platforms 51
tly 51
FBI 51
Berlin 51
desperately 51
scanning 51
striking 51
fence 51
orchestra 51
Stage 51
caves 51
introduction 51
genetics 51
chromosome 51
dilemma 51
bubbles 51
hacking 51
teenager 51
loves 51
glacier 51
touching 50
Together 50
restaurants 50
passes 50
-up 50
ticket 50
marketplace 50
Grand 50
keys 50
Vietnam 50
atomic 50
describes 50
robotics 50
compounds 50
sink 50
dose 50
pen@@ 50
lion 50
formation 50
crack 50
ev@@ 50
relief 50
Afghan 50
harmony 50
passive 50
concert 50
mar@@ 50
blank 50
breakfast 50
flu@@ 50
magnificent 50
Bangladesh 50
terrified 50
alarm 50
denial 50
Stop 50
biologist 50
customer 50
enforcement 50
Brian 50
discussions 50
manager 50
portrait 50
compromise 50
pan@@ 50
limitations 50
mer@@ 50
ritual 50
expressed 50
variations 50
lu@@ 50
alternatives 50
Switzerland 50
60,000 50
Bruno 50
punishment 50
installation 50
gained 50
request 50
passenger 50
St. 50
elegant 50
County 50
As@@ 50
Hu@@ 50
ization 50
Greenland 50
Industrial 50
destiny 50
boundary 50
neutral 49
reflected 49
Beijing 49
amazed 49
micro-@@ 49
Through 49
approached 49
cart 49
bra@@ 49
August 49
microphone 49
P 49
bulb 49
ama@@ 49
Brooklyn 49
remained 49
cre@@ 49
ming 49
spacecraft 49
hopeful 49
exploit 49
artwork 49
Swiss 49
exposure 49
proposal 49
Rather 49
sectors 49
ownership 49
ast 49
bang 49
tunnel 49
stopping 49
territory 49
worrying 49
dropping 49
advocate 49
Church 49
ny 49
odds 49
bled 49
breakthrough 49
rubber 49
na@@ 49
offspring 49
top@@ 49
tables 49
aesthetic 49
Absolutely 49
functioning 49
rethink 49
mosquitos 49
philosopher 49
syndrome 49
ach 49
amazingly 49
static 49
lin@@ 49
tubes 49
April 49
Geographic 49
meets 49
clubs 49
encouraging 49
poems 49
monitoring 49
Dutch 49
2015 49
Sch@@ 49
summit 49
ne 49
ion 49
significantly 49
fired 49
kindness 49
coat 49
thumb 49
wrist 49
ur 49
god 49
therapies 49
Do@@ 49
radi@@ 49
relation 49
pur@@ 49
Tony 49
29 49
ecology 49
failures 49
habits 49
detection 49
item 49
JH 49
altitude 49
diving 49
voted 49
ined 49
cricket 49
melting 49
readers 49
Israeli 49
troops 48
controversial 48
enemies 48
establish 48
abandoned 48
cows 48
ash 48
horses 48
Por@@ 48
land@@ 48
asset 48
ing-@@ 48
40,000 48
rings 48
Anyone 48
ban 48
aggressive 48
kidney 48
missions 48
builds 48
heal 48
overnight 48
doubled 48
tear 48
accomplished 48
earliest 48
right-hand 48
Virginia 48
relatives 48
20s 48
protests 48
November 48
No@@ 48
mines 48
Air 48
forgot 48
visualization 48
proposition 48
alist 48
rose 48
wrap 48
plastics 48
mushroom 48
publishing 48
sy 48
regulation 48
expanded 48
sting 48
ut 48
deals 48
Whereas 48
entry 48
stretch 48
bacterial 48
raises 48
profession 48
attitudes 48
Same 48
investments 48
blew 48
Syria 48
Arthur 48
accomplish 48
masses 48
devil 48
Mor@@ 48
meals 48
handed 48
19@@ 48
hat 48
systematically 48
Ray 48
Saudi 48
contributed 48
scans 48
Clinton 48
skeletal 48
documentary 48
emails 48
Kevin 48
72 48
minus 48
switched 48
.com 48
concentration 48
geography 48
Leonardo 48
classrooms 48
ir 48
vessel 48
Asian 48
lowest 48
Detroit 48
pigeon 48
subjective 48
cop@@ 48
48 48
sandwich 48
glamour 48
insulin 48
dough 48
Stasi 48
SW 48
minority 47
Mandela 47
Coke 47
Tanzania 47
Open 47
post@@ 47
ordered 47
der@@ 47
purple 47
visualize 47
pursuit 47
dawn 47
proven 47
gear 47
wrapped 47
pray 47
joint 47
eliminate 47
ack 47
implement 47
bal@@ 47
realistic 47
zes 47
hardest 47
Ri@@ 47
defend 47
raped 47
ung 47
Koran 47
alongside 47
Im@@ 47
leaf 47
soccer 47
Canadian 47
musician 47
clue 47
Probably 47
motions 47
marker 47
cap 47
prosthetic 47
grave 47
icon 47
winner 47
blowing 47
landscapes 47
vary 47
competing 47
legislation 47
shifts 47
ell 47
enjoying 47
frightening 47
incentive 47
adjust 47
visions 47
ble@@ 47
resolve 47
55 47
ening 47
responded 47
Someone 47
Ti@@ 47
decent 47
barriers 47
Ta@@ 47
infectious 47
guards 47
miserable 47
William 47
ft 47
separation 47
ther@@ 47
fever 47
classical 47
cared 47
aff@@ 47
Dis@@ 47
Ge@@ 47
tin 47
2020 47
sale 47
ski 47
equity 47
Half 47
stack 47
af@@ 47
retina 47
hometown 47
cheat 47
med 47
Monterey 47
contrary 47
grasp 46
opinions 46
assembly 46
informal 46
basketball 46
iting 46
motors 46
lanes 46
foundations 46
posed 46
vers 46
System 46
probe 46
antibiotic 46
concentrated 46
ye@@ 46
pers 46
surgeons 46
comparison 46
randomly 46
inevitably 46
trivial 46
Inter@@ 46
behalf 46
ai 46
Ireland 46
corners 46
selves 46
acid 46
iness 46
empower 46
fies 46
laughed 46
interpret 46
screening 46
star@@ 46
Men 46
cliff 46
Wait 46
colored 46
representing 46
reefs 46
predators 46
ell@@ 46
prey 46
resist 46
continuously 46
crossed 46
documented 46
pockets 46
Bu@@ 46
bin 46
fraud 46
fin@@ 46
sle@@ 46
sensing 46
affecting 46
mimic 46
clusters 46
Out 46
ide@@ 46
D.C. 46
deployed 46
unconscious 46
excuse 46
wn 46
blown 46
suits 46
receiving 46
mankind 46
nu@@ 46
pos@@ 46
bridges 46
sized 46
que 46
Turkey 46
journalism 46
trafficking 46
narratives 46
Singapore 46
rituals 46
left-hand 46
sensation 46
knees 46
Sal@@ 46
Force 46
Coast 46
1980 46
criteria 46
rainforest 46
deforestation 46
stomach 46
asteroids 46
LG 46
deepest 46
disagree 45
apartments 45
to-@@ 45
mud 45
K 45
steam 45
consumed 45
teaches 45
explored 45
thrive 45
riding 45
farther 45
woods 45
ills 45
owners 45
calculated 45
remarkably 45
contributing 45
planting 45
iconic 45
Watson 45
devastating 45
demonstrated 45
affairs 45
und@@ 45
partnership 45
ging 45
panic 45
fur@@ 45
ular 45
pipe 45
revolutionary 45
guarantee 45
infant 45
mid@@ 45
enterprise 45
backyard 45
ick 45
frequently 45
nasty 45
embarrassing 45
smiling 45
texting 45
desktop 45
scaling 45
Stephen 45
routine 45
harmful 45
pit 45
2030 45
managers 45
Bell 45
default 45
leather 45
ese 45
investigate 45
ash@@ 45
frames 45
belongs 45
nonprofit 45
fluorescent 45
int 45
phenomenal 45
handful 45
computational 45
habit 45
fr@@ 45
chronic 45
trigger 45
Ber@@ 45
Rights 45
tering 45
Lincoln 45
charged 45
impression 45
Charlie 45
drag 45
Min@@ 45
Queen 45
African-American 45
Vi@@ 45
tor@@ 45
deck 45
Andrew 45
mu@@ 45
strip 45
Titan 45
formula 45
nodes 45
ll 45
parachute 45
smartphone 45
delicious 45
kin 45
livestock 45
iceberg 45
aps 45
patents 45
# 45
electron 45
ine@@ 45
MR 45
inclusive 44
representative 44
refuse 44
cluster 44
pul@@ 44
diarrhea 44
1998 44
acy 44
usage 44
diameter 44
Jersey 44
sive 44
borrow 44
Super@@ 44
codes 44
criminals 44
poison 44
ure 44
imagining 44
immense 44
Ser@@ 44
bullet 44
negotiate 44
pour 44
bold 44
ra 44
anticipate 44
pet 44
visiting 44
journal 44
tiles 44
sw@@ 44
hoped 44
che@@ 44
privileged 44
bo 44
waited 44
gallery 44
carries 44
hunt 44
pays 44
observations 44
reproduce 44
strings 44
high-tech 44
cu@@ 44
yards 44
Ros@@ 44
insane 44
JS 44
acquired 44
screaming 44
index 44
biases 44
IBM 44
beetle 44
Watch 44
climbed 44
repeated 44
flesh 44
grades 44
gorgeous 44
involve 44
carpet 44
witnessed 44
prisoner 44
hormones 44
prior 44
researcher 44
mapped 44
likelihood 44
pandemic 44
wasted 44
select 44
precision 44
ences 44
kiss 44
mutations 44
threshold 44
sheer 44
intention 44
genomes 44
preparation 44
actively 44
lethal 44
yard 44
men@@ 44
distances 44
fortune 44
SP 44
worm 44
ple@@ 44
lists 44
convicted 44
belly 44
Jane 44
sen@@ 44
Hawaii 44
dopamine 44
manipulate 44
truths 44
accuracy 44
EM 44
websites 44
mask 44
wage 44
bonds 44
tolerance 44
jihad 44
Palestinian 43
pouring 43
formal 43
supermarket 43
towns 43
36 43
batteries 43
integrate 43
marks 43
Having 43
implemented 43
firing 43
fault 43
candidate 43
Apollo 43
ote 43
Pretty 43
ologist 43
harbor 43
bother 43
rises 43
ast@@ 43
des@@ 43
bamboo 43
paths 43
Way 43
spinning 43
calculations 43
Bur@@ 43
Eventually 43
reaches 43
Gandhi 43
momentum 43
priority 43
def@@ 43
roles 43
typing 43
thus 43
Hong 43
stake 43
burst 43
Pa@@ 43
Berkeley 43
ow 43
welfare 43
happily 43
engines 43
identities 43
peculiar 43
argued 43
discussing 43
sted 43
mall 43
visually 43
cra@@ 43
sooner 43
prescription 43
horror 43
Show 43
News 43
cope 43
overwhelmed 43
tuberculosis 43
halfway 43
employment 43
trading 43
smallpox 43
principal 43
H 43
wow 43
bills 43
Santa 43
authors 43
sequencing 43
despair 43
discrimination 43
Mu@@ 43
Steven 43
canvas 43
Media 43
sends 43
marked 43
occurring 43
ham 43
innovate 43
inherently 43
Lake 43
SETI 43
reactors 43
transformative 43
kicked 43
incident 43
mammal 43
fees 43
distinction 42
hom@@ 42
settled 42
utter 42
generic 42
regularly 42
condoms 42
1.5 42
real-time 42
reporting 42
technically 42
theoretical 42
Aristotle 42
suspended 42
shining 42
messy 42
Trade 42
ately 42
Nigerian 42
duty 42
apes 42
trap 42
sm@@ 42
thrilled 42
att@@ 42
float 42
ire 42
Egyptian 42
cake 42
norms 42
According 42
desperate 42
rotate 42
optical 42
10@@ 42
ose 42
hood 42
pills 42
murder 42
conduct 42
sail 42
maximum 42
spare 42
peers 42
Age 42
enjoyed 42
disturbing 42
activated 42
freezing 42
Jeff 42
nearest 42
rot@@ 42
useless 42
understands 42
ya 42
entrepreneurship 42
rays 42
returns 42
crude 42
abundant 42
ick@@ 42
sequences 42
realization 42
achieving 42
destination 42
manual 42
texts 42
8,000 42
Jones 42
tribal 42
31 42
legitimate 42
CR 42
significance 42
slower 42
1999 42
schizophrenia 42
unhappy 42
psychologist 42
losses 42
Cha@@ 42
converted 42
rains 42
strands 42
comic 42
implant 42
longevity 42
El 42
AM 42
Mountain 42
balloons 42
Ru@@ 42
guard 42
cy@@ 42
inmates 42
neuro@@ 42
decision-making 42
migration 41
ank 41
Des@@ 41
dirt 41
trips 41
Development 41
associate 41
economically 41
jet 41
Wil@@ 41
25,000 41
six-@@ 41
contribution 41
ran@@ 41
ot 41
Consider 41
coach 41
catching 41
nowadays 41
intact 41
composition 41
mal@@ 41
bling 41
recognizing 41
Sha@@ 41
checks 41
iled 41
youngest 41
tered 41
allies 41
glimpse 41
girlfriend 41
accelerate 41
50-@@ 41
book@@ 41
terrain 41
hook 41
recall 41
sake 41
pulls 41
torture 41
terrific 41
V 41
sperm 41
Keep 41
namely 41
filling 41
fisheries 41
ane 41
emergence 41
entities 41
enormously 41
arrest 41
consensus 41
ville 41
producers 41
smells 41
cat@@ 41
exotic 41
mic 41
magazines 41
val@@ 41
thirds 41
enc@@ 41
Mi@@ 41
museums 41
barrel 41
division 41
port 41
History 41
analyzed 41
calm 41
Mozart 41
highlight 41
pot 41
heavily 41
candidates 41
ak@@ 41
ulation 41
indicate 41
or-@@ 41
pizza 41
install 41
shoulders 41
streams 41
Argentina 41
logo 41
cal@@ 41
96 41
L 41
networking 41
psychologists 41
workplace 41
Ni@@ 41
adoption 41
regard 41
topics 41
ti 41
Mumbai 41
n-@@ 41
western 41
Audio 41
dreaming 41
grains 41
ades 41
trailer 41
obese 41
expressions 41
perceptions 41
lamp 41
mathematician 41
punch 41
spreads 40
150,000 40
shocking 40
eastern 40
speci@@ 40
toilets 40
targeted 40
hor@@ 40
dumb 40
20-@@ 40
350 40
creator 40
lo 40
kit 40
comparing 40
counted 40
gains 40
resilient 40
Ver@@ 40
lin 40
jam 40
stri@@ 40
struggled 40
parenting 40
celebrated 40
emotionally 40
Business 40
anniversary 40
metric 40
matched 40
encountered 40
ceremony 40
uniform 40
posters 40
philanthropy 40
Nor@@ 40
drunk 40
va 40
mycelium 40
contained 40
bles 40
practically 40
ill@@ 40
pad 40
editor 40
Shakespeare 40
shifted 40
pin@@ 40
planned 40
Pennsylvania 40
rejected 40
sixth 40
bon@@ 40
occasion 40
tropical 40
shore 40
Year 40
pie 40
endless 40
clinics 40
checked 40
generates 40
campus 40
bly 40
pose 40
shaking 40
survivors 40
bush 40
Bas@@ 40
countless 40
Lego 40
crap 40
favorites 40
ess@@ 40
ki@@ 40
slaves 40
vo@@ 40
findings 40
democracies 40
horizontal 40
coverage 40
programmers 40
lonely 40
addressing 40
stolen 40
systematic 40
hierarchy 40
columns 40
mere 40
gardens 40
atory 40
viewer 40
onstage 40
Using 40
intimate 40
Harry 40
cattle 40
seal 40
Jews 40
screens 40
drought 40
graphs 40
30s 40
st-@@ 40
profitable 40
concentrate 40
Sahara 40
pop@@ 40
hormone 40
prevention 40
editors 40
deciding 40
Philadelphia 40
suggestion 40
trusted 40
accountable 40
LP 40
li 40
disgust 40
JF 40
Line 39
lobby 39
wooden 39
approximately 39
bers 39
th-@@ 39
Goals 39
rows 39
tives 39
est@@ 39
officers 39
Newton 39
collaborators 39
acres 39
ax@@ 39
convenient 39
publicly 39
absorb 39
tale 39
fatal 39
ater 39
investigation 39
cas@@ 39
washed 39
metals 39
jo@@ 39
obsolete 39
surgical 39
chimps 39
weigh 39
reasoning 39
dancers 39
prostitution 39
cream 39
payment 39
maintenance 39
sir 39
laptops 39
tal@@ 39
travels 39
opposition 39
deserves 39
shelves 39
virtue 39
prototypes 39
win@@ 39
egg 39
gre@@ 39
assemble 39
belt 39
tor 39
itation 39
considering 39
Ed 39
feeds 39
two-thirds 39
exhibit 39
gy 39
holy 39
cups 39
empowerment 39
gesture 39
ingredient 39
loose 39
wishes 39
hum@@ 39
stimulation 39
foster 39
Medical 39
Hospital 39
school@@ 39
fantasy 39
elevator 39
home@@ 39
peer 39
voters 39
Wal@@ 39
responding 39
Fortunately 39
civilizations 39
Civil 39
heritage 39
onic 39
lied 39
thesis 39
attempts 39
Luther 39
ement 39
accelerating 39
Caribbean 39
Tr@@ 39
serves 39
Saturday 39
sub-Saharan 39
managing 39
Everest 39
Kennedy 39
counter@@ 39
Mer@@ 39
jungle 39
Cold 39
frontier 39
rescued 39
mixing 39
scream 39
ony 39
Disney 39
squ@@ 39
Try 39
Wi@@ 39
mutation 39
Sil@@ 39
1984 39
helpless 39
interviews 39
disruptive 39
chase 39
penguin 39
span 39
tion@@ 39
playful 39
Therefore 39
decides 39
browser 39
cont@@ 39
enabling 39
whoever 39
wet 39
cube 39
Abed 39
RNA 39
Indus 39
Cyrus 39
M 38
staggering 38
strikes 38
ty@@ 38
Tokyo 38
gasoline 38
weighs 38
noises 38
cosmos 38
speeds 38
budgets 38
arguing 38
electrons 38
purely 38
atom 38
politician 38
beam 38
collaborate 38
celebrity 38
regulations 38
brain@@ 38
compound 38
qui@@ 38
shipped 38
nitrogen 38
ease 38
til@@ 38
enters 38
12,000 38
ancy 38
low-cost 38
Ted 38
deadly 38
drum 38
ambition 38
debris 38
dd@@ 38
ath 38
skilled 38
angles 38
antly 38
ist@@ 38
pleased 38
Benjamin 38
millennia 38
dare 38
Mat@@ 38
adaptive 38
junk 38
ases 38
intent 38
Olympic 38
determines 38
translator 38
Around 38
protective 38
over-@@ 38
oriented 38
Bronx 38
stare 38
aries 38
applies 38
Public 38
130 38
squares 38
analyzing 38
1,@@ 38
lic 38
ster@@ 38
coordination 38
vice 38
Ooh 38
st 38
ori@@ 38
Cal@@ 38
confronted 38
racing 38
knock 38
A-@@ 38
inf@@ 38
ils 38
ari@@ 38
bacterium 38
texture 38
iling 38
bro@@ 38
partnerships 38
revenues 38
inflation 38
attracted 38
donors 38
empowering 38
consent 38
apologize 38
consciously 38
delivering 38
CEOs 38
rage 38
mentally 38
ous@@ 38
1950 38
Cape 38
couples 38
ton@@ 38
year-olds 38
ancestor 38
bind 38
cousin 38
compute 38
physicians 38
ged 38
Joshua 38
DP 38
At@@ 38
isolation 38
dictionaries 38
10-@@ 38
cage 38
universes 38
Norden 38
clips 38
regenerate 38
Sam 38
satisfied 38
humility 38
LT 38
diplomacy 37
practicing 37
bus@@ 37
brick 37
La@@ 37
elaborate 37
digging 37
floors 37
entrepreneurial 37
sometime 37
Hum@@ 37
pal@@ 37
,000-@@ 37
tanks 37
-com@@ 37
themes 37
bikes 37
episode 37
copied 37
interconnected 37
injuries 37
poll 37
Eve 37
swing 37
intersection 37
pathway 37
membrane 37
abroad 37
simplest 37
matches 37
tuned 37
Information 37
gravitational 37
Catholic 37
executive 37
shorter 37
42 37
assuming 37
fragments 37
Cancer 37
embracing 37
survivor 37
configuration 37
forgive 37
snake 37
tan@@ 37
envelope 37
Cur@@ 37
cher 37
Phoenix 37
snakes 37
pro-@@ 37
pregnancy 37
We@@ 37
mushrooms 37
awake 37
reinvent 37
ther 37
predator 37
quietly 37
perspectives 37
multiply 37
1994 37
accurately 37
Cambodia 37
adaptation 37
shoe 37
replacing 37
pipes 37
stairs 37
transported 37
Tuesday 37
dra@@ 37
Office 37
textbooks 37
ashamed 37
pressing 37
Laughs 37
deliberately 37
altogether 37
Mil@@ 37
tw@@ 37
interventions 37
Gene 37
transmitted 37
jumps 37
mit@@ 37
sexuality 37
Michigan 37
blogs 37
defining 37
Nairobi 37
rolled 37
server 37
stealing 37
juice 37
widespread 37
edit 37
Kong 37
headquarters 37
passage 37
segment 37
cloth 37
nar@@ 37
reflects 37
1945 37
loads 37
researching 37
acquire 37
Peru 37
ination 37
touches 37
nonetheless 37
overseas 37
Rec@@ 37
tionally 37
wandering 37
recommend 37
viewed 37
Bel@@ 37
grabbed 37
experimenting 37
Machine 37
programmed 37
boiling 37
iPod 37
aluminum 37
Library 37
warmer 37
coding 37
Matt 37
demo 37
wins 37
caps 37
Iranian 37
multinational 37
exceptions 37
talented 37
1900 37
coastal 37
storms 37
tightly 37
flavor 37
Young 37
900 37
AK 37
non-zero-sum 37
GG 37
gras 37
naive 36
sol@@ 36
Spring 36
bottom-up 36
tricky 36
entrance 36
Pl@@ 36
kidding 36
high-speed 36
Beach 36
Atlanta 36
skeptical 36
fitness 36
buses 36
weekend 36
2013 36
Gaza 36
processed 36
answering 36
riots 36
inventor 36
corrupt 36
aggregate 36
seals 36
propaganda 36
spill 36
ologists 36
attach 36
300,000 36
Sylvia 36
cruel 36
tro@@ 36
cardiac 36
97 36
char@@ 36
FDA 36
gging 36
mesh 36
nightmare 36
impressed 36
modeling 36
aunt 36
lap 36
1,500 36
dy@@ 36
Republic 36
adds 36
honored 36
mates 36
instruction 36
ray 36
ap 36
2014 36
questioning 36
brands 36
judges 36
tar@@ 36
app@@ 36
fireflies 36
beetles 36
passions 36
finite 36
cleaning 36
Nick 36
minerals 36
Columbia 36
offshore 36
warehouse 36
parasite 36
textbook 36
folded 36
Ben@@ 36
gestures 36
Party 36
submit 36
metabolism 36
roofs 36
vocal 36
arch@@ 36
pathways 36
cheating 36
respected 36
presenting 36
diagnostic 36
Mad@@ 36
Tra@@ 36
Ste@@ 36
govern 36
exploded 36
psychiatric 36
relates 36
Clearly 36
ani@@ 36
Special 36
sounded 36
berg 36
massively 36
preventing 36
modified 36
deploy 36
0-@@ 36
dishes 36
Mur@@ 36
Mount 36
Cl@@ 36
ams 36
Too 36
Country 36
Sierra 36
folds 36
Part 36
Ed@@ 36
irony 36
examine 36
sters 36
commons 36
tweet 36
acceptable 36
son@@ 36
Jerusalem 36
intimacy 36
ited 36
Kingdom 36
vulnerability 36
scaled 36
grant 36
ultraviolet 36
Fe@@ 36
-con@@ 36
vocabulary 36
ant@@ 36
stigma 36
Somalia 36
staircase 36
loses 36
self-interest 36
liberty 36
disciplines 36
Q@@ 36
ren@@ 36
scheme 36
Water 36
hemisphere 36
Copenhagen 36
masters 36
projections 36
slime 36
Ca@@ 36
disk 36
aliens 36
Elizabeth 36
legally 36
yeast 36
laboratories 36
Alaska 36
receptor 36
Redwood 36
foie 36
Freedom 35
responds 35
odor 35
altered 35
NGO 35
supportive 35
utility 35
om 35
loaded 35
lined 35
Hans 35
Mike 35
appropriately 35
charges 35
1.2 35
modest 35
tively 35
congestion 35
famously 35
discussed 35
slice 35
stretched 35
cares 35
ros@@ 35
cen@@ 35
traces 35
midst 35
colorful 35
poli@@ 35
genuine 35
critically 35
jazz 35
households 35
unfair 35
spark 35
tors 35
blast 35
mel@@ 35
Seven 35
well-known 35
diamonds 35
romance 35
dent 35
sticking 35
logically 35
progression 35
Ba@@ 35
cooling 35
broadcast 35
tin@@ 35
greatly 35
alists 35
squeeze 35
invitation 35
attend 35
sufficient 35
orientation 35
spite 35
generosity 35
addiction 35
checking 35
dge 35
basement 35
accent 35
stressed 35
elementary 35
authenticity 35
luckily 35
beds 35
spiders 35
courageous 35
Canyon 35
ened 35
stepping 35
ultrasound 35
nevertheless 35
flo@@ 35
Joseph 35
filmmaker 35
sculptures 35
Cities 35
37 35
ang 35
earned 35
da@@ 35
humble 35
Zimbabwe 35
millimeter 35
goat 35
premise 35
human@@ 35
commodity 35
dness 35
anatomy 35
tight 35
pee 35
demanding 35
Yemen 35
Similarly 35
spatial 35
rainforests 35
appreciation 35
ALS 35
lifespan 35
gigantic 35
tagged 35
quarters 35
ba@@ 35
affair 35
counts 35
marrow 35
Supreme 35
involving 35
habitats 35
tide 35
Pen@@ 35
anc@@ 35
DR 35
analog 35
hal@@ 35
grammar 35
tags 35
cables 35
chamber 35
Education 35
cardboard 35
prevalence 35
PMS 35
pres@@ 34
council 34
displays 34
wiped 34
watts 34
hy@@ 34
blessed 34
thermal 34
update 34
triangle 34
twist 34
attributes 34
detected 34
throat 34
98 34
asleep 34
are@@ 34
fails 34
ze@@ 34
metabolic 34
pricing 34
TEDTalk 34
sensitivity 34
Sta@@ 34
ency 34
sang 34
by@@ 34
di 34
1995 34
distinguish 34
tangible 34
verb 34
biologically 34
hybrid 34
manipulation 34
clues 34
reconstruct 34
scanned 34
humankind 34
defines 34
jumping 34
Thailand 34
Gen@@ 34
ase 34
craft 34
fu@@ 34
biased 34
assembled 34
inventions 34
variable 34
recession 34
accounting 34
revolutions 34
ack@@ 34
recycled 34
hallucinations 34
harness 34
addressed 34
sums 34
ining 34
rac@@ 34
automatic 34
oting 34
shar@@ 34
Later 34
duck 34
Mexican 34
procedures 34
emphasize 34
limbs 34
verse 34
potent 34
alike 34
statistical 34
eBay 34
spell 34
Oklahoma 34
oned 34
the-@@ 34
stra@@ 34
ome 34
nonviolent 34
toll 34
inv@@ 34
beneficial 34
viable 34
disappearing 34
Qaeda 34
inherited 34
Fund 34
Char@@ 34
Snowden 34
Fl@@ 34
Stewart 34
fixing 34
measurement 34
Society 34
shing 34
ego 34
cross-@@ 34
long-@@ 34
hatred 34
collision 34
Pre@@ 34
emerges 34
Whenever 34
Hold 34
frustration 34
equals 34
Ki@@ 34
7,000 34
norm 34
bell 34
airline 34
RS 34
judgments 34
custom 34
tivity 34
chess 34
surviving 34
threatening 34
symmetrical 34
dependence 34
gross 34
life-@@ 34
vegetable 34
ie 34
pops 34
illustration 34
aming 34
Alright 34
Tre@@ 34
Danny 34
cooperative 34
awe 34
glaciers 34
Galapagos 34
operated 34
W 34
64 34
Such 34
1930s 34
owns 34
accumulate 34
with@@ 34
pervasive 34
ue 34
memorial 34
Alex 34
acceptance 34
sulfide 34
easiest 34
fans 34
slave 34
fire@@ 34
penis 34
ridge 34
cholera 34
symmetries 34
double-@@ 33
pled 33
documenting 33
reveals 33
fruits 33
Cairo 33
gar@@ 33
piles 33
Coca-Cola 33
innovators 33
43 33
transit 33
Gre@@ 33
sand@@ 33
finishing 33
maximize 33
surveys 33
spe@@ 33
Jupiter 33
cracks 33
sucks 33
Data 33
jokes 33
operator 33
bit@@ 33
clo@@ 33
viewing 33
catastrophic 33
gates 33
gun@@ 33
harsh 33
int@@ 33
exam 33
reforms 33
Going 33
warrior 33
exp@@ 33
filmed 33
taboo 33
bin@@ 33
chan@@ 33
lesbian 33
delay 33
Gar@@ 33
steady 33
Lewis 33
ulating 33
brush 33
markers 33
convincing 33
44 33
spec@@ 33
fights 33
midnight 33
twins 33
exploitation 33
siblings 33
hot@@ 33
symbolic 33
joining 33
ty-@@ 33
reproductive 33
pic@@ 33
lasting 33
flexibility 33
ashes 33
regional 33
ace@@ 33
Netherlands 33
instinct 33
Che@@ 33
1991 33
operates 33
persuade 33
U 33
professors 33
volcanic 33
grand@@ 33
Station 33
Ham@@ 33
projection 33
Republicans 33
contributions 33
bing 33
lean 33
association 33
racial 33
augmented 33
vel@@ 33
shaping 33
Buddha 33
temple 33
equipped 33
Suppose 33
dates 33
transferred 33
Wor@@ 33
pencil 33
independently 33
nicely 33
drama 33
huh 33
justify 33
wished 33
chi@@ 33
Notice 33
sections 33
predicting 33
cement 33
UK 33
dimensional 33
My@@ 33
instances 33
Others 33
Edward 33
Justice 33
confined 33
p.m. 33
interfaces 33
cafe 33
eless 33
integrity 33
artifacts 33
light-@@ 33
ute 33
philosophical 33
locking 33
logging 33
frogs 33
accused 33
ney 33
captain 33
inc@@ 33
unintended 33
improvements 33
intentions 33
recovered 33
physiology 33
assumed 33
acre 33
fertilizer 33
She@@ 33
Telescope 33
goodness 33
Wouldn 33
twin 33
detector 33
pumps 33
squid 33
apps 33
noisy 33
therapist 33
persons 33
honesty 33
Michelangelo 33
Fi@@ 33
ratings 33
Tesla 33
ero@@ 33
Mama 33
Bri@@ 33
Neanderthals 33
PR 33
repeatedly 33
chromosomes 33
hack 33
folding 33
Golden 33
deficit 32
accompanied 32
promising 32
disconnected 32
observing 32
stadium 32
obsession 32
40s 32
Despite 32
newly 32
Cre@@ 32
headline 32
Greece 32
crowded 32
30-@@ 32
ethics 32
embraced 32
similarly 32
alistic 32
successes 32
astronomy 32
behold 32
co 32
Australian 32
mouths 32
launching 32
Heart 32
registered 32
primates 32
eats 32
frequencies 32
defeat 32
rigid 32
0@@ 32
doubling 32
enhance 32
spends 32
Larry 32
Milky 32
ce 32
patch 32
Buddhist 32
full-time 32
hi 32
bust 32
racism 32
Je@@ 32
supports 32
folk 32
presidential 32
Mal@@ 32
patience 32
Kids 32
tiger 32
ech@@ 32
velocity 32
sketch 32
reader 32
poses 32
sav@@ 32
Em@@ 32
fungi 32
Otherwise 32
off@@ 32
ump 32
oun@@ 32
manufacture 32
aks 32
promoting 32
rehabilitation 32
Natural 32
accelerated 32
ella 32
frog 32
ace 32
chasing 32
stole 32
ops 32
doses 32
disappointed 32
astronomers 32
philosophers 32
sman 32
Fr@@ 32
copper 32
motivate 32
mild 32
C. 32
derived 32
plates 32
Jefferson 32
attacking 32
asthma 32
brutal 32
responsibilities 32
workshop 32
del@@ 32
urbanization 32
thread 32
slowed 32
hyper@@ 32
peaks 32
powder 32
filters 32
ape 32
uring 32
Lama 32
disasters 32
oms 32
wages 32
galleries 32
imp@@ 32
morally 32
Meanwhile 32
bugs 32
Monday 32
Recently 32
corresponds 32
sadness 32
spray 32
bribe 32
Russians 32
stamp 32
Ministry 32
Daniel 32
enti@@ 32
exponentially 32
Sur@@ 32
shortly 32
wolves 32
rolls 32
Free 32
ica 32
trait 32
hugely 32
Du@@ 32
Beethoven 32
adolescence 32
elders 32
shadows 32
bab@@ 32
charter 32
shrink 32
implanted 32
Alice 32
indicates 32
mers 32
lows 32
rides 32
Ask 32
shes 32
personalities 32
chemotherapy 32
preservation 32
USA 32
Climate 32
Parliament 32
problematic 32
Deep 32
node 32
crashes 32
Egyptians 32
programmer 32
Rover 32
invasion 32
simulate 32
Laden 32
cancers 32
pressures 32
cylinder 32
Kiribati 32
JC 32
Chuck 32
trustworthy 32
Milo 32
Libya 31
ier 31
Tor@@ 31
slum 31
wells 31
ingenuity 31
Namibia 31
Na@@ 31
celebration 31
reuse 31
Nepal 31
victory 31
assure 31
knocked 31
Venice 31
pin 31
un-@@ 31
spheres 31
eternal 31
ever-@@ 31
equilibrium 31
zz@@ 31
lane 31
lakes 31
ome@@ 31
silicon 31
imposed 31
ological 31
sor@@ 31
assessment 31
inviting 31
qualified 31
crushed 31
mus@@ 31
friction 31
pleasant 31
transaction 31
single-@@ 31
excess 31
characteristic 31
lighter 31
duration 31
endeavor 31
Association 31
occupy 31
gged 31
Liberia 31
suspicious 31
singers 31
integrating 31
consuming 31
banned 31
beef 31
capit@@ 31
individually 31
obstacle 31
remotely 31
puzzles 31
ong 31
18th 31
towel 31
sweat 31
jaw 31
smartest 31
tortured 31
refrigerator 31
Arizona 31
thriving 31
dated 31
Venus 31
pros@@ 31
bands 31
improvisation 31
admire 31
ent-@@ 31
promises 31
referred 31
1989 31
calculus 31
rel@@ 31
epiphany 31
sions 31
eng@@ 31
outs 31
assigned 31
parameters 31
fossils 31
dian 31
draws 31
Iceland 31
dump 31
enzymes 31
minor 31
longest 31
stratosphere 31
cyber 31
bol@@ 31
ek 31
rou@@ 31
libraries 31
warfare 31
Diego 31
developers 31
sou@@ 31
praying 31
stro@@ 31
thy 31
uniquely 31
ann@@ 31
Dalai 31
bility 31
constitution 31
protects 31
unemployment 31
societal 31
hung 31
mod@@ 31
goodbye 31
dged 31
Gi@@ 31
N 31
ple 31
graffiti 31
directed 31
correlation 31
Arabia 31
substantial 31
Pittsburgh 31
picks 31
geographic 31
tick 31
parasites 31
Ju@@ 31
Craig 31
voluntary 31
Simon 31
register 31
fuzzy 31
Humans 31
tom@@ 31
Johnny 31
cinema 31
Pri@@ 31
statistic 31
Wright 31
1997 31
eling 31
tism 31
scenarios 31
Food 31
glory 31
great-@@ 31
slept 31
Z 31
cousins 31
miracles 31
apples 31
irrational 31
assistant 31
incarceration 31
unseen 31
2,@@ 31
13@@ 31
TED@@ 31
thereby 31
secular 31
reproduction 31
linking 31
oning 31
expectation 31
famine 31
parliament 31
regulate 31
calculation 31
automated 31
bandwidth 31
Ice 31
reviews 31
acoustic 31
no-@@ 31
couch 31
campaigns 31
inform 31
conceptual 31
-year-olds 31
Swedish 31
KA 31
astronauts 31
ki 31
1996 31
heated 31
closet 31
kindergarten 31
magnets 31
eight-@@ 31
candy 31
perceptual 31
richest 31
cellphone 31
Far@@ 31
BJ 31
WK 31
Pete 31
Secretary 31
oring 31
connectome 31
convention 30
unpredictable 30
arise 30
chaotic 30
DVD 30
founder 30
serv@@ 30
15,000 30
Cup 30
unity 30
outbreak 30
highways 30
counter-@@ 30
traditionally 30
stu@@ 30
faint 30
1975 30
nucleus 30
1.3 30
boo@@ 30
apping 30
chron@@ 30
dental 30
explode 30
hooked 30
yl@@ 30
prayer 30
Lady 30
League 30
mammoth 30
freeze 30
unacceptable 30
frustrating 30
struggles 30
Mac@@ 30
jewelry 30
trac@@ 30
soci@@ 30
ame 30
pets 30
visitors 30
actu@@ 30
LED 30
Brad 30
reflective 30
infrared 30
wer 30
starvation 30
hut 30
lately 30
cops 30
firmly 30
album 30
Philip 30
PTSD 30
Best 30
rig 30
cocaine 30
Scientists 30
variables 30
Stone 30
lightning 30
beside 30
reacting 30
ups 30
ranging 30
outdoor 30
conditioning 30
Mas@@ 30
medications 30
impaired 30
spontaneously 30
skies 30
unfortunate 30
ethanol 30
verge 30
slope 30
needing 30
Republican 30
desires 30
claimed 30
Whoa 30
grace 30
py 30
shower 30
Ol@@ 30
bury 30
placing 30
ju@@ 30
bun@@ 30
varieties 30
rap@@ 30
gentle 30
apparent 30
47 30
Kansas 30
2.5 30
exclusive 30
forecast 30
guitar 30
blocked 30
broadly 30
declared 30
salary 30
towers 30
icons 30
breed 30
myths 30
mythology 30
funeral 30
quantities 30
1993 30
hand-@@ 30
flights 30
dges 30
frontal 30
titles 30
Lee 30
mum 30
adversity 30
mas@@ 30
container 30
expressing 30
tomato 30
semi-@@ 30
Dead 30
spirits 30
gh 30
Tibet 30
surround 30
Col@@ 30
Georgia 30
alities 30
wel@@ 30
guilt 30
ter-@@ 30
wo@@ 30
surplus 30
firms 30
off-@@ 30
arm@@ 30
Better 30
hills 30
Natasha 30
chickens 30
Germans 30
appealing 30
grounded 30
noble 30
commodities 30
files 30
Cam@@ 30
gallon 30
bel@@ 30
replacement 30
tattoo 30
sin 30
bio-@@ 30
gg@@ 30
buttons 30
surgeries 30
biosphere 30
ai@@ 30
Air@@ 30
tracked 30
sexually 30
eradication 30
Sarah 30
strict 30
gri@@ 30
balanced 30
microscopic 30
absurd 30
enthusiasm 30
leg@@ 30
arteries 30
AT 30
Costa 30
sel@@ 30
simulated 30
unk 30
cartilage 30
backgrounds 30
participating 30
chemist 30
empire 30
Text 30
civilian 30
whistle 30
magnet 30
thinkers 30
lottery 30
leopard 30
protocell 30
iPad 30
A.I. 30
contradiction 30
seawater 30
Christians 29
scope 29
Ultimately 29
sidewalk 29
Greeks 29
rail 29
dri@@ 29
Certainly 29
Howard 29
incomplete 29
recognizes 29
barrels 29
lawn 29
volumes 29
ect 29
pools 29
black@@ 29
cli@@ 29
anytime 29
producer 29
Hill 29
helmet 29
Usually 29
grams 29
indication 29
cerebral 29
consists 29
primate 29
86 29
waking 29
vis@@ 29
willingness 29
Alan 29
divorce 29
ade 29
meditation 29
halls 29
devoted 29
hun@@ 29
ambiguity 29
displaced 29
exhausted 29
embarrassed 29
ironic 29
Either 29
onics 29
ility 29
talents 29
Pu@@ 29
new@@ 29
celebrating 29
quo 29
tan 29
civilians 29
ladder 29
Paulo 29
armor 29
bananas 29
bowl 29
Nike 29
lifelong 29
lips 29
Jason 29
gifts 29
drop@@ 29
sty@@ 29
tenth 29
biomass 29
distribute 29
prototyping 29
Less 29
signing 29
bloody 29
resolved 29
atic 29
Can@@ 29
Interestingly 29
recycle 29
sho@@ 29
Has 29
nom@@ 29
hammer 29
calendar 29
corporation 29
conscience 29
lam@@ 29
migrate 29
kilometer 29
abo@@ 29
San@@ 29
projected 29
Democrats 29
insi@@ 29
chunk 29
ideological 29
existential 29
short-term 29
pipeline 29
cues 29
urgent 29
immigration 29
alter 29
overhead 29
upward 29
upright 29
specialist 29
Titanic 29
38 29
94 29
lasted 29
approval 29
Defense 29
Conference 29
yed 29
nonsense 29
jealousy 29
painter 29
reporter 29
dancer 29
Mus@@ 29
pan 29
Kim 29
monster 29
circular 29
lat@@ 29
E. 29
slight 29
breakthroughs 29
composed 29
hear@@ 29
comm@@ 29
comparable 29
incremental 29
uck 29
Scotland 29
solo 29
poured 29
na 29
avatar 29
shout 29
Companies 29
timing 29
sensible 29
Roman 29
she@@ 29
issued 29
weed 29
Shi@@ 29
settlement 29
goats 29
Giussani 29
cul@@ 29
Ke@@ 29
elbow 29
Small 29
scarce 29
slowing 29
bench 29
mul@@ 29
Sin@@ 29
insisted 29
reject 29
mattered 29
tastes 29
flood 29
amp@@ 29
MT 29
Ho@@ 29
epidemics 29
entity 29
wonders 29
flags 29
voc@@ 29
margins 29
inherent 29
fled 29
hostile 29
Ross 29
wiring 29
tails 29
oral 29
impulse 29
retired 29
rap 29
é@@ 29
mama 29
34 29
evaluate 29
mature 29
friendship 29
blocking 29
52 29
reasonably 29
Intel 29
unequal 29
conservatives 29
passengers 29
ambulance 29
shares 29
IM 29
11th 29
mutual 29
monsoon 29
Edinburgh 29
adulthood 29
sketches 29
processor 29
ini 29
bulbs 29
Kosovo 29
Garden 29
hacker 29
deny 29
stunt 29
disconnect 29
indoor 29
meme 29
depths 29
ola 29
autistic 29
vitamin 29
rainfall 29
retire 29
sch@@ 29
Montana 29
dragonflies 29
gue 28
Palestine 28
circulation 28
ans@@ 28
slogan 28
condom 28
paralysis 28
sailing 28
bil@@ 28
ga 28
suburbs 28
gallons 28
25@@ 28
21st-century 28
az@@ 28
glow 28
releases 28
intend 28
Carl 28
fol@@ 28
penicillin 28
plankton 28
vent 28
heck 28
efficiently 28
chat 28
mixture 28
Doesn 28
compressed 28
nuclei 28
teen 28
err@@ 28
Ken 28
1970 28
circuitry 28
bare 28
glorious 28
Light 28
tar 28
but@@ 28
top-down 28
acute 28
injection 28
financially 28
theirs 28
makeup 28
Roosevelt 28
controversy 28
copies 28
confusion 28
Er@@ 28
moms 28
explanations 28
inventing 28
rop@@ 28
gy@@ 28
Brothers 28
tations 28
daylight 28
anim@@ 28
Rick 28
Tur@@ 28
Somehow 28
feminine 28
explicitly 28
tran@@ 28
alphabet 28
cho@@ 28
polls 28
temptation 28
stocks 28
Arduino 28
numerous 28
Cy@@ 28
fingertips 28
consistently 28
disp@@ 28
ili@@ 28
voyage 28
ington 28
jury 28
full-@@ 28
baseline 28
nanotechnology 28
hydro@@ 28
hoo@@ 28
por@@ 28
lasts 28
strains 28
obtained 28
Depression 28
sustained 28
pe 28
tremendously 28
immigrants 28
hint 28
stated 28
mentors 28
differ 28
Hmm 28
quantity 28
hurts 28
reserves 28
tioned 28
flourish 28
inject 28
Movement 28
at-@@ 28
quotes 28
ham@@ 28
dic 28
tizing 28
Shar@@ 28
SB 28
relevance 28
vivid 28
sells 28
Dean 28
statements 28
frequent 28
Miss 28
heroic 28
gaining 28
dangers 28
grassroots 28
flown 28
tooth 28
earning 28
benign 28
Sudan 28
careers 28
advantages 28
2.0 28
activism 28
Siberia 28
vibrating 28
sively 28
scientifically 28
posts 28
nectar 28
backup 28
Maria 28
introducing 28
northeast 28
stor@@ 28
competitors 28
six@@ 28
alert 28
igh@@ 28
wreck 28
dial 28
rhythms 28
Sex 28
bankers 28
cleaned 28
seventh 28
sequenced 28
Ter@@ 28
deception 28
priorities 28
sec@@ 28
boost 28
disgusting 28
Looking 28
purchase 28
Home 28
guidance 28
screw 28
Oregon 28
00@@ 28
sn@@ 28
Lots 28
Jill 28
Marcus 28
Leone 28
bat@@ 28
optimize 28
census 28
guest 28
cane 28
pilots 28
noticing 28
redesign 28
autonomy 28
pot@@ 28
Bruce 28
complaining 28
kin@@ 28
aching 28
ama 28
Norman 28
spiral 28
votes 28
altruism 28
MA 28
wasting 28
entitled 28
first-@@ 28
ES 28
ography 28
allo@@ 28
diagnose 28
jar 28
400,000 28
functionality 28
Babbage 28
MoMA 28
Camp 28
D. 28
bombsight 28
authoritarian 27
rewards 27
negotiations 27
Lagos 27
retail 27
Luckily 27
refined 27
pedestrian 27
requirement 27
institute 27
17th 27
scholars 27
infer@@ 27
1968 27
helium 27
transistor 27
donated 27
bleeding 27
blessing 27
Ohio 27
combinations 27
hotter 27
electromagnetic 27
experimentation 27
contest 27
atively 27
irrelevant 27
reserve 27
terminal 27
bent 27
calculating 27
dragged 27
rockets 27
holiday 27
bes 27
grief 27
delight 27
beaches 27
inhabit 27
ep 27
permanently 27
Given 27
xes 27
Much 27
intervene 27
Soon 27
Bosnia 27
feminism 27
beard 27
infinitely 27
satisfaction 27
progressive 27
anxious 27
Wars 27
isms 27
Louis 27
gaze 27
verbal 27
storyteller 27
preserved 27
practiced 27
hotels 27
specialists 27
elling 27
toxins 27
influences 27
temporal 27
packaging 27
form@@ 27
rented 27
frightened 27
standpoint 27
boots 27
firsthand 27
drowning 27
expense 27
Pal@@ 27
hypothetical 27
void 27
Star@@ 27
intriguing 27
tioning 27
cleared 27
Fifty 27
valued 27
uploaded 27
scare 27
pursuing 27
arbitrary 27
Princeton 27
conferences 27
consideration 27
low-income 27
Res@@ 27
undergraduate 27
obligation 27
relax 27
Armstrong 27
mercy 27
veterans 27
filed 27
disappears 27
extending 27
paste 27
arrow 27
destructive 27
satisfy 27
bre@@ 27
bounce 27
Denmark 27
&apos;all 27
yn@@ 27
Help 27
volcano 27
develops 27
depended 27
souls 27
symphony 27
ians 27
Modern 27
marvelous 27
pathogens 27
matching 27
biotechnology 27
attending 27
habit@@ 27
gener@@ 27
demographics 27
deer 27
mundane 27
pesticides 27
fog 27
sto@@ 27
packing 27
Tunisia 27
ami@@ 27
export 27
140 27
measurable 27
learns 27
exceptional 27
expose 27
Side 27
ED 27
Julia 27
wal@@ 27
aviation 27
um-@@ 27
meaningless 27
restricted 27
+ 27
executives 27
emergent 27
80,000 27
Syrian 27
deserts 27
ox@@ 27
ises 27
Company 27
rooted 27
synapses 27
organizational 27
editing 27
cou@@ 27
contacts 27
courts 27
mirrors 27
banana 27
500,000 27
counterintuitive 27
ministers 27
cultivate 27
Black@@ 27
basket 27
Te@@ 27
Virgin 27
berry 27
op 27
ush 27
vents 27
zoo 27
Tasmanian 27
determination 27
dead@@ 27
united 27
secondary 27
Colorado 27
ey@@ 27
sought 27
82 27
industrialized 27
petition 27
degraded 27
don@@ 27
installations 27
summarize 27
tropics 27
Desert 27
publication 27
animated 27
cooked 27
ultra-@@ 27
read@@ 27
neurological 27
pity 27
im 27
sty 27
TM 27
literal 27
sights 27
randomness 27
employee 27
ally-@@ 27
watches 27
Unlike 27
lander 27
minimal 27
gar 27
bay 27
severely 27
neuroscientists 27
weighed 27
Ash@@ 27
Several 27
pollutants 27
Patient 27
gel 27
arr@@ 27
neurogenesis 27
climbers 27
vibrations 27
Dallas 27
ile 27
synthesis 27
Fa@@ 27
graduates 27
Margaret 27
embodied 27
Turn 27
Alpha 27
characterized 27
hairs 27
two-dimensional 27
Index 27
crab 27
Bitcoin 27
Warren 27
heh 27
Beatboxing 27
illustrates 26
Prime 26
settle 26
Venezuela 26
shuttle 26
bricks 26
replied 26
bicycles 26
aspirations 26
reduces 26
confirmed 26
geeks 26
conclusions 26
crystal 26
structured 26
Quite 26
yer 26
applause 26
fla@@ 26
tiv@@ 26
istic 26
acks 26
ripped 26
abused 26
wipe 26
rendering 26
oll@@ 26
Orleans 26
Gal@@ 26
louder 26
lim@@ 26
reclaim 26
redefine 26
airports 26
ath@@ 26
Williams 26
hallway 26
Inside 26
criticized 26
tolerate 26
ration 26
and-@@ 26
wil@@ 26
blend 26
writes 26
accepting 26
drinks 26
acked 26
ells 26
180 26
coordinate 26
spo@@ 26
sessions 26
bath 26
bla@@ 26
fame 26
athlete 26
winners 26
Nice 26
taller 26
Old 26
dome 26
ghost 26
Tu@@ 26
enzyme 26
lure 26
abandon 26
76 26
time-@@ 26
disposal 26
day@@ 26
manufacturers 26
tablet 26
polite 26
cutting-edge 26
grim 26
Democratic 26
marijuana 26
cybercriminals 26
idiot 26
dor@@ 26
Qatar 26
Trans@@ 26
heating 26
fade 26
fer 26
contaminated 26
cracked 26
stre@@ 26
fun@@ 26
lenses 26
capitalist 26
malnutrition 26
elevated 26
grounds 26
bum@@ 26
ideals 26
poorly 26
Death 26
acted 26
g-@@ 26
bearing 26
citizenship 26
releasing 26
ass@@ 26
Allen 26
cognition 26
kings 26
tweets 26
liberals 26
incidentally 26
serotonin 26
selective 26
statistically 26
battlefield 26
creators 26
Jeopardy 26
Empire 26
churches 26
admitted 26
aquatic 26
denied 26
contents 26
Huh 26
Bat@@ 26
pond 26
Ger@@ 26
toss 26
humane 26
lit@@ 26
inefficient 26
SM 26
employed 26
trail 26
dreamed 26
Mind 26
keen 26
Skype 26
met@@ 26
cooler 26
ena 26
Ob@@ 26
followers 26
skip 26
sticky 26
harvesting 26
beginnings 26
Pol@@ 26
commonly 26
initiatives 26
band@@ 26
one-on-one 26
county 26
Renaissance 26
Didn 26
PC 26
crank 26
Slow 26
mentality 26
Down 26
elites 26
sup@@ 26
blueprint 26
Excuse 26
ov@@ 26
Dylan 26
biotech 26
preferences 26
partial 26
fictional 26
resurrection 26
Bono 26
color@@ 26
contexts 26
ah@@ 26
iz@@ 26
differentiate 26
kilograms 26
ene@@ 26
toast 26
chef 26
biofuels 26
centimeter 26
m-@@ 26
continuum 26
shrinking 26
recruit 26
Ku@@ 26
declining 26
ces 26
regrets 26
underway 26
coupled 26
receiver 26
SMS 26
water@@ 26
aver@@ 26
intangible 26
employ 26
gli@@ 26
genic 26
censorship 26
criticism 26
sadly 26
four@@ 26
Reagan 26
boyfriend 26
distorted 26
fairy 26
stein 26
seasons 26
vastly 26
radar 26
dried 26
jacket 26
providers 26
fairness 26
ol 26
handy 26
escal@@ 26
manuscript 26
ami 26
illusions 26
Baltimore 26
limestone 26
lers 26
coin 26
Ushahidi 26
posture 26
RISD 26
bluefin 26
EDI 26
dealt 25
agrees 25
developer 25
unfinished 25
taxi 25
playground 25
streaming 25
unlock 25
chemists 25
eradicate 25
unimaginable 25
ys@@ 25
ore@@ 25
relativity 25
Darwinian 25
continually 25
Pr@@ 25
Six@@ 25
developments 25
complained 25
Dave 25
cru@@ 25
whisper 25
Gr@@ 25
portable 25
certified 25
itate 25
appreciated 25
unemployed 25
prone 25
self-con@@ 25
sen 25
envision 25
Twenty-@@ 25
sterile 25
mosque 25
prejudice 25
bad@@ 25
ker@@ 25
manages 25
mustache 25
ate@@ 25
award 25
weekends 25
Toronto 25
pped 25
Book 25
Baby 25
arrangement 25
slip 25
astic 25
ulated 25
DARPA 25
coincidence 25
filmmakers 25
ich 25
Holy 25
sauce 25
transcend 25
recreate 25
hopeless 25
beans 25
Fre@@ 25
Super 25
feared 25
Uncle 25
hamburger 25
under-@@ 25
self-assembly 25
mounted 25
atten@@ 25
potato 25
combining 25
KB 25
ba 25
equ@@ 25
contracts 25
syn@@ 25
Royal 25
policing 25
ared 25
assi@@ 25
mighty 25
54 25
attempted 25
intentional 25
weekly 25
textile 25
sia 25
Lou@@ 25
wind@@ 25
crashing 25
accidentally 25
uncertain 25
fiscal 25
leaning 25
presents 25
250,000 25
ection 25
Fox 25
vicious 25
play@@ 25
traumatic 25
larvae 25
belonging 25
heel 25
extremes 25
Yale 25
ew 25
Rob 25
wax 25
ured 25
phrases 25
suffers 25
listed 25
fool 25
shortage 25
collar 25
troubled 25
happiest 25
punished 25
amateur 25
singer 25
immersed 25
avian 25
l-@@ 25
Mos@@ 25
prot@@ 25
Hundreds 25
impose 25
Got 25
cigarette 25
worthwhile 25
let@@ 25
underestimate 25
capsule 25
pixels 25
Barack 25
wards 25
Amsterdam 25
delighted 25
Forget 25
reporters 25
1.@@ 25
Wilson 25
sued 25
poles 25
tips 25
violin 25
Carnegie 25
digitally 25
monthly 25
retreat 25
tele@@ 25
requests 25
gently 25
han@@ 25
honeybees 25
lover 25
histories 25
burial 25
mayors 25
Simple 25
objec@@ 25
imperative 25
oping 25
brakes 25
wounds 25
art@@ 25
disturbed 25
low@@ 25
my@@ 25
returning 25
shouting 25
tile 25
genesis 25
bark 25
customs 25
digits 25
instincts 25
ball@@ 25
conceive 25
Samuel 25
dodo 25
aesthetics 25
Van 25
Especially 25
strongest 25
it-@@ 25
superpower 25
amateurs 25
ani 25
Bangalore 25
oven 25
radius 25
urine 25
glucose 25
needles 25
pati@@ 25
59 25
Mac 25
Exactly 25
DM 25
electro@@ 25
arena 25
phen@@ 25
cad@@ 25
fulness 25
beloved 25
Iraqi 25
utes 25
za 25
inventors 25
antenna 25
ve-@@ 25
Str@@ 25
journeys 25
volcanoes 25
operational 25
difficulties 25
Happy 25
secondly 25
refers 25
check@@ 25
vegetation 25
Francis 25
copying 25
timber 25
directors 25
Kibera 25
thi@@ 25
Mel@@ 25
rowing 25
trunk 25
salmon 25
Gold 25
exercises 25
routinely 25
Goliath 25
blink 25
testimony 25
offensive 25
animations 25
RL 25
moth 25
Trust 25
Compassion 25
remix 25
guided 25
_ 25
acids 25
incomes 25
conductor 25
hacked 25
stimulus 25
Christ 25
erosion 25
Sweeney 25
analytical 25
lamb 25
FG 25
dock 24
aspiration 24
Cop@@ 24
far-@@ 24
Governments 24
ser@@ 24
Use 24
metropolitan 24
environmentally 24
Avenue 24
Ground 24
sidewalks 24
absorbed 24
100-@@ 24
boil 24
The@@ 24
Phys@@ 24
medieval 24
notions 24
triumph 24
steer 24
ja@@ 24
speeding 24
filming 24
effectiveness 24
carbon-@@ 24
explorers 24
expressive 24
Bot@@ 24
hunters 24
wr@@ 24
glob@@ 24
certainty 24
respiratory 24
ini@@ 24
pping 24
kilos 24
mathematically 24
presentations 24
BMW 24
Toyota 24
scalable 24
thers 24
stunning 24
surroundings 24
astro@@ 24
Hubble 24
Prot@@ 24
Tennessee 24
festival 24
devastated 24
cabinet 24
vagina 24
arranged 24
syringe 24
ols 24
ici@@ 24
anda 24
outrage 24
articulate 24
Learning 24
post-conflict 24
founders 24
choir 24
tales 24
Singing 24
Sar@@ 24
backed 24
six-year-old 24
scholarship 24
ric@@ 24
conf@@ 24
husbands 24
ink@@ 24
polymer 24
strokes 24
Hopefully 24
ruled 24
disparate 24
ial 24
edited 24
anticipated 24
nail 24
races 24
susceptible 24
adventures 24
Incredible 24
oul@@ 24
mating 24
fat@@ 24
tle 24
stin@@ 24
marshmallow 24
metaphors 24
currents 24
bending 24
laying 24
resulted 24
BBC 24
tier 24
worries 24
ex-@@ 24
negotiation 24
negotiating 24
suburban 24
sky@@ 24
state-of-the-art 24
resonance 24
Mediterranean 24
som@@ 24
nit@@ 24
migraine 24
stumbled 24
pinpoint 24
Sounds 24
stakes 24
guaranteed 24
fix@@ 24
cured 24
questioned 24
Government 24
coma 24
arriving 24
sy@@ 24
veteran 24
crawl 24
immortality 24
sion@@ 24
peel 24
ousness 24
worn 24
Students 24
cleaner 24
arrows 24
Bridge 24
contagious 24
neuroscientist 24
induced 24
Fantastic 24
bert 24
novels 24
one@@ 24
lan@@ 24
high@@ 24
Truth 24
shattered 24
Jordan 24
plasma 24
infect 24
sin@@ 24
timeline 24
Portugal 24
workshops 24
Fer@@ 24
poorer 24
receives 24
amed 24
rushed 24
thr@@ 24
Madagascar 24
Already 24
OECD 24
Darfur 24
Wal-Mart 24
ented 24
developmental 24
upload 24
unsustainable 24
Muhammad 24
ind@@ 24
expeditions 24
dog@@ 24
bitter 24
61 24
disc 24
Cuba 24
flipped 24
fills 24
Journal 24
bullets 24
germs 24
ura 24
dug 24
Vinci 24
simplify 24
Between 24
descriptions 24
fractal 24
93 24
quar@@ 24
56 24
immigrant 24
apper 24
hosts 24
Himalayas 24
manifest 24
photographers 24
Kar@@ 24
Sydney 24
logists 24
gon@@ 24
Grace 24
handling 24
.com. 24
forcing 24
postcards 24
blade 24
imaginary 24
68 24
AB 24
corridors 24
Bhutan 24
availability 24
CT 24
protocol 24
nerd 24
substitute 24
complain 24
irrigation 24
Kepler 24
eye@@ 24
pit@@ 24
genomics 24
predicts 24
countryside 24
favelas 24
marriages 24
commission 24
rewarded 24
auditorium 24
cer@@ 24
Service 24
geo@@ 24
wander 24
heavens 24
pop-up 24
lectures 24
tennis 24
of-@@ 24
10th 24
blo@@ 24
Roger 24
Hawking 24
routes 24
Isaac 24
utting 24
calcium 24
foot@@ 24
Power 24
Live 24
constructive 24
ners 24
cut@@ 24
potatoes 24
oph@@ 24
annoying 24
astronaut 24
clap 24
Gol@@ 24
god@@ 24
Save 24
fellows 24
tionist 24
escaped 24
octopus 24
poop 24
Girls 24
reminder 24
free@@ 24
digitize 24
sealed 24
Anonymous 24
AIMS 24
nurturing 24
divine 24
laundry 24
Wolfram 24
schooling 24
Mall 24
Agency 24
novelty 24
proving 24
solemn 24
ris@@ 24
obscure 24
butt 24
juggling 24
emission 24
Code 24
mammography 24
Rule 24
Interviewer 24
tapirs 24
concussion 24
mind-wandering 24
Justine 24
EH 24
relies 23
suitcase 23
evaluation 23
bulk 23
cent 23
hop 23
Type 23
sighted 23
eighth 23
kable 23
union 23
Mayor 23
plan@@ 23
Solar 23
neighboring 23
assault 23
mysteries 23
Dec@@ 23
-out 23
cocktail 23
ules 23
invasive 23
cri@@ 23
Evan 23
X-rays 23
Maryland 23
53 23
sof@@ 23
Zipcar 23
contributes 23
termin@@ 23
road@@ 23
space-time 23
owe 23
Albert 23
coined 23
Hudson 23
ringing 23
educating 23
any@@ 23
swallowed 23
trusting 23
urs 23
Chi@@ 23
Had 23
LGBT 23
torn 23
tense 23
acknowledged 23
col@@ 23
recruited 23
creepy 23
ounding 23
mac@@ 23
scripts 23
Find 23
Bad 23
locomotion 23
hub 23
lifts 23
payload 23
Welcome 23
delicate 23
Hy@@ 23
rigorous 23
ples 23
AC@@ 23
carved 23
erase 23
optics 23
ids 23
hair@@ 23
far@@ 23
survives 23
ula 23
realizes 23
nurture 23
educators 23
maternal 23
Village 23
declined 23
Scottish 23
ural 23
bioluminescent 23
shiny 23
optimal 23
tops 23
Eight 23
dro@@ 23
mag@@ 23
human-@@ 23
strengths 23
swap 23
Neither 23
omy 23
fle@@ 23
invaded 23
aling 23
Russell 23
attraction 23
aces 23
popping 23
humidity 23
wat@@ 23
acc@@ 23
lobe 23
epilepsy 23
coherent 23
containers 23
overlap 23
Pur@@ 23
thrust 23
unlimited 23
conviction 23
efficacy 23
prevented 23
racist 23
cue 23
punish 23
misery 23
1976 23
wounded 23
ino 23
remembers 23
poo 23
recipes 23
freeway 23
trans 23
wonderfully 23
cell@@ 23
disruption 23
pon@@ 23
erectus 23
shallow 23
dining 23
go-@@ 23
prospect 23
exit 23
poets 23
thin@@ 23
Friedman 23
banker 23
secretly 23
priest 23
beats 23
auditory 23
essay 23
adequate 23
injected 23
antibodies 23
arose 23
threaten 23
contacted 23
tiveness 23
executed 23
demanded 23
implication 23
of@@ 23
Norwegian 23
beekeepers 23
collaborating 23
camel 23
Alabama 23
nel 23
Financial 23
Nu@@ 23
competent 23
separating 23
rightly 23
Rom@@ 23
Kelly 23
J. 23
net@@ 23
Lawrence 23
Jimmy 23
ports 23
ult 23
vest 23
thirdly 23
summary 23
1973 23
Often 23
murdered 23
Tom@@ 23
vibrate 23
tipping 23
transactions 23
archive 23
metrics 23
ption 23
liberation 23
fe 23
onset 23
horrific 23
historian 23
inging 23
eli@@ 23
vertically 23
power@@ 23
Franklin 23
Finland 23
rank 23
adolescents 23
Witness 23
payments 23
distracted 23
arrangements 23
abusive 23
Emer@@ 23
wa 23
Digital 23
grip 23
universally 23
enslaved 23
Father 23
freak 23
ow@@ 23
germ 23
focuses 23
eyed 23
extremism 23
crises 23
Over@@ 23
culturally 23
sustaining 23
framed 23
sapiens 23
speeches 23
preference 23
zoning 23
champion 23
unified 23
iteration 23
reinventing 23
Hi@@ 23
Bor@@ 23
Under 23
fulfill 23
ruins 23
framing 23
Pat 23
unite 23
Jonathan 23
meg@@ 23
bumps 23
Falcon 23
minimize 23
Radio 23
I.Q. 23
quanti@@ 23
smartphones 23
Colombia 23
Keith 23
46 23
pulses 23
arc 23
CC 23
sync 23
submersible 23
bump 23
collaborator 23
log@@ 23
avoiding 23
trillions 23
suspected 23
borrowed 23
stripped 23
medi@@ 23
hon@@ 23
cop 23
gues 23
masks 23
logistics 23
tra 23
astronomical 23
Pantheon 23
spouse 23
dle 23
founding 23
satisfying 23
Mrs. 23
Max 23
avi@@ 23
Building 23
rectangle 23
del 23
Cham@@ 23
catastrophe 23
lia 23
tolerant 23
sis 23
T. 23
Kal@@ 23
spontaneous 23
ode 23
uranium 23
discourse 23
biting 23
dominate 23
commands 23
SE@@ 23
detecting 23
migrants 23
Eden 23
seven-@@ 23
supercomputer 23
IT 23
outrageous 23
Sebastian 23
Scratch 23
centimeters 23
underwear 23
Hope 23
Christopher 23
inputs 23
AO 23
surge 23
stimulate 23
preschool 23
ballot 23
gamma 23
emphasis 23
equator 23
92 23
Buy 23
crawling 23
1985 23
kidneys 23
fee 23
intrinsic 23
prefrontal 23
Don@@ 23
flooding 23
Linux 23
house@@ 23
Whit@@ 23
janitor 23
Massachusetts 23
Emma 23
shells 23
solves 23
eliminated 23
self-organizing 23
desertification 23
illnesses 23
Maldives 23
stunts 23
NL 23
CO@@ 22
inclusion 22
professions 22
surprises 22
strangely 22
Millennium 22
gies 22
snow@@ 22
visionary 22
meanwhile 22
lithium 22
450 22
Christianity 22
observer 22
zero-sum 22
blobs 22
humanities 22
Enceladus 22
Europa 22
24@@ 22
explosions 22
membranes 22
canc@@ 22
fishes 22
ables 22
limitation 22
colder 22
CIA 22
Arts 22
unnecessary 22
peer-to-peer 22
expands 22
tickets 22
waterfall 22
orbiting 22
len@@ 22
aya 22
defending 22
Sadly 22
orphanage 22
pol@@ 22
Among 22
labels 22
flat@@ 22
discomfort 22
repertoire 22
epic 22
Movember 22
confusing 22
UCLA 22
shield 22
ethic 22
joints 22
synthesize 22
faculty 22
Austria 22
magician 22
jum@@ 22
1-@@ 22
ious 22
Ron 22
Jerry 22
Sk@@ 22
Susan 22
confession 22
scholar 22
Op@@ 22
pressed 22
Mountains 22
lar@@ 22
rep@@ 22
reply 22
Walter 22
cures 22
cubic 22
lastly 22
radioactive 22
man-made 22
intrinsically 22
gecko 22
heights 22
bleed 22
spades 22
lifting 22
migrant 22
province 22
Police 22
ager 22
= 22
hypotheses 22
historians 22
pristine 22
fine-@@ 22
tire 22
rebuilding 22
foreground 22
veri@@ 22
sunny 22
borrowing 22
tourist 22
shi@@ 22
aking 22
degradation 22
collapses 22
powerfully 22
ruin 22
quicker 22
gal 22
Harlem 22
Medicine 22
classmates 22
excellence 22
dude 22
eager 22
confrontation 22
scars 22
hos@@ 22
ruined 22
Language 22
settlements 22
singular 22
urgency 22
extends 22
officially 22
Cat@@ 22
thro@@ 22
Net 22
gran@@ 22
mono@@ 22
Tower 22
literate 22
stam@@ 22
pain@@ 22
physiological 22
performers 22
constrained 22
thoroughly 22
notation 22
melody 22
gro@@ 22
Sound 22
clicks 22
stal@@ 22
41 22
literary 22
payoff 22
telephones 22
mite 22
Cap@@ 22
submitted 22
undermine 22
mastery 22
Hal@@ 22
logies 22
conducting 22
ye 22
comprehensive 22
ays 22
whilst 22
cried 22
visceral 22
distinctive 22
modules 22
blogging 22
vic@@ 22
Easter 22
depressing 22
weakness 22
zip 22
balancing 22
hug 22
Thirty 22
chapters 22
circumstance 22
establishment 22
identification 22
pillars 22
Twenty 22
holders 22
removing 22
Jay 22
backpack 22
preferred 22
solitary 22
curator 22
cathedral 22
yields 22
Kenyan 22
throws 22
overload 22
40-@@ 22
transformational 22
globalized 22
fragmented 22
inadequate 22
angels 22
scre@@ 22
alled 22
Marine 22
interviewing 22
openly 22
hats 22
disbelief 22
poetic 22
intensely 22
flaws 22
liking 22
cyber@@ 22
Amanda 22
leak 22
insert 22
sponsor 22
zeros 22
liar 22
Start 22
reflecting 22
formats 22
veins 22
tattoos 22
camels 22
manufacturer 22
oxide 22
triple 22
extensive 22
ar-@@ 22
definitions 22
nests 22
Magazine 22
restrictions 22
Wi-Fi 22
references 22
deep-@@ 22
Emily 22
rendered 22
tured 22
Lesters 22
chers 22
rub 22
ander 22
Joel 22
hiring 22
bloggers 22
regimes 22
forum 22
Tehran 22
pirate 22
penetrate 22
peek 22
endlessly 22
arians 22
sible 22
peri@@ 22
Top 22
veil 22
tides 22
paradise 22
lish 22
lining 22
tative 22
dunes 22
Antarctic 22
atro@@ 22
commentary 22
Sony 22
pine 22
optic 22
manufactured 22
spar@@ 22
ail@@ 22
hippocampus 22
00s 22
ank@@ 22
Houston 22
exhilarating 22
ninth 22
incarcerated 22
ambiguous 22
Win@@ 22
bucket 22
anthropology 22
starving 22
high-quality 22
Miami 22
dering 22
servers 22
browsing 22
ide 22
heels 22
fighters 22
encyclopedia 22
apartheid 22
fluctuations 22
Miguel 22
0,000 22
deceased 22
alia 22
Sand@@ 22
Idaho 22
theft 22
mindful 22
spl@@ 22
conspiracy 22
gers 22
triangles 22
ari 22
,500 22
Teszler 22
herd 22
istically 22
tunas 22
cockroach 22
shepherd 22
Forest 22
unstable 22
SO@@ 22
leaks 22
MM 22
KS 22
Jesse 22
PH 22
AV 22
fir 22
Tahrir 21
Throughout 21
CD 21
descendants 21
saves 21
ised 21
automotive 21
steering 21
smiles 21
rode 21
bureaucracy 21
lawsuit 21
blob 21
Cassini 21
transistors 21
revolutionize 21
bot 21
@ 21
Europeans 21
regulated 21
pneumonia 21
1986 21
.org 21
TB 21
prizes 21
anesthesia 21
Sol@@ 21
pedal 21
ironically 21
eas@@ 21
cos@@ 21
lid 21
PowerPoint 21
surfing 21
TEDsters 21
decentralized 21
charging 21
presumably 21
multiverse 21
lan 21
insecure 21
elled 21
hence 21
undercover 21
modular 21
preserving 21
ruling 21
ou 21
threads 21
cle@@ 21
clapping 21
guides 21
toddler 21
poke 21
crosses 21
cliffs 21
od 21
gait 21
ort 21
resulting 21
improvise 21
Pos@@ 21
memorable 21
casualties 21
Growing 21
t-shirt 21
lif@@ 21
warn 21
Starbucks 21
Based 21
Web@@ 21
flashing 21
fts 21
val 21
flames 21
unaware 21
strive 21
comprised 21
setup 21
modify 21
modeled 21
spike 21
cigarettes 21
Vancouver 21
São 21
wallet 21
accumulated 21
aper 21
geological 21
meantime 21
decom@@ 21
photographing 21
dos 21
reconstruction 21
mill 21
puberty 21
cooled 21
dragging 21
chunks 21
freaking 21
extracted 21
respectful 21
twe@@ 21
abortion 21
yelling 21
39 21
mobilize 21
flash@@ 21
clinically 21
belonged 21
Hotel 21
Lebanon 21
assignments 21
maintaining 21
dium 21
transforms 21
collections 21
requirements 21
X-@@ 21
cav@@ 21
disrupt 21
duc@@ 21
prevalent 21
ae 21
after@@ 21
agreements 21
prof@@ 21
Run 21
renewables 21
Energy 21
clean@@ 21
ading 21
interfere 21
Murray 21
Abraham 21
sa 21
roc@@ 21
dre@@ 21
verbs 21
bass 21
tiniest 21
Years 21
wild@@ 21
occupation 21
LA 21
marginalized 21
specialize 21
involvement 21
Connecticut 21
caregivers 21
Getting 21
scar@@ 21
manipulating 21
ounds 21
addicted 21
weaker 21
exposing 21
packs 21
p-@@ 21
ature 21
Finance 21
telecommunications 21
soils 21
encrypted 21
lize 21
Snow 21
rubble 21
dest 21
icians 21
Play 21
smo@@ 21
simplistic 21
Lin@@ 21
spelling 21
noted 21
tal 21
dispute 21
24-hour 21
solidarity 21
osh 21
fertilizers 21
settings 21
rabbits 21
occupied 21
reads 21
imposing 21
loops 21
behaving 21
millennium 21
correspond 21
Americas 21
asylum 21
see@@ 21
drank 21
classified 21
lab@@ 21
battles 21
sovereign 21
lump 21
receptors 21
announce 21
treadmill 21
alling 21
lazy 21
itated 21
schedule 21
castle 21
Rachel 21
Bal@@ 21
Ronald 21
Nathaniel 21
Ma 21
uck@@ 21
Ple@@ 21
Cr@@ 21
Tem@@ 21
floods 21
predictive 21
killers 21
Magic 21
tended 21
freedoms 21
vul@@ 21
innate 21
asphalt 21
compact 21
grading 21
toaster 21
visualizing 21
appliances 21
determining 21
evolves 21
58 21
spine 21
juvenile 21
eller 21
appearing 21
deli@@ 21
bombing 21
Ivan 21
valve 21
by-@@ 21
convergence 21
gang 21
pun@@ 21
ouse 21
recordings 21
diamond 21
Achilles 21
Enough 21
aura 21
fitting 21
checklist 21
gratitude 21
Local 21
Doug 21
Senate 21
messaging 21
Moving 21
three-year-old 21
critics 21
navigation 21
swear 21
revenge 21
ca 21
left-@@ 21
responsive 21
incorporate 21
ition 21
short@@ 21
lousy 21
dity 21
costly 21
Pra@@ 21
nor@@ 21
blows 21
Fri@@ 21
alls 21
prom@@ 21
proliferation 21
intricate 21
leaned 21
Hindu 21
12th 21
vibrant 21
lessness 21
strapped 21
ropes 21
Bali 21
apparatus 21
ona 21
fertility 21
bioluminescence 21
enjoyable 21
illiterate 21
Early 21
announcement 21
fueled 21
bladder 21
encryption 21
ful@@ 21
Nanopatch 21
doodling 21
bitten 21
Gra@@ 21
ased 21
Neil 21
dia 21
internationally 21
Andy 21
bronze 21
cartoonist 21
listener 21
hypertension 21
pathetic 21
slices 21
valid 21
Malawi 21
flap 21
ment@@ 21
porn 21
pixel 21
Chad 21
forgiveness 21
Whitopia 21
Fish 21
womb 21
Hebrew 21
inquiry 21
Windows 21
ozone 21
enlightened 21
extracellular 21
Neanderthal 21
placebo 21
atmospheric 21
Ms. 21
Tamiflu 21
steak 21
LHC 21
supermassive 21
Raisuddin 21
atrazine 21
Fair 20
adjacent 20
ram@@ 20
facade 20
fishermen 20
displayed 20
intuitively 20
ingenious 20
Sho@@ 20
Fo@@ 20
convenience 20
improves 20
15th 20
oid 20
crowds 20
materi@@ 20
fleet 20
57 20
sweeping 20
companion 20
explorer 20
Ready 20
Ever 20
hears 20
flame 20
regulating 20
spills 20
unpleasant 20
foo@@ 20
cardi@@ 20
67 20
Game 20
Though 20
irs 20
89 20
pling 20
triggers 20
rhetoric 20
-co@@ 20
Galileo 20
non 20
merge 20
habitable 20
hurry 20
detectors 20
drums 20
rainbow 20
fulfilling 20
Stay 20
unch 20
Sri 20
Tomorrow 20
presidents 20
tray 20
locks 20
Poor 20
flock 20
CNN 20
Essentially 20
tribute 20
aring 20
middle-class 20
genuinely 20
Guinea 20
episodes 20
C-@@ 20
virtuous 20
ental 20
switches 20
deliberate 20
eled 20
differential 20
rotating 20
Fire@@ 20
Ur@@ 20
hobby 20
methodology 20
revelation 20
substantially 20
alignment 20
targeting 20
nursing 20
tain 20
enthusiastic 20
announcing 20
premature 20
trick@@ 20
breasts 20
prevents 20
Philippines 20
mimics 20
poisoning 20
capturing 20
indoors 20
ushing 20
superior 20
ji@@ 20
ela 20
drift 20
vel 20
Poland 20
teens 20
trafficked 20
mineral 20
lic@@ 20
B.C. 20
heroin 20
ration@@ 20
simulations 20
Walk 20
forbidden 20
Cultural 20
shade 20
evident 20
sno@@ 20
persistent 20
je@@ 20
abnormal 20
ston 20
associations 20
zer 20
Ph@@ 20
Um 20
partially 20
monitored 20
freshwater 20
Federal 20
Far 20
improbable 20
fast-@@ 20
versa 20
temporarily 20
worship 20
verted 20
occasional 20
dysfunctional 20
extraction 20
arian 20
treasure 20
Doctor 20
immortal 20
scarcity 20
tensions 20
gal@@ 20
accommodate 20
exams 20
2016 20
71 20
translates 20
turtle 20
submarine 20
generalize 20
ries 20
commitments 20
Taiwan 20
prosperous 20
ket@@ 20
joyful 20
tified 20
excuses 20
envy 20
Graham 20
ö@@ 20
composer 20
seminal 20
stop@@ 20
cloned 20
rabbit 20
misunderstood 20
identifying 20
coordinated 20
refine 20
scar 20
immunity 20
altar 20
Large 20
retro@@ 20
intellect 20
sewage 20
sey 20
emailed 20
Hitler 20
assess 20
50@@ 20
1,100 20
menu 20
hives 20
retain 20
ethnicity 20
footprints 20
breakdown 20
weir@@ 20
strips 20
tho@@ 20
protesters 20
spotted 20
upwards 20
enterprises 20
crashed 20
tourism 20
ried 20
spy 20
sounding 20
Constitution 20
Bl@@ 20
Club 20
Speaking 20
lifetimes 20
finest 20
tus 20
Change 20
unhealthy 20
III 20
tease 20
plugged 20
acceleration 20
Cas@@ 20
ual 20
burg 20
Whole 20
gation 20
Cooper 20
une 20
ara 20
attempting 20
din@@ 20
eff@@ 20
matic 20
pollination 20
mond 20
Foreign 20
whip 20
Bear 20
regain 20
corresponding 20
plotted 20
Along 20
wea@@ 20
fre@@ 20
Bol@@ 20
eu@@ 20
unfamiliar 20
donations 20
commonplace 20
inexpensive 20
marin@@ 20
clash 20
thankfully 20
unthinkable 20
revealing 20
bothered 20
statue 20
investigating 20
Sub@@ 20
axes 20
resemble 20
greatness 20
Dream 20
Oakland 20
Sum@@ 20
abstraction 20
Holocaust 20
eb@@ 20
catalyst 20
Southeast 20
ums 20
feathers 20
specimens 20
donate 20
bes@@ 20
arrival 20
instinctively 20
Pentagon 20
ila 20
populated 20
True 20
Fu@@ 20
academics 20
Prince 20
varied 20
one-third 20
longing 20
maize 20
age-@@ 20
TS 20
S. 20
q@@ 20
aligned 20
boils 20
dresses 20
danced 20
automobiles 20
sil@@ 20
Nathan 20
diagnostics 20
liters 20
M. 20
Venter 20
valves 20
evol@@ 20
communal 20
free-@@ 20
attribute 20
offline 20
Jamaica 20
sympathy 20
stunned 20
headache 20
Cameron 20
headaches 20
maintained 20
carrot 20
Lesterland 20
Glass 20
psycho@@ 20
fax 20
flush 20
Perfect 20
arrange 20
Say 20
vibration 20
execute 20
sum@@ 20
rip 20
d-up 20
ational 20
Books 20
thou 20
glowing 20
Major 20
kil@@ 20
stressful 20
Online 20
embarrassment 20
cheated 20
greed 20
Nevada 20
lessly 20
clu@@ 20
Rica 20
pioneers 20
ranges 20
worldview 20
Everywhere 20
nano-@@ 20
unnatural 20
ust 20
grandma 20
vali@@ 20
Victorian 20
animate 20
two-way 20
oma 20
pharmaceuticals 20
ddle 20
Titus 20
flawed 20
demonstrations 20
eness 20
pies 20
chewing 20
converting 20
Pixar 20
investigative 20
Irish 20
Rosetta 20
casting 20
revelations 20
conception 20
devised 20
hh 20
ly@@ 20
UN 20
Step 20
communist 20
War@@ 20
attended 20
Mahatma 20
tilt 20
scaffold 20
artery 20
pasted 20
heartbeat 20
bonus 20
fatty 20
motorcycle 20
ench 20
descent 20
weaving 20
ati@@ 20
ron 20
TEDx 20
protocells 20
stock@@ 20
certificate 20
olive 20
BC 20
journals 20
bla 20
prayers 20
sanitary 20
butterfly 20
Fibonacci 20
unfolding 20
hes@@ 20
laughs 20
shaman 20
fetus 20
RG 20
Panbanisha 20
titan 20
geese 20
RNG 20
FGM 20
ASL 20
Road 19
reconciliation 19
zo@@ 19
hike 19
posing 19
proves 19
residential 19
2,500 19
circum@@ 19
strain 19
strand 19
Yesterday 19
railroad 19
departments 19
kilogram 19
,@@ 19
cosmology 19
relational 19
Guardian 19
Is@@ 19
1.4 19
recon@@ 19
pale 19
conquer 19
performer 19
x-@@ 19
me-@@ 19
dove 19
mic@@ 19
eri@@ 19
burns 19
kidnapped 19
Mississippi 19
committee 19
awards 19
Gor@@ 19
energetic 19
Nine 19
lasers 19
assumes 19
competence 19
marke@@ 19
handsome 19
Katrina 19
lob@@ 19
unfold 19
industri@@ 19
deri@@ 19
render 19
elusive 19
Working 19
volunteered 19
Real 19
confuse 19
hard-@@ 19
numb 19
melted 19
clitoris 19
scarf 19
immensely 19
pragmatic 19
hyper-@@ 19
Ages 19
blood@@ 19
Taylor 19
baton 19
shook 19
donation 19
impro@@ 19
mantra 19
suitable 19
catches 19
backward 19
Intelligence 19
packaged 19
Symphony 19
Work 19
hid 19
technologists 19
commissioned 19
Fac@@ 19
87 19
puppet 19
loyalty 19
mol@@ 19
threatens 19
Millions 19
Abu 19
surrender 19
crabs 19
dom 19
rainy 19
cin@@ 19
charming 19
flaw 19
ales 19
compatible 19
accumulating 19
acking 19
Normally 19
propelled 19
usi@@ 19
sequ@@ 19
upgrade 19
buc@@ 19
seize 19
pension 19
flooded 19
tobacco 19
aus 19
ain@@ 19
judged 19
springs 19
costing 19
ush@@ 19
billboard 19
scaffolding 19
calculator 19
mented 19
pap@@ 19
Cu@@ 19
surf 19
vering 19
Anything 19
overwhelmingly 19
vague 19
attorney 19
drifted 19
McDonald 19
von 19
holistic 19
perfection 19
xi@@ 19
penalty 19
HP 19
imitate 19
ABC 19
Tar@@ 19
guests 19
mortal 19
dances 19
foraging 19
forage 19
call@@ 19
compass 19
translating 19
constructing 19
mantis 19
vapor 19
Moreover 19
scuba 19
butter 19
four-year-old 19
Honey 19
screwed 19
accidental 19
recovering 19
amine 19
Lu@@ 19
rer 19
masterpiece 19
cro@@ 19
titled 19
60-@@ 19
sing@@ 19
arises 19
crea@@ 19
orchestras 19
dictatorship 19
day-to-day 19
minorities 19
grabbing 19
bows 19
ader 19
alarming 19
usable 19
ight 19
overlooked 19
Marshall 19
bull 19
NP 19
manure 19
hat@@ 19
Rouge 19
geographical 19
alizes 19
passively 19
modes 19
eigh@@ 19
governor 19
Commission 19
impe@@ 19
containing 19
gated 19
Night 19
advocacy 19
Palestinians 19
Beyond 19
R. 19
Computer 19
intentionally 19
lengths 19
brute 19
occasions 19
fal@@ 19
flowering 19
lowing 19
scape 19
pornography 19
accumulation 19
ories 19
reinforce 19
twisted 19
guidelines 19
wl 19
graphy 19
fications 19
primordial 19
lowered 19
empires 19
visibility 19
Wa@@ 19
projecting 19
geek 19
manifestation 19
adopting 19
tize 19
regarded 19
bless 19
Add 19
Initiative 19
suspects 19
shaming 19
cult 19
rang 19
employers 19
exquisite 19
microwave 19
Row 19
ri 19
hard@@ 19
embryo 19
wood@@ 19
commerce 19
foremost 19
sideways 19
stacks 19
pads 19
supposedly 19
tearing 19
tougher 19
lightweight 19
similarity 19
clear@@ 19
vet 19
similarities 19
stems 19
strictly 19
demo@@ 19
influential 19
relying 19
inflate 19
mutually 19
nan@@ 19
Corporation 19
h-@@ 19
spores 19
rex 19
ands 19
melts 19
dumped 19
% 19
clicking 19
opt 19
teddy 19
lum@@ 19
un 19
Wired 19
eper 19
atch 19
correlated 19
Ci@@ 19
intuitions 19
shocks 19
swallow 19
ution 19
booth 19
width 19
tab@@ 19
Mission 19
ith 19
LEDs 19
spines 19
scares 19
whistles 19
pathology 19
enhanced 19
bureaucratic 19
clarify 19
condemned 19
fabrication 19
3,@@ 19
counseling 19
Ko@@ 19
160 19
ced 19
tunnels 19
Rem@@ 19
tum@@ 19
enduring 19
ira 19
indicator 19
ez 19
Dam@@ 19
J 19
temples 19
medic@@ 19
preventable 19
voic@@ 19
adapting 19
aerial 19
rainwater 19
een 19
sparked 19
downloaded 19
ashed 19
plywood 19
IP 19
biom@@ 19
Turing 19
destined 19
deployment 19
risk-@@ 19
Iranians 19
May@@ 19
regenerative 19
cardiovascular 19
bli@@ 19
meadow 19
boson 19
geology 19
marching 19
arrives 19
sulfur 19
Dear 19
Not@@ 19
vacant 19
meanings 19
crucially 19
1983 19
Val@@ 19
spaceship 19
implants 19
Portland 19
gie 19
Dem@@ 19
monsters 19
comedian 19
stimulated 19
humiliation 19
mur@@ 19
newborn 19
pits 19
cochlear 19
earnings 19
Sim@@ 19
lec@@ 19
AL@@ 19
Award 19
Kri@@ 19
Report 19
commercially 19
tallest 19
charities 19
Acumen 19
tool@@ 19
Wide 19
wan@@ 19
bites 19
socket 19
cereal 19
Wednesday 19
UV 19
ancestry 19
ora 19
suggestions 19
83 19
skeletons 19
Sergio 19
Juan 19
Comm@@ 19
embryonic 19
ghts 19
anthropologists 19
cores 19
servant 19
Flickr 19
eds 19
bread@@ 19
milliseconds 19
TEDTalks 19
Portuguese 19
Proust 19
tourists 19
aftermath 19
Stockholm 19
Fear 19
ere 19
squared 19
commercials 19
Roots 19
Walmart 19
AG 19
Inuit 19
interference 19
Von 19
repeating 19
Arabs 19
bypass 19
Virtual 19
tapir 19
Jon 19
oming 19
fungus 19
foragers 19
rabbi 19
estrogen 19
oyster 19
RSW 19
A-rhythm-etic 19
Romo 19
milit@@ 18
Rab@@ 18
diplomatic 18
settling 18
problem-solving 18
Sandy 18
Behind 18
generator 18
grazing 18
astonished 18
ita 18
champions 18
25th 18
parked 18
invade 18
suff@@ 18
ed-@@ 18
reimagine 18
Won@@ 18
moons 18
saltwater 18
rem@@ 18
arguably 18
tible 18
emit 18
Voyager 18
retar@@ 18
Oil 18
BP 18
dispersed 18
sole 18
resort 18
digest 18
forbid 18
provider 18
hurricane 18
dru@@ 18
stretching 18
busted 18
Kentucky 18
inspirational 18
bru@@ 18
devote 18
impacted 18
Nar@@ 18
inter-@@ 18
forehead 18
believer 18
concerts 18
motor@@ 18
fundraising 18
illing 18
Bring 18
77 18
indul@@ 18
-free 18
yoga 18
Survey 18
helicopters 18
self-esteem 18
kite 18
reactive 18
pushes 18
cords 18
Batman 18
cafeteria 18
Gwen 18
scri@@ 18
-down 18
deemed 18
Fin@@ 18
close-up 18
carve 18
high-risk 18
styles 18
virgin 18
rebel 18
pp@@ 18
Rose 18
grabs 18
raging 18
prescribe 18
buys 18
queue 18
afterward 18
ee 18
Malaysia 18
synchrony 18
ures 18
End 18
moderate 18
futures 18
vets 18
shortest 18
izes 18
drifting 18
swarms 18
life@@ 18
Aimee 18
Point 18
achievements 18
Eur@@ 18
Congolese 18
E.U. 18
liber@@ 18
101 18
instability 18
reacted 18
startling 18
Fahrenheit 18
listeners 18
untouched 18
sucked 18
tires 18
TEDster 18
promotion 18
Spe@@ 18
sufficiently 18
chiefs 18
degrade 18
cent@@ 18
drilling 18
Thir@@ 18
Geiger 18
Economic 18
ound@@ 18
Chief 18
mandate 18
stereotypes 18
periphery 18
stand@@ 18
middle-aged 18
assured 18
liberating 18
dictator 18
upstairs 18
cans 18
psychiatrist 18
polarization 18
ometer 18
revol@@ 18
mega-@@ 18
dispos@@ 18
alter@@ 18
purchased 18
tain@@ 18
pumping 18
Jean 18
Jacques 18
gloves 18
portal 18
mies 18
downstairs 18
messing 18
Ann 18
palliative 18
demonstrating 18
shoots 18
policymakers 18
osis 18
Mostly 18
ballet 18
ong@@ 18
Picasso 18
jealous 18
Saint 18
compose 18
turing 18
Py@@ 18
seasonal 18
old-fashioned 18
yogurt 18
continuity 18
sla@@ 18
considerably 18
Computers 18
cursor 18
rain@@ 18
photographic 18
uri@@ 18
sli@@ 18
straigh@@ 18
exporting 18
ices 18
tz 18
non-profit 18
wrong@@ 18
asi@@ 18
mani@@ 18
asis 18
slate 18
Against 18
Israelis 18
neocortex 18
Mt 18
archives 18
educ@@ 18
sional 18
dementia 18
IDEO 18
lingu@@ 18
63 18
echo@@ 18
Lar@@ 18
15-year-old 18
emo@@ 18
50th 18
6.@@ 18
hollow 18
locate 18
weeds 18
oids 18
han 18
Living 18
tting 18
compensation 18
è@@ 18
viewers 18
Creative 18
í@@ 18
illa 18
Moses 18
asp@@ 18
crimin@@ 18
credible 18
darkest 18
rejection 18
tist 18
tel 18
TR 18
rear 18
mid- 18
tutoring 18
conceived 18
creatively 18
sticker 18
junior 18
73 18
systemic 18
med@@ 18
searched 18
transcendence 18
tactics 18
oot 18
ata 18
Dick 18
Pakistani 18
nails 18
snapshot 18
burnt 18
intrigued 18
Hyun-Sook 18
niece 18
kets 18
tized 18
hello 18
Organ@@ 18
hel@@ 18
-cre@@ 18
clearing 18
á@@ 18
consistency 18
unleash 18
analytics 18
cello 18
swept 18
guts 18
rounded 18
ulous 18
performances 18
moder@@ 18
auto@@ 18
adolescent 18
lacks 18
governmental 18
Ban@@ 18
dye 18
tation 18
vable 18
dum@@ 18
Wat@@ 18
lettuce 18
7,@@ 18
Babylon 18
Nicholas 18
manipulated 18
chambers 18
quantitative 18
facilitate 18
ken@@ 18
Billy 18
ults 18
cit@@ 18
chlor@@ 18
excerpt 18
miners 18
Gary 18
indicators 18
respects 18
Mogadishu 18
ger@@ 18
knit 18
inability 18
crocodile 18
Rice 18
loading 18
collide 18
Channel 18
high-resolution 18
Innovation 18
snap 18
controller 18
dos@@ 18
DE@@ 18
fonts 18
bullying 18
rated 18
curtain 18
funders 18
secre@@ 18
Bla@@ 18
Cheers 18
sex@@ 18
five-year-old 18
browse 18
apped 18
typed 18
secretary 18
asses 18
mediated 18
damaging 18
Off@@ 18
Vegas 18
Looks 18
concentrations 18
Luke 18
chy 18
ignoring 18
scheduled 18
doomed 18
clone 18
Ninety-@@ 18
itis 18
cheaply 18
mutant 18
someplace 18
Hor@@ 18
fishery 18
Rockefeller 18
icy 18
arithmetic 18
megawatts 18
geothermal 18
Compare 18
curved 18
oth 18
anthropologist 18
sit@@ 18
Jennifer 18
Rel@@ 18
popped 18
tunneling 18
desperation 18
asser@@ 18
-controlled 18
fri@@ 18
Duke 18
dividing 18
nickname 18
variability 18
stiff 18
overweight 18
Ga@@ 18
cam@@ 18
Rus@@ 18
salad 18
databases 18
stabilize 18
anic 18
tucked 18
grandmothers 18
manuscripts 18
Archimedes 18
metadata 18
acies 18
BL 18
paragraph 18
Judaism 18
uation 18
Cohen 18
fierce 18
measles 18
vine 18
Vietnamese 18
Pin@@ 18
FOXO 18
seriousness 18
vascular 18
DJ 18
Botswana 18
wetsuit 18
confirm 18
excessive 18
Lisa 18
DIY 18
acronym 18
photosynthesis 18
Fore@@ 18
hs 18
photo@@ 18
Sher@@ 18
glands 18
Ear@@ 18
lava 18
rupees 18
oom 18
credibility 18
Anas 18
algorithmic 18
lexicon 18
Announcer 18
esis 18
symptom 18
semester 18
ark 18
bombed 18
arthritis 18
ancies 18
49 18
fitted 18
imaginative 18
CRISPR 18
capacities 18
mammogram 18
Galois 18
rotation 18
profiles 18
Arkansas 18
Shoots 18
row@@ 18
basics 18
menstruation 18
vultures 18
CMU 18
haul 18
Kanzi 18
Bertie 18
Mahmoud 18
birch 18
diplomats 17
commander 17
strengthen 17
personnel 17
planners 17
dig@@ 17
beams 17
canals 17
70,000 17
hur@@ 17
welcomed 17
plague 17
35,000 17
charts 17
courtship 17
clinicians 17
14th 17
cran@@ 17
Model 17
skiing 17
Fifth 17
pedestrians 17
regulatory 17
vol@@ 17
powering 17
emits 17
behaves 17
superstar 17
Surely 17
bot@@ 17
stand-up 17
recipient 17
Haz@@ 17
wetlands 17
Exxon 17
Independent 17
toxin 17
readily 17
risking 17
Pot@@ 17
biomedical 17
1982 17
Car 17
mat 17
dev@@ 17
devi@@ 17
messed 17
84 17
tigers 17
sands 17
imprisoned 17
joins 17
Men@@ 17
censored 17
dat@@ 17
Agnes 17
pretending 17
anecdote 17
seller 17
daunting 17
dered 17
wears 17
disc@@ 17
Cro@@ 17
Bro@@ 17
ven 17
legi@@ 17
persistence 17
Bre@@ 17
suppliers 17
ambassador 17
piled 17
monument 17
seven@@ 17
casually 17
jars 17
opi@@ 17
Thus 17
moisture 17
elastic 17
Power@@ 17
AS 17
notebook 17
decode 17
margin 17
catalog 17
oped 17
passionately 17
insult 17
enriched 17
alpha 17
ante 17
Fourth 17
wondrous 17
nal 17
charismatic 17
miraculous 17
illuminate 17
antennae 17
orchestr@@ 17
ub@@ 17
virtues 17
IQ 17
offenders 17
hull 17
Fortune 17
sors 17
descend 17
ille 17
neglected 17
claws 17
jams 17
albeit 17
triggered 17
illi@@ 17
leisure 17
sourced 17
transnational 17
proportions 17
sul@@ 17
skepticism 17
door@@ 17
grasses 17
dynam@@ 17
9,000 17
oste@@ 17
ja 17
correc@@ 17
psyche 17
maze 17
Celsius 17
energies 17
Face 17
fig@@ 17
interrupted 17
Oliver 17
zodiac 17
ser 17
itting 17
weave 17
durable 17
Bio@@ 17
partisan 17
deadline 17
hurting 17
xed 17
currencies 17
Barry 17
gateway 17
ticking 17
professionally 17
sophistication 17
incidents 17
friendships 17
Grandma 17
lings 17
Uh 17
onal 17
vitro 17
reluctant 17
ped@@ 17
daddy 17
missile 17
Cle@@ 17
1987 17
excluded 17
sunset 17
forwards 17
outward 17
protocols 17
Roy 17
snail 17
gosh 17
ampli@@ 17
storing 17
blu@@ 17
Solomon 17
wit@@ 17
Danish 17
OPEC 17
aud@@ 17
ala 17
oon 17
ck 17
exclusion 17
guessing 17
gifted 17
inal 17
Airport 17
communicates 17
generative 17
1918 17
defeated 17
socks 17
B. 17
quantify 17
Helvetica 17
jeans 17
Aid 17
mainframe 17
pig@@ 17
USDA 17
imbalance 17
affection 17
break@@ 17
thir@@ 17
Ori@@ 17
Universe 17
Jazeera 17
dreadful 17
recruitment 17
va@@ 17
plaque 17
auction 17
blamed 17
Humanity 17
ret@@ 17
omics 17
0 17
scal@@ 17
networked 17
aled 17
proposing 17
Network 17
Sul@@ 17
packets 17
neglect 17
dol@@ 17
violation 17
devastation 17
encing 17
Reed 17
pollinators 17
keeper 17
inert 17
leaf@@ 17
acquisition 17
evi@@ 17
sleeve 17
12-year-old 17
admired 17
saturated 17
peril 17
Enlightenment 17
steep 17
-year 17
Kabul 17
exhibitions 17
cour@@ 17
brilliance 17
subset 17
Different 17
empathize 17
Laptop 17
Uruguay 17
runner 17
gol@@ 17
prioritize 17
Progress 17
nine-@@ 17
Bond 17
rude 17
Nazi 17
ignorant 17
ik@@ 17
Hil@@ 17
Scot@@ 17
Westerners 17
skins 17
extinctions 17
pigeons 17
ounce 17
pioneer 17
pluripotent 17
doc@@ 17
bald 17
critic 17
guesses 17
African-Americans 17
jails 17
unbelievably 17
convictions 17
guiding 17
visuals 17
Mag@@ 17
fooled 17
Oz 17
ch-@@ 17
indicated 17
ook 17
endurance 17
centered 17
walkable 17
gradual 17
gardening 17
import 17
exchanges 17
chalk 17
endemic 17
treats 17
coll@@ 17
comics 17
edible 17
analogies 17
eve 17
tract 17
broccoli 17
time-lapse 17
drip 17
sustainably 17
Earth-like 17
T.B. 17
decor@@ 17
ght@@ 17
restoration 17
nec@@ 17
quoted 17
Honduras 17
tofu 17
Knowing 17
empirical 17
purse 17
sugars 17
Amy 17
gle@@ 17
self-driving 17
turbine 17
blaming 17
Vienna 17
resident 17
tempting 17
hostility 17
ventilation 17
nos@@ 17
Conservation 17
debates 17
110 17
marathon 17
lightly 17
handic@@ 17
ranking 17
encode 17
crater 17
valleys 17
Gordon 17
ude 17
posting 17
Navy 17
queens 17
royal 17
Archie 17
reinforced 17
Freud 17
lip 17
converge 17
mind-@@ 17
anticipation 17
Native 17
entr@@ 17
Android 17
block@@ 17
classify 17
ku 17
Map 17
Theater 17
170 17
hers 17
yle 17
domains 17
pho@@ 17
1,200 17
mystical 17
Kyoto 17
execution 17
biomaterials 17
furthermore 17
arch 17
tagging 17
southwest 17
reck@@ 17
pessimistic 17
conceivable 17
Poll@@ 17
Planet 17
surveyed 17
praise 17
Alfred 17
cabin 17
counselor 17
darker 17
stresses 17
dumping 17
ock 17
simulator 17
Shortly 17
brink 17
graduation 17
fulfilled 17
TD 17
sel 17
switching 17
otic 17
amino 17
reviewed 17
featured 17
hazard 17
obey 17
latitude 17
audi@@ 17
diver 17
pt 17
Julian 17
electrode 17
1969 17
Neumann 17
refrigeration 17
proxy 17
rotates 17
opaque 17
shrunk 17
Superman 17
Pope 17
hydrothermal 17
cost-effective 17
marched 17
forgetting 17
x-ray 17
swam 17
Saddam 17
broadcasting 17
Zambia 17
nonviolence 17
HIV-positive 17
Ecuador 17
motivations 17
participatory 17
G20 17
advancing 17
two-year-old 17
small-scale 17
Ric@@ 17
activation 17
programmable 17
Labs 17
hands-on 17
Coll@@ 17
typeface 17
Dun@@ 17
medicinal 17
tory 17
follow-up 17
IMF 17
Potter 17
fission 17
compress 17
sign@@ 17
divergence 17
toughest 17
Hadron 17
Collider 17
traps 17
blockchain 17
constraint 17
naming 17
Airbnb 17
eradicated 17
NM 17
person@@ 17
assisted 17
helix 17
Tiger 17
modification 17
suite 17
transgender 17
Oprah 17
compliment 17
Evolution 17
selectively 17
Sobule 17
lesion 17
branded 17
Barbara 17
Sue 17
siege 17
superconductor 17
metronome 17
LN 17
Leo 17
thumbs 17
12@@ 17
lized 17
guerrillas 17
Mola 17
Benki 17
alliance 16
Cross 16
alo@@ 16
legitimacy 16
MA@@ 16
igned 16
fresh@@ 16
tail@@ 16
night@@ 16
reserved 16
locals 16
porous 16
absent 16
wheel@@ 16
ram 16
har 16
concluded 16
ggy 16
81 16
sneakers 16
cab 16
entertain 16
Newtonian 16
merging 16
Stre@@ 16
world-class 16
flag@@ 16
Stu@@ 16
real-world 16
Yorkers 16
CERN 16
astounding 16
vian 16
turbulent 16
correspon@@ 16
gent 16
toe 16
Luc@@ 16
ium 16
refu@@ 16
dding 16
secrecy 16
Cleveland 16
policemen 16
Believe 16
hygiene 16
taped 16
Rosling 16
ac 16
isolate 16
Minnesota 16
ounded 16
centigrade 16
resonate 16
exile 16
Campaign 16
richness 16
warmth 16
warriors 16
Rift 16
oneself 16
impacting 16
para@@ 16
descended 16
Ram@@ 16
distress 16
vert 16
lovers 16
woven 16
Common 16
worthless 16
hippie 16
cubicle 16
encounters 16
Lim@@ 16
planner 16
san@@ 16
Laboratory 16
IV 16
gadgets 16
primal 16
Raise 16
owl 16
D-@@ 16
E-@@ 16
F. 16
reconstructed 16
unt 16
anonymity 16
rotten 16
legendary 16
Always 16
affir@@ 16
villagers 16
ballroom 16
Captain 16
Sen@@ 16
ior 16
sponsored 16
hillside 16
Smo@@ 16
blinking 16
thoughtful 16
provision 16
Cos@@ 16
lian 16
enhancing 16
suicidal 16
mechanically 16
gen 16
feed@@ 16
analogous 16
inoc@@ 16
mediate 16
simplified 16
ID 16
Matthew 16
wearable 16
Dor@@ 16
relaxed 16
cheer 16
atrocities 16
itary 16
examining 16
champagne 16
mom@@ 16
badge 16
lis@@ 16
Nowadays 16
Plato 16
third-@@ 16
urban@@ 16
exploding 16
Mao 16
dedicate 16
nings 16
motivating 16
possession 16
envel@@ 16
diffuse 16
examined 16
old-@@ 16
Shake 16
tis 16
verify 16
NE@@ 16
wastewater 16
eliminating 16
solvable 16
CA@@ 16
ada 16
Doing 16
governed 16
Daddy 16
blinded 16
aiming 16
lism 16
socioeconomic 16
steroids 16
micro 16
aters 16
hyperbolic 16
ffing 16
Patrick 16
advis@@ 16
terrestrial 16
captures 16
summed 16
activating 16
Dark 16
conventions 16
treas@@ 16
suppress 16
recommended 16
edness 16
nia 16
Check 16
flourishing 16
median 16
progressively 16
automation 16
our@@ 16
Play@@ 16
trol@@ 16
trance 16
integral 16
Jobs 16
Es@@ 16
defect 16
Guatemala 16
ities 16
influenza 16
guessed 16
Milan 16
umbrella 16
man-@@ 16
angel 16
3.5 16
generators 16
eth@@ 16
hive 16
Davis 16
Fine 16
tenderness 16
fingerprint 16
Aurora 16
ania 16
jo 16
mortgage 16
deni@@ 16
blueprints 16
knocking 16
Aaron 16
Post 16
fecal 16
complaints 16
watch@@ 16
t-to-@@ 16
oney 16
Carter 16
vy 16
resi@@ 16
documentation 16
chord 16
headphones 16
restored 16
CAPTCHA 16
doubles 16
linguistic 16
anding 16
diminished 16
main@@ 16
academia 16
Hampshire 16
hay 16
pesticide 16
lawns 16
ancestral 16
dengue 16
Que@@ 16
killings 16
I.T. 16
chooses 16
buff@@ 16
Group 16
higher-@@ 16
plots 16
homicide 16
centralized 16
gangs 16
dividend 16
nic@@ 16
flour 16
traded 16
infinity 16
shelters 16
fur 16
geometric 16
leveraging 16
spir@@ 16
AC 16
iPods 16
Mongolia 16
cram@@ 16
Fish@@ 16
Cat 16
desirable 16
colleges 16
not@@ 16
kick@@ 16
awarded 16
exports 16
solely 16
portfolio 16
imperfect 16
downhill 16
Rwandan 16
aspire 16
nuanced 16
ef 16
comparative 16
Coming 16
tours 16
afflic@@ 16
Festival 16
Sputnik 16
shment 16
Roc@@ 16
cheapest 16
specimen 16
spelled 16
back-@@ 16
abs 16
patri@@ 16
Blair 16
elect 16
Eighty 16
ren 16
din 16
ury 16
compelled 16
ign@@ 16
governing 16
prints 16
doubts 16
scattered 16
supermarkets 16
reckless 16
oftentimes 16
EB 16
lea@@ 16
CDC 16
dominance 16
urbanism 16
turbines 16
hundred-@@ 16
compromised 16
fundamentalism 16
birth@@ 16
Illinois 16
Midwest 16
pts 16
align 16
dip 16
incidence 16
explicit 16
stat@@ 16
rod 16
creations 16
Med@@ 16
seeks 16
clearer 16
contradictions 16
tackling 16
courtyard 16
125 16
gossip 16
^ 16
persist 16
misuse 16
cone 16
printers 16
surrogate 16
manipul@@ 16
reconcile 16
blin@@ 16
thumb@@ 16
patho@@ 16
Doctors 16
investigations 16
proceed 16
Dur@@ 16
bookstore 16
74 16
appointed 16
variants 16
vit@@ 16
representatives 16
Forty 16
centr@@ 16
mega@@ 16
shave 16
Vermeer 16
Wol@@ 16
endo@@ 16
ratic 16
three-quarters 16
run@@ 16
sprin@@ 16
Pan@@ 16
handing 16
million-@@ 16
giants 16
propulsion 16
attacker 16
sneak 16
CDs 16
vo 16
rehearsal 16
pay@@ 16
valuing 16
-centric 16
scandal 16
lig@@ 16
reversed 16
vers@@ 16
whereby 16
fir@@ 16
Town 16
direc@@ 16
Negroponte 16
diff@@ 16
elevation 16
puzzling 16
reb@@ 16
Bab@@ 16
entertaining 16
Tou@@ 16
vector 16
Ha 16
gir@@ 16
Stra@@ 16
ority 16
treaty 16
10-year-old 16
interdependent 16
1979 16
ecting 16
Kir@@ 16
-class 16
deprivation 16
irregular 16
stance 16
Mermaid 16
commute 16
pavilion 16
princess 16
Gallery 16
uk@@ 16
paradigms 16
Comple@@ 16
ecologist 16
tasted 16
aqu@@ 16
Dum@@ 16
advent 16
chore@@ 16
predatory 16
Thousands 16
fic@@ 16
Ken@@ 16
grassland 16
Canal 16
nutrient 16
surrounds 16
win-win 16
soy 16
pains 16
Sc@@ 16
Reg@@ 16
patches 16
inorganic 16
regeneration 16
representations 16
dismissed 16
dismiss 16
stuffed 16
corn@@ 16
wool 16
tress 16
los 16
festivals 16
gn@@ 16
dging 16
irre@@ 16
ambi@@ 16
spi@@ 16
DL 16
Ali 16
Cru@@ 16
Barbie 16
antiretroviral 16
succeeding 16
Helen 16
adaptable 16
environmentalists 16
emitted 16
denser 16
slam 16
ford 16
guerrilla 16
curse 16
speculation 16
maggots 16
fences 16
Bahamas 16
11,000 16
Mario 16
Alexandria 16
crown 16
customization 16
prin@@ 16
Netflix 16
innocence 16
Diana 16
Billie 16
Sli@@ 16
sweep 16
avoided 16
mailbox 16
diary 16
stereo 16
resting 16
synchronize 16
phon@@ 16
fli@@ 16
Tele@@ 16
Tim@@ 16
accessing 16
offense 16
cockpit 16
Q 16
pioneering 16
hubris 16
Needless 16
replicated 16
rushing 16
reception 16
infants 16
ruler 16
Operations 16
skier 16
dist@@ 16
motto 16
agile 16
infor@@ 16
glance 16
turtles 16
lah 16
Edison 16
ni 16
Maps 16
Studio 16
00 16
Dar@@ 16
collagen 16
injecting 16
organ@@ 16
rogue 16
Drugs 16
Pat@@ 16
reframe 16
cookie 16
macro 16
leaps 16
ull@@ 16
neutrons 16
flavors 16
Khan 16
liberated 16
trade-offs 16
ei@@ 16
attendance 16
crystals 16
hummingbird 16
fabricated 16
degrading 16
Jonas 16
loser 16
AI 16
publishers 16
Homer 16
replicator 16
CP 16
bir@@ 16
candle 16
visits 16
understandable 16
Beck 16
hating 16
same-sex 16
prince 16
carbonate 16
Amazing 16
Gando 16
droughts 16
personalization 16
Carol 16
blurry 16
carpenter 16
Fly 16
marries 16
Icelandic 16
counterparts 16
Kid 16
cobra 16
veterinarians 16
Embassy 16
Visual 16
tac@@ 16
RD 16
Bonobo 16
Molas 16
ree 16
holder 16
Tumor 16
FreeSpeech 16
HeForShe 16
nitric 16
DG 16
VR 16
Biosphere 16
Nico 16
arily 15
impress 15
devise 15
powerless 15
Le 15
makeshift 15
fascination 15
inhabitants 15
shor@@ 15
bells 15
shop@@ 15
chatting 15
decoration 15
eping 15
fif@@ 15
landfill 15
push@@ 15
motivates 15
91 15
sche 15
blades 15
AR@@ 15
outlet 15
changer 15
Broadway 15
cycling 15
Geneva 15
Econ@@ 15
absorbing 15
transmitting 15
shaft 15
Beautiful 15
1920s 15
Northwest 15
pha@@ 15
bursting 15
petroleum 15
umes 15
2-@@ 15
elle 15
bia 15
transporting 15
ducks 15
loneliness 15
Delta 15
echo 15
consum@@ 15
Ze@@ 15
proportional 15
cognitively 15
gorilla 15
refrigerators 15
photons 15
thousandth 15
t-based 15
premium 15
Brilliant 15
Sciences 15
crush 15
vantage 15
prevailing 15
entrenched 15
bedrock 15
violated 15
Malaria 15
blindly 15
begging 15
onia 15
homosexuality 15
sermon 15
shuffle 15
Austin 15
minded 15
1957 15
underlies 15
1965 15
Guess 15
unto 15
exc@@ 15
esses 15
Oscar 15
legged 15
yp@@ 15
Currently 15
Orchestra 15
ner@@ 15
mix@@ 15
Kat@@ 15
0th 15
amber 15
ems 15
ji 15
giraffe 15
licensed 15
horrified 15
ero 15
dared 15
low-tech 15
mal 15
1974 15
Move 15
MBA 15
Talks 15
benefited 15
originated 15
snack 15
conquered 15
candles 15
Mis@@ 15
enz@@ 15
hus@@ 15
selecting 15
15-@@ 15
buffer 15
patented 15
inflated 15
ential 15
crowd-@@ 15
pictured 15
superhero 15
heartbreaking 15
Brain 15
14,000 15
necessity 15
marketed 15
admission 15
aggression 15
ushed 15
ideally 15
Copernicus 15
Astron@@ 15
appetite 15
dam 15
fertile 15
Build 15
90,000 15
45,000 15
hol@@ 15
Bird 15
shirts 15
lay@@ 15
imaginations 15
bra 15
illed 15
harvested 15
degeneration 15
itable 15
psychotic 15
common@@ 15
encoded 15
interpreted 15
line@@ 15
plas@@ 15
thal@@ 15
joking 15
duce 15
disastrous 15
wakes 15
cockroaches 15
ty-five 15
.A. 15
Sev@@ 15
consultant 15
bye 15
Awesome 15
author@@ 15
logist 15
aire 15
9th 15
lon@@ 15
16th 15
arly 15
psychiatrists 15
coins 15
treatable 15
rotting 15
j 15
polarized 15
pes 15
referring 15
aded 15
districts 15
snails 15
dynamically 15
presses 15
ano 15
30@@ 15
puzzled 15
flee 15
gical 15
quiz 15
rom@@ 15
eye-@@ 15
88 15
fluorescence 15
Ell@@ 15
reptiles 15
mind-blowing 15
cab@@ 15
sampled 15
sampling 15
nerdy 15
mimicking 15
slot 15
5.@@ 15
Hay@@ 15
Mid@@ 15
post-traumatic 15
unc@@ 15
esthetic 15
piracy 15
auto 15
learners 15
1949 15
Sam@@ 15
ull 15
impulses 15
criticize 15
legend 15
Got@@ 15
ician 15
Bec@@ 15
declare 15
opponents 15
ISIS 15
pathogen 15
H5N1 15
binding 15
1940s 15
gratification 15
branding 15
Bryan 15
Economist 15
purchasing 15
2.3 15
wers 15
zero-@@ 15
gravit@@ 15
artificially 15
clicked 15
downs 15
red@@ 15
Yahoo 15
Anna 15
kissing 15
nap@@ 15
campaigning 15
outraged 15
ineffective 15
Democracy 15
feces 15
dentist 15
omic 15
transfers 15
shores 15
Across 15
ech 15
dir@@ 15
norm@@ 15
addresses 15
Lower 15
billionaire 15
inspires 15
brate 15
slo@@ 15
crust 15
cruise 15
audacious 15
tem@@ 15
disciplinary 15
Architecture 15
rediscover 15
filing 15
resin 15
foot-@@ 15
implementation 15
who@@ 15
C.@@ 15
V. 15
accommod@@ 15
proceeded 15
aping 15
subconscious 15
rais@@ 15
highlighted 15
tomatoes 15
coated 15
butterflies 15
hedge 15
bottom@@ 15
190@@ 15
On@@ 15
monitors 15
participated 15
imitation 15
Ten@@ 15
Ukraine 15
nine-year-old 15
microphones 15
Gri@@ 15
tos 15
rooftop 15
Nan@@ 15
Vas@@ 15
assign 15
risen 15
det@@ 15
exploited 15
waving 15
eline 15
fucking 15
faded 15
Sort 15
massage 15
mass@@ 15
Dimitri 15
merit 15
Kofi 15
fast-forward 15
bio 15
permit 15
buck 15
trending 15
distraction 15
acker 15
hockey 15
stries 15
4.@@ 15
crews 15
interdependence 15
1967 15
Rob@@ 15
arium 15
phases 15
yers 15
instrumental 15
ig 15
1978 15
Pearl 15
delayed 15
bed@@ 15
restoring 15
Stanley 15
Kate 15
puppets 15
Liber@@ 15
acity 15
Senegal 15
livelihoods 15
zi 15
jets 15
pitched 15
divorced 15
exclusively 15
right-@@ 15
bomb@@ 15
Fred 15
pleasures 15
magnetism 15
insist 15
ino@@ 15
Cause 15
complications 15
Gran@@ 15
divisions 15
Mom@@ 15
-cap@@ 15
livelihood 15
scissors 15
webcam 15
Goodbye 15
coercion 15
lever 15
liberate 15
Photoshop 15
whiskey 15
vegetarian 15
idal 15
soluble 15
antennas 15
sten 15
cy 15
brac@@ 15
builder 15
renov@@ 15
ques 15
derive 15
Kurzweil 15
itch@@ 15
DDT 15
Haw@@ 15
Sel@@ 15
gig@@ 15
technicians 15
expenditure 15
caregiver 15
genomic 15
700,000 15
altruistic 15
innovating 15
Zetas 15
gum 15
sweater 15
Jackson 15
demonstrates 15
nutritional 15
dil@@ 15
Josh 15
mother@@ 15
Director 15
aka 15
bets 15
comets 15
attracting 15
bait 15
NA@@ 15
Oper@@ 15
Dr@@ 15
extracting 15
republic 15
manageable 15
advise 15
emitting 15
rug 15
carrier 15
transducer 15
computer-@@ 15
Environmental 15
poker 15
jack 15
Las 15
quot@@ 15
kits 15
JA 15
bitch 15
fracture 15
xen@@ 15
ge-@@ 15
tam@@ 15
virtu@@ 15
pots 15
may@@ 15
palette 15
wrestle 15
Money 15
ice@@ 15
metabo@@ 15
precursor 15
curiously 15
brightest 15
Hurricane 15
infamous 15
hydrocarbons 15
questionable 15
Test 15
Page 15
operas 15
Were 15
permits 15
Management 15
temperate 15
Panama 15
precedent 15
climat@@ 15
Saul 15
balances 15
embody 15
spam 15
rally 15
horribly 15
accustomed 15
Yellowstone 15
sword 15
du 15
seated 15
ati 15
Essex 15
considerable 15
stimul@@ 15
withstand 15
aids 15
frontiers 15
layered 15
corridor 15
advertise 15
discrete 15
ste 15
gan@@ 15
1992 15
knitting 15
abyss 15
processors 15
strang@@ 15
trunks 15
anson 15
coccus 15
watering 15
yearning 15
class@@ 15
obses@@ 15
peanut 15
broadband 15
Yellow 15
boot 15
ota 15
ulates 15
driverless 15
DK 15
overs 15
cess@@ 15
inadvertently 15
drowned 15
overboard 15
blues 15
mounting 15
draft 15
regarding 15
Actor 15
bomber 15
ues 15
conver@@ 15
Bowl 15
bounds 15
dire 15
Osama 15
Nollywood 15
pennies 15
manifestations 15
daf-2 15
electoral 15
onion 15
agu@@ 15
Architects 15
NATO 15
millimeters 15
Scientific 15
phal@@ 15
tee 15
ective 15
Moscow 15
sushi 15
inger 15
multiplied 15
mainland 15
cosmetic 15
epi@@ 15
itt@@ 15
nothingness 15
preacher 15
implicated 15
Troy 15
fuse 15
infidelity 15
Caltech 15
pioneered 15
administrative 15
inity 15
Tran@@ 15
Red@@ 15
inged 15
intestine 15
signatures 15
cellphones 15
dials 15
vicinity 15
optimist 15
pirates 15
Mes@@ 15
multitasking 15
Words 15
Noah 15
vege@@ 15
leukemia 15
protons 15
face-to-face 15
rewarding 15
gridlock 15
Clean 15
ADHD 15
ACE 15
kins 15
outdated 15
authorized 15
impressions 15
bisexual 15
Kur@@ 15
Fire 15
hectares 15
marketplaces 15
instructor 15
New@@ 15
401 15
pore 15
one-dimensional 15
PISA 15
au 15
dune 15
I-@@ 15
forestry 15
sunshine 15
Pink 15
SARS 15
Ja@@ 15
dam@@ 15
malware 15
awa 15
bombers 15
commandment 15
waist 15
.5 15
psychic 15
doctrine 15
knob 15
trustworthiness 15
Douglas 15
gharial 15
.org. 15
ZK 15
JR 15
Georgetown 15
grizzly 15
Os@@ 15
Rush 15
XL 15
NR 15
carbs 15
Treating 15
Khmer 15
Weibo 15
Susie 15
Mouaz 15
progeria 15
pigmentation 15
troubling 14
preach 14
curtains 14
infrastructures 14
canoe 14
hies 14
constitu@@ 14
encies 14
tapping 14
1988 14
1,600 14
carriage 14
energized 14
policeman 14
legislators 14
beast 14
750 14
transplants 14
initiated 14
seniors 14
billboards 14
ribbon 14
esoteric 14
supreme 14
humbling 14
kindly 14
buddy 14
gas@@ 14
TVs 14
ignite 14
preliminary 14
haunted 14
trade-off 14
harming 14
volatile 14
lizing 14
specialty 14
technician 14
RA 14
mammalian 14
66 14
feasible 14
graceful 14
ranks 14
redundancy 14
Fast 14
nationwide 14
dedication 14
sped 14
non-violent 14
Burma 14
Ka@@ 14
banjo 14
dar@@ 14
Convention 14
nerv@@ 14
blue@@ 14
aches 14
Lanka 14
deputy 14
insecurity 14
twentieth 14
inj@@ 14
oppression 14
pat 14
Hindi 14
sparks 14
Leymah 14
Eleanor 14
bou@@ 14
Mo 14
Pros@@ 14
hosting 14
mills 14
cratic 14
accomplishments 14
atr@@ 14
coordinates 14
Robotics 14
Penn 14
autonomously 14
decipher 14
algebra 14
crossword 14
highest-@@ 14
ox 14
emerald 14
Color 14
O-@@ 14
cradle 14
sympathetic 14
studios 14
green@@ 14
fidelity 14
Aha 14
anatom@@ 14
transp@@ 14
EU 14
organizers 14
mistaken 14
icks 14
poo@@ 14
Swahili 14
Femin@@ 14
barren 14
afforded 14
unarmed 14
ket 14
relay 14
dom@@ 14
ministry 14
Theresa 14
aver 14
7.@@ 14
seduction 14
firefly 14
cleverly 14
liter 14
cleans 14
composite 14
ballast 14
center@@ 14
Poetry 14
elev@@ 14
homage 14
celebrities 14
sinister 14
luc@@ 14
ffs 14
induc@@ 14
Well@@ 14
judging 14
D.@@ 14
projector 14
360 14
hour@@ 14
deconstruc@@ 14
Green@@ 14
plentiful 14
usion 14
Youn@@ 14
coff@@ 14
porch 14
itch 14
fiable 14
ambient 14
Games 14
bid 14
mir@@ 14
Grand@@ 14
Circle 14
Mir@@ 14
MW 14
downside 14
aimed 14
uh 14
incubator 14
disagreement 14
cynical 14
arrogant 14
parti@@ 14
encourages 14
NBC 14
Reserve 14
litigation 14
Leads 14
advocates 14
sick@@ 14
ouse@@ 14
ER 14
Rebecca 14
brutality 14
implicit 14
brighter 14
guar@@ 14
vanished 14
devoid 14
28@@ 14
Baghdad 14
missiles 14
Unless 14
suburbia 14
vels 14
tis@@ 14
Uni@@ 14
cred@@ 14
E.T. 14
Woody 14
infer 14
spectral 14
causal 14
then-@@ 14
computations 14
unions 14
tter 14
dependency 14
18-@@ 14
oni@@ 14
plank 14
antidepressant 14
manic 14
gi 14
fortunes 14
ori 14
Hur@@ 14
Head 14
Gone 14
Dra@@ 14
40@@ 14
Dev@@ 14
Ethiopian 14
slows 14
bird@@ 14
implies 14
intimately 14
Johns 14
Hopkins 14
lineage 14
immersion 14
recipients 14
Ren@@ 14
Mol@@ 14
objectives 14
newest 14
Vac@@ 14
spikes 14
swine 14
fighter 14
pec@@ 14
enced 14
peti@@ 14
small-@@ 14
utilize 14
specialization 14
limiting 14
Kamen 14
ly-@@ 14
collects 14
dataset 14
gle 14
battling 14
Hillary 14
crux 14
arche@@ 14
prote@@ 14
sal 14
second-@@ 14
requiring 14
riot 14
behaved 14
gic 14
stimulating 14
claiming 14
venom 14
tiest 14
owning 14
Rand 14
agging 14
million@@ 14
Fall 14
listing 14
A. 14
tian 14
tric 14
assa@@ 14
enforced 14
enrolled 14
twenty-@@ 14
Fifteen 14
standardized 14
unreasonable 14
bon 14
theoretically 14
Julie 14
Excellent 14
Chapel 14
red-@@ 14
delete 14
tick@@ 14
consumes 14
rab@@ 14
bred 14
Bun@@ 14
Youth 14
mas 14
insulation 14
tragically 14
inappropriate 14
Andes 14
portray 14
thinker 14
TEDGlobal 14
spirituality 14
discriminate 14
loaf 14
th-century 14
Hun@@ 14
sank 14
slipped 14
BS 14
seekers 14
pronounced 14
dan@@ 14
oper@@ 14
immersive 14
embodiment 14
diffusion 14
Algeria 14
Del@@ 14
Micro@@ 14
horizontally 14
sculptor 14
grey 14
2000s 14
rying 14
Vs 14
gears 14
awa@@ 14
bow@@ 14
constitutes 14
bends 14
divides 14
sim@@ 14
tablets 14
Harold 14
bins 14
chop 14
produc@@ 14
backing 14
Aqu@@ 14
unleashed 14
Bach 14
Film 14
Koreans 14
slammed 14
firemen 14
Genome 14
zation 14
grad 14
pron@@ 14
Pandora 14
stereotype 14
out-@@ 14
Kle@@ 14
establishing 14
sentenced 14
Harriet 14
iler 14
Sub-Saharan 14
detained 14
cries 14
defy 14
wholly 14
fantasies 14
dysfunction 14
fixes 14
welcoming 14
foreigners 14
Beatles 14
transformations 14
open-minded 14
long@@ 14
accomplishment 14
pact 14
Wizard 14
ribs 14
savanna 14
doub@@ 14
tless 14
detects 14
hips 14
exterior 14
technologically 14
Generation 14
mar 14
diets 14
dropout 14
ive 14
fashionable 14
Board 14
neurologist 14
tery 14
perpetual 14
Control 14
vending 14
edition 14
numbered 14
mixes 14
provocative 14
Lon@@ 14
colossal 14
EEG 14
branching 14
vein 14
ware 14
elder 14
genital 14
Twin 14
gating 14
subsidies 14
dairy 14
Ir@@ 14
Might 14
Search 14
priests 14
Occasionally 14
sco@@ 14
200@@ 14
tural 14
tapped 14
cataly@@ 14
Bir@@ 14
bble 14
M.@@ 14
rearrange 14
Mitchell 14
rider 14
unlocked 14
perme@@ 14
launches 14
colonize 14
cyberspace 14
stumble 14
incub@@ 14
livable 14
lesser 14
masterpieces 14
chil@@ 14
chin 14
Hands 14
Asperger 14
SL 14
tuning 14
promoted 14
synchron@@ 14
USC 14
astronomer 14
migrated 14
Herbie 14
suspicion 14
rit@@ 14
flashlight 14
tou@@ 14
cubes 14
q 14
idealism 14
Area 14
Maslow 14
constitutional 14
compul@@ 14
nut 14
coun@@ 14
audible 14
well@@ 14
outdoors 14
biotic 14
earthquakes 14
fra@@ 14
Doha 14
halt 14
assist 14
ographic 14
craters 14
Kit@@ 14
broad@@ 14
Len@@ 14
fractals 14
Monkey 14
pheromones 14
near-@@ 14
pyramids 14
polluting 14
fished 14
folder 14
coworkers 14
hardwired 14
taxation 14
Rives 14
anomaly 14
ored 14
Ali@@ 14
relating 14
binds 14
W. 14
Terr@@ 14
Friends 14
shalt 14
eni@@ 14
fly@@ 14
brea@@ 14
cot 14
Trying 14
occupying 14
desalination 14
pottery 14
silently 14
spraying 14
Nancy 14
gor@@ 14
aria 14
symbiosis 14
ached 14
Boys 14
uncover 14
Ax@@ 14
bathrooms 14
ip@@ 14
gaming 14
token 14
Feynman 14
unexplored 14
gens 14
uprising 14
feather 14
ric 14
comfortably 14
tooth@@ 14
harnessing 14
diagnoses 14
assass@@ 14
elessness 14
subsequent 14
witnesses 14
bases 14
grav@@ 14
icious 14
stacking 14
excites 14
latter 14
kidnapping 14
recruiting 14
tained 14
Electr@@ 14
competed 14
flipping 14
stant 14
Jen@@ 14
exercising 14
umber 14
lyrics 14
insignificant 14
Boeing 14
delightful 14
initiation 14
gam@@ 14
plat@@ 14
Bay@@ 14
ef@@ 14
esti@@ 14
liberties 14
subordin@@ 14
enter@@ 14
ender 14
converts 14
gang@@ 14
statues 14
restriction 14
segregated 14
dressing 14
chick 14
leaked 14
ides 14
interpreting 14
completing 14
armies 14
embassy 14
ins@@ 14
mation 14
plantation 14
Commandments 14
Clark 14
fins 14
best-@@ 14
erased 14
pillar 14
law@@ 14
indicating 14
WHO 14
2.@@ 14
orn 14
flick 14
obtain 14
reson@@ 14
atheist 14
smuggled 14
Goog@@ 14
drying 14
lad@@ 14
faiths 14
raft 14
crochet 14
stit@@ 14
dean 14
Fro@@ 14
sovereignty 14
Hussein 14
Bollywood 14
Tun@@ 14
testosterone 14
ation@@ 14
lymph 14
Under@@ 14
counsel 14
vendor 14
dolls 14
sies 14
ces@@ 14
discarded 14
concerning 14
tled 14
hem@@ 14
cumulative 14
seductive 14
swamp 14
Butler 14
manned 14
Cloud 14
gin 14
toothbrush 14
pumped 14
TH 14
Kam@@ 14
windmill 14
aversion 14
athletic 14
peacekeepers 14
traveler 14
bonobos 14
classification 14
sediment 14
glacial 14
anchor 14
Ye@@ 14
hopped 14
ane@@ 14
frugal 14
Dan@@ 14
bursts 14
pub 14
omatic 14
lifelike 14
hoo 14
directive 14
tum 14
bribes 14
comple@@ 14
Jose 14
sew 14
Morgan 14
brake 14
jec@@ 14
Choir 14
digitized 14
tia 14
Tal@@ 14
fting 14
pacemaker 14
Unit 14
experimented 14
lawsuits 14
debts 14
anonymously 14
blanket 14
– 14
here@@ 14
ridicule 14
sunglasses 14
crum@@ 14
bell@@ 14
gamers 14
aquaculture 14
gays 14
Hawaiian 14
intr@@ 14
Fields 14
sofa 14
operators 14
una 14
Close 14
left-handed 14
petri 14
insula 14
cortical 14
roughness 14
flutes 14
flute 14
stun@@ 14
prop 14
foam 14
Ruby 14
diplomat 14
orangutan 14
puppy 14
heats 14
bathing 14
Joey 14
Hon@@ 14
Left 14
Linda 14
typography 14
goddess 14
inclined 14
corpus 14
omni@@ 14
pickle 14
Clicks 14
Netra 14
malignant 14
exhibits 14
hip-hop 14
Shah 14
expresses 14
Maitreya 14
MG 14
plutocrats 14
Naghma 14
papaya 14
blogosphere 14
railway 14
Al-Qaeda 14
Solly 14
black-eyed 14
Amira 14
Bilbao 14
Maltese 14
404 14
Bageye 14
Calais 14
Galvao 14
captivity 13
Islamist 13
Dubai 13
inventive 13
way@@ 13
waterways 13
-making 13
fit@@ 13
d-out 13
migrating 13
proudly 13
employing 13
advising 13
13th 13
roller 13
regulators 13
Cars 13
kilo@@ 13
rebellion 13
misses 13
Trek 13
contested 13
nian 13
wis@@ 13
interacts 13
shines 13
TEDWomen 13
bumping 13
darn 13
Mic@@ 13
tant 13
anguish 13
pis@@ 13
hypothe@@ 13
sat@@ 13
suspension 13
chew 13
bouncing 13
fluids 13
objection 13
businessman 13
efficiencies 13
Highway 13
eras 13
indirectly 13
Karl 13
Schwarzschild 13
eman@@ 13
squeezing 13
dignified 13
rationally 13
Hiroshima 13
Ran@@ 13
itating 13
Tree 13
illion 13
dwell 13
conflicting 13
cling 13
heterosexual 13
humili@@ 13
mutilated 13
mutilation 13
contemplating 13
sickness 13
unsafe 13
philanthropic 13
redefining 13
les@@ 13
uncles 13
prophet 13
imam 13
queer 13
ord 13
bian 13
Balkans 13
venue 13
paraphrase 13
Marx 13
colon@@ 13
Parents 13
spon@@ 13
whatnot 13
600,000 13
U.@@ 13
savvy 13
Specifically 13
navigating 13
obligations 13
periodic 13
morph@@ 13
whispered 13
Hippo@@ 13
built-in 13
pendulum 13
absorbs 13
whe@@ 13
Cab@@ 13
geologists 13
stabili@@ 13
soda 13
humanoid 13
competitions 13
grappling 13
R-@@ 13
Ul@@ 13
computer-generated 13
fearless 13
Baker 13
artic@@ 13
medal 13
ffy 13
rebels 13
relieved 13
swollen 13
jelly 13
pavement 13
synonymous 13
magically 13
jun@@ 13
daytime 13
sprawl 13
obsc@@ 13
flic@@ 13
resisted 13
mely 13
sacrifices 13
interven@@ 13
altering 13
modifying 13
prolific 13
collectors 13
cleaners 13
der-@@ 13
credited 13
eight-year-old 13
life-changing 13
-car@@ 13
invites 13
overcoming 13
tickle 13
communism 13
momentous 13
disclosure 13
nas@@ 13
wrestling 13
knots 13
scru@@ 13
accounted 13
ope 13
malarial 13
tes@@ 13
purpos@@ 13
stared 13
subsequently 13
tempted 13
persuaded 13
Pascal 13
clut@@ 13
prominent 13
buckets 13
scrutiny 13
traction 13
lifestyles 13
pinnacle 13
Yu@@ 13
skyscrapers 13
inspec@@ 13
pli@@ 13
gan 13
ground@@ 13
pitches 13
idi@@ 13
repetitive 13
unrelated 13
miniature 13
asting 13
gyrus 13
nam@@ 13
Twelve 13
coldest 13
shoreline 13
Any@@ 13
contamination 13
intermediate 13
phot@@ 13
commerci@@ 13
capitalists 13
stamps 13
ising 13
1948 13
rist 13
Nixon 13
presidency 13
freshman 13
downstream 13
24,000 13
nutritious 13
prescriptions 13
prescribed 13
BMI 13
inventory 13
incl@@ 13
eland 13
ply 13
rulers 13
prehistoric 13
smelled 13
fers 13
thering 13
Sor@@ 13
fridge 13
perpetu@@ 13
gress 13
jurisdiction 13
transgres@@ 13
Wy@@ 13
smash 13
backstage 13
compression 13
Eduardo 13
Miller 13
NYU 13
endor@@ 13
stripes 13
submarines 13
wholesale 13
sque@@ 13
nerds 13
Conserv@@ 13
carriers 13
TBP 13
Sun@@ 13
stacked 13
adverse 13
uptake 13
signaling 13
agnostic 13
pil@@ 13
e-like 13
responders 13
formerly 13
low-level 13
decreased 13
schemes 13
pas@@ 13
dilig@@ 13
Lear 13
Birds 13
oasis 13
yang 13
monuments 13
Vir@@ 13
proximity 13
Finding 13
neutr@@ 13
imaginable 13
requested 13
publisher 13
Cuban 13
refer@@ 13
wrapping 13
empowers 13
fisherman 13
underestimated 13
boomers 13
curl 13
swarm 13
scroll 13
depicted 13
Hunter 13
thu@@ 13
pillow 13
disgusted 13
doable 13
geographically 13
governors 13
democratization 13
Understand 13
esc@@ 13
conv@@ 13
Hence 13
community-@@ 13
considers 13
Commun@@ 13
P. 13
starve 13
tender 13
Connec@@ 13
carcasses 13
DC 13
employer 13
mandatory 13
thickness 13
slightest 13
doom 13
misconception 13
US@@ 13
violently 13
viol@@ 13
puni@@ 13
tents 13
iPhones 13
correlations 13
ethically 13
fountain 13
eminent 13
lamin@@ 13
funni@@ 13
substrate 13
Sally 13
multiplication 13
noses 13
gru@@ 13
bbing 13
autopsy 13
lone 13
Donald 13
pollinate 13
swee@@ 13
defenses 13
ucked 13
batch 13
Family 13
interrupt 13
inheritance 13
segments 13
serial 13
curate 13
Land 13
Chapter 13
deser@@ 13
kid@@ 13
Land@@ 13
Rap@@ 13
highlights 13
retali@@ 13
bathe 13
coded 13
hubs 13
Consum@@ 13
compensate 13
Sit 13
Anthony 13
nomadic 13
Sufi 13
Commons 13
mon 13
extremists 13
cel@@ 13
slaughter 13
Holland 13
virgins 13
teen@@ 13
stling 13
burglar 13
mini-@@ 13
smoothly 13
demon@@ 13
ello 13
-in 13
tains 13
tutor 13
emulate 13
reli@@ 13
eves 13
seas@@ 13
advised 13
bedtime 13
elu@@ 13
psychologically 13
cali@@ 13
istan 13
tot@@ 13
benchmark 13
Hom@@ 13
monolithic 13
whispering 13
Couldn 13
denominator 13
intertwined 13
addi@@ 13
ku@@ 13
coup 13
thered 13
IS@@ 13
P.@@ 13
Concer@@ 13
schizophrenic 13
demons 13
Bon@@ 13
donating 13
ko@@ 13
yell 13
Beauty 13
hunted 13
Ryan 13
Gene@@ 13
opy 13
exaggeration 13
ackers 13
Lost 13
deb@@ 13
Shabaab 13
3,500 13
taxpayers 13
cing 13
Sarajevo 13
high-level 13
recep@@ 13
buzz@@ 13
thunder 13
risked 13
Nor 13
stripping 13
salvation 13
coalition 13
enjoyment 13
pancreas 13
decorative 13
crafts 13
chop@@ 13
earth@@ 13
crafted 13
hominid 13
vre 13
Justin 13
ratios 13
ample 13
2D 13
limitless 13
year@@ 13
deposit 13
underst@@ 13
metro 13
cliche 13
Ji@@ 13
sha 13
orbital 13
PET 13
deposited 13
orists 13
marvel 13
gland 13
nanoscale 13
pick@@ 13
py@@ 13
Cool 13
orphan 13
nano 13
Iowa 13
basin 13
canal 13
rivals 13
Buildings 13
aster@@ 13
tyranny 13
lowering 13
IKEA 13
5th 13
possessions 13
Hillis 13
Martian 13
solar-powered 13
pores 13
Huge 13
iles 13
Somewhere 13
Mohamed 13
1947 13
transcendent 13
Glenn 13
faithful 13
campfire 13
embarked 13
cargo 13
anth@@ 13
Band-Aid 13
hospit@@ 13
possum 13
pulmonary 13
Hyper@@ 13
Forbes 13
fragility 13
grips 13
stark 13
truc@@ 13
attributed 13
tas@@ 13
pianist 13
rooftops 13
stained 13
bastar@@ 13
NA 13
1962 13
vari@@ 13
tether 13
strap 13
floats 13
terabytes 13
illumination 13
deep-sea 13
sub 13
tweak 13
1972 13
wellness 13
breathed 13
goofy 13
nation@@ 13
icity 13
greet 13
microorganisms 13
ventilated 13
outskirts 13
yan 13
Hell 13
league 13
booking 13
embed 13
exten@@ 13
amplify 13
mash@@ 13
stall 13
pajamas 13
ax 13
and-a-half 13
sponsors 13
speech@@ 13
therapeutic 13
editorial 13
Langley 13
magne@@ 13
Flight 13
idealistic 13
mastered 13
forums 13
til 13
overfishing 13
violate 13
mmm 13
housework 13
Had@@ 13
plausible 13
Growth 13
Box 13
key@@ 13
Infinity 13
chased 13
fare 13
forged 13
clinging 13
filtered 13
Florence 13
correlate 13
brain-@@ 13
Samantha 13
cod 13
alg@@ 13
navi@@ 13
portrayed 13
straw 13
prece@@ 13
bec@@ 13
PS 13
predominantly 13
Kind 13
Poli@@ 13
ticians 13
penetration 13
modern-day 13
undergoing 13
raining 13
tectonic 13
highlands 13
fis@@ 13
reunited 13
greeting 13
eternity 13
lor@@ 13
wilderness 13
offend 13
favela 13
Julius 13
South@@ 13
hump 13
dealers 13
monumental 13
venues 13
bombings 13
litter 13
haz@@ 13
hurdle 13
indifferent 13
adaptability 13
arousal 13
Nat@@ 13
admiration 13
Motor 13
pickup 13
1,800 13
cheering 13
S-@@ 13
pharmac@@ 13
eg@@ 13
crypto@@ 13
outreach 13
initiate 13
Sem@@ 13
Patent 13
Student 13
mentioning 13
fing 13
Sergey 13
epit@@ 13
rampant 13
stag@@ 13
teapot 13
screamed 13
millennials 13
ool 13
anch@@ 13
ticity 13
sandwiches 13
stickers 13
elic@@ 13
enger 13
Nope 13
scanners 13
mock 13
goo@@ 13
psychotherapy 13
therapists 13
boiled 13
advocating 13
biking 13
1.6 13
Heal@@ 13
Leadership 13
Parks 13
suc@@ 13
Indiana 13
és 13
analyst 13
stats 13
abuses 13
oversight 13
Brother 13
retinal 13
speculative 13
hop@@ 13
roll@@ 13
sweat@@ 13
set@@ 13
aes@@ 13
thetically 13
next-@@ 13
addict 13
filmmaking 13
replica 13
chem@@ 13
UNICEF 13
commemor@@ 13
Thula 13
NT 13
Ly@@ 13
vely 13
revolutionized 13
Saf@@ 13
nation-states 13
Mubarak 13
Yan@@ 13
replicating 13
travelers 13
chi 13
long-lived 13
glove 13
non-state 13
peacebuilding 13
ensuring 13
thermostat 13
Field 13
ugg@@ 13
traffickers 13
pirated 13
leather@@ 13
artifact 13
nab@@ 13
life-saving 13
Mul@@ 13
Transparency 13
illuminating 13
pipelines 13
1977 13
Cra@@ 13
palms 13
mitigate 13
Australians 13
cartoonists 13
Up@@ 13
replication 13
specially 13
reprogram 13
sage 13
grapes 13
levit@@ 13
hack@@ 13
complexities 13
addy 13
biop@@ 13
Mauritius 13
chemo 13
Utah 13
eur 13
Mot@@ 13
progressed 13
flop 13
dragline 13
erotic 13
resourceful 13
puri@@ 13
Kiva 13
Haven 13
analyses 13
Harbor 13
Transition 13
Team 13
13,000 13
fru@@ 13
onco@@ 13
Accenture 13
Uber 13
remittances 13
Domin@@ 13
provinces 13
digit 13
accelerator 13
Grey 13
bet@@ 13
loudly 13
dation 13
ice-@@ 13
Quantum 13
biomolecules 13
enlightenment 13
grids 13
inee 13
daring 13
Buffett 13
sanctuary 13
Seriously 13
Law@@ 13
cellulose 13
optim@@ 13
evaporate 13
Hyderabad 13
scooped 13
spectacle 13
slippery 13
evoke 13
Bin 13
dict 13
intric@@ 13
assing 13
veiled 13
groom 13
imperi@@ 13
Asi@@ 13
ST 13
equi@@ 13
Charter 13
Casey 13
sabbatical 13
learner 13
invariably 13
MBI 13
menstrual 13
var@@ 13
chk 13
uni@@ 13
staged 13
sta 13
postcard 13
Cochrane 13
baker 13
CPU 13
vie 13
mosquitoes 13
tapes 13
1908 13
kier 13
Neuro@@ 13
McGowan 13
Bureau 13
plumbing 13
Mathematica 13
Scoop 13
NBA 13
polluted 13
waterborne 13
Da 13
Norse 13
cymatics 13
Budrus 13
vividly 13
Riverside 13
decisive 13
SR 13
B-@@ 13
Brigades 13
diagnosing 13
KKM 13
Browne 13
recur@@ 13
Jenipher 13
Kanner 13
Odysseus 13
GreenLab 13
calving 13
INCRA 13
deficits 12
interstate 12
tance 12
Plus 12
Committee 12
Talking 12
dominating 12
radic@@ 12
sor 12
seldom 12
rounds 12
Chan@@ 12
juxtaposition 12
gym 12
weights 12
theaters 12
distinguished 12
decorated 12
marble 12
hospitable 12
ateau 12
coo@@ 12
Happiness 12
scratching 12
vaccinated 12
seless 12
1.7 12
billion-dollar 12
ected 12
ags 12
recreational 12
appointment 12
then@@ 12
allocate 12
Dep@@ 12
Water@@ 12
celestial 12
self-organization 12
remake 12
Bloomberg 12
data-driven 12
gravel 12
Buenos 12
Aires 12
ridden 12
ity-@@ 12
movable 12
supernova 12
maj@@ 12
aggregates 12
hunter 12
Heather 12
substances 12
regi@@ 12
plumes 12
lipid 12
glo@@ 12
fertilization 12
eaters 12
cascade 12
foolish 12
tax@@ 12
wealthier 12
Open@@ 12
uration 12
12-@@ 12
removes 12
graduating 12
conjunction 12
destroys 12
economical 12
liability 12
cooks 12
Ph.@@ 12
ashing 12
draw@@ 12
tripled 12
undo 12
wirelessly 12
Kay 12
weaknesses 12
Robin 12
peripheral 12
Jew 12
fond 12
pse 12
lation 12
clocks 12
confer@@ 12
Doc 12
Grove 12
collaborated 12
ince 12
cheeks 12
striving 12
Ideas 12
torso 12
ordin@@ 12
modernity 12
Slo@@ 12
Bos@@ 12
mobilized 12
humbled 12
marches 12
marital 12
beers 12
Changing 12
emailing 12
Thanksgiving 12
iously 12
child-@@ 12
childcare 12
Papua 12
self-confidence 12
nostalgia 12
depres@@ 12
Self-@@ 12
swings 12
igning 12
IM@@ 12
Tech 12
prosthesis 12
hertz 12
Challenge 12
handwriting 12
eureka 12
black-and-white 12
shuff@@ 12
Instagram 12
solvers 12
rooster 12
-A-@@ 12
crappy 12
-by-@@ 12
template 12
cia 12
bear@@ 12
walker 12
deserved 12
Som@@ 12
Tut@@ 12
si 12
widow 12
Soldiers 12
inherit 12
ripe 12
boundless 12
Thai 12
monks 12
Pepsi 12
barefoot 12
Fuller 12
there@@ 12
flashes 12
kie 12
uous 12
tasting 12
in-the-@@ 12
scored 12
curing 12
Styrofoam 12
cools 12
polymers 12
turbulence 12
slap 12
ple-@@ 12
appealed 12
wig@@ 12
groundbreaking 12
runway 12
fearful 12
weight@@ 12
sociologists 12
lords 12
highs 12
overwhelm 12
objectively 12
mos@@ 12
smiled 12
deduc@@ 12
Copernican 12
Besides 12
continental 12
illustrated 12
query 12
seamlessly 12
updated 12
indic@@ 12
-and-a-half 12
West@@ 12
redemption 12
reservoir 12
relocated 12
refin@@ 12
Shenzhen 12
collisions 12
bler 12
palpable 12
influencing 12
hallucination 12
sane 12
Bonnet 12
inferior 12
Fold 12
tles 12
kicks 12
fulfillment 12
fted 12
contaminate 12
buyers 12
favorable 12
Medicare 12
ements 12
snu@@ 12
Studies 12
ologically 12
Patients 12
pharmacy 12
fiercely 12
lest 12
Missouri 12
memorize 12
holidays 12
veness 12
desks 12
fro@@ 12
ethos 12
Kin@@ 12
spark@@ 12
1939 12
committing 12
obs@@ 12
Silence 12
Philippe 12
spra@@ 12
contractors 12
performs 12
dimension@@ 12
nation-state 12
torial 12
loid 12
tuition 12
deprived 12
placement 12
Tex@@ 12
addicts 12
vertebrate 12
eel 12
recl@@ 12
aked 12
visor 12
Cornell 12
teamed 12
claw 12
Vincent 12
interconnectedness 12
Twain 12
elec@@ 12
Laura 12
imitating 12
month-old 12
doorstep 12
home-@@ 12
K-@@ 12
all-time 12
Plan 12
inland 12
brightness 12
uncommon 12
Prozac 12
tization 12
akin 12
antidepressants 12
Erik 12
freed 12
ryp@@ 12
boredom 12
con 12
bore 12
palace 12
ished 12
cha 12
empha@@ 12
compositions 12
textures 12
composers 12
Leader 12
chal@@ 12
tually 12
Non@@ 12
resign 12
camping 12
domination 12
essions 12
O.K. 12
Barcelona 12
coolest 12
handled 12
occupations 12
serif 12
IT@@ 12
installing 12
ali 12
damages 12
overestimate 12
cer 12
gent@@ 12
tify 12
wildly 12
cloudy 12
numerical 12
sincere 12
Chr@@ 12
unpack 12
tish 12
Estonia 12
geneticist 12
fossilized 12
usions 12
dest@@ 12
Cri@@ 12
mes 12
predictability 12
Agriculture 12
macro-@@ 12
prosecutors 12
Amendment 12
lumin@@ 12
uss 12
scraping 12
Partici@@ 12
yn 12
encouragement 12
charitable 12
napkin 12
module 12
ppy 12
neatly 12
flux 12
Has@@ 12
se-@@ 12
Wind 12
whichever 12
voluntarily 12
paperwork 12
domin@@ 12
otype 12
jerk 12
LOL 12
yo 12
constructions 12
Deah 12
ph 12
boy@@ 12
UN@@ 12
good@@ 12
fused 12
ato 12
mind@@ 12
bloom 12
enting 12
bloodline 12
imprisonment 12
sporting 12
Fol@@ 12
ss 12
enforce 12
org@@ 12
overdose 12
Plan@@ 12
Stalin 12
Wrong 12
High@@ 12
logarithmic 12
reversal 12
clan 12
homeland 12
whistling 12
evangelical 12
silks 12
news@@ 12
frustrations 12
Ibrahim 12
lobes 12
achi@@ 12
metaphorical 12
phantom 12
lap@@ 12
ski@@ 12
reflex 12
draining 12
pun 12
orgasm 12
Italians 12
-hour 12
weep 12
cited 12
rotated 12
odor@@ 12
Equ@@ 12
Angola 12
sewers 12
investigated 12
territories 12
vet@@ 12
sway 12
safest 12
horrifying 12
brittle 12
Igbo 12
mut@@ 12
eck 12
poised 12
sni@@ 12
intern@@ 12
Jamie 12
hn 12
Ide@@ 12
granddaughter 12
ffer 12
cheer@@ 12
grasslands 12
evenly 12
clones 12
anza 12
nesting 12
McCain 12
Poverty 12
prosecutor 12
ominous 12
ammunition 12
suspend 12
camp@@ 12
Ot@@ 12
17,000 12
constituency 12
insisting 12
superheroes 12
Making 12
wig 12
retention 12
artworks 12
jewel 12
Kid@@ 12
perceiving 12
Universal 12
rier 12
crutches 12
reconstructing 12
detached 12
qualify 12
soul@@ 12
reti@@ 12
tore 12
orthopedic 12
70-@@ 12
arable 12
certi@@ 12
blow@@ 12
torch 12
paycheck 12
paints 12
bathed 12
Ezra 12
arranging 12
instantaneously 12
excep@@ 12
chefs 12
eyebrows 12
biography 12
infused 12
thereafter 12
healed 12
thinner 12
Ron@@ 12
dale 12
prairie 12
Os 12
spac@@ 12
mined 12
ascent 12
Drake 12
Species 12
augment 12
Capitol 12
immuno@@ 12
CG 12
centrifuge 12
spins 12
Cent@@ 12
bipolar 12
NIH 12
I.@@ 12
long-distance 12
Gould 12
believers 12
trem@@ 12
ections 12
psy@@ 12
age@@ 12
pilgrimage 12
greeted 12
grind 12
monastery 12
Furthermore 12
80-@@ 12
gly@@ 12
commenting 12
purchases 12
year-@@ 12
Karachi 12
you@@ 12
dealer 12
originals 12
carrots 12
rests 12
delusion 12
diabetic 12
microseconds 12
ght-@@ 12
iest 12
transi@@ 12
gras@@ 12
piss 12
fuck 12
onial 12
rifle 12
advancement 12
ligh@@ 12
heavier 12
fantas@@ 12
high-definition 12
bombarded 12
Sky@@ 12
perseverance 12
sail@@ 12
Nevertheless 12
RO@@ 12
delivers 12
dim 12
disadvantage 12
simul@@ 12
white@@ 12
Upon 12
show@@ 12
Immediately 12
contra@@ 12
bakery 12
spit 12
Arch@@ 12
.0@@ 12
Democrat 12
ords 12
.D. 12
USB 12
conversion 12
Thursday 12
billionth 12
-cor@@ 12
Walker 12
iner 12
Viking 12
gasses 12
aer@@ 12
utopian 12
sk 12
0.2 12
admir@@ 12
estimation 12
wasteful 12
rained 12
maths 12
endure 12
high-performance 12
liars 12
chat@@ 12
aser 12
Crazy 12
masculinity 12
Impossible 12
mock@@ 12
quieter 12
usc@@ 12
unheard 12
hints 12
amusement 12
traced 12
out-of-@@ 12
smack 12
doll 12
curable 12
ation-@@ 12
expo 12
financed 12
balconies 12
balcony 12
dyslexic 12
crease 12
Parker 12
updates 12
northeastern 12
aquarium 12
oysters 12
Han@@ 12
noon 12
indirect 12
monopoly 12
reusable 12
space@@ 12
cowboy 12
Tw@@ 12
Donnell 12
Woo@@ 12
buttermilk 12
skim 12
Morocco 12
micros@@ 12
memori@@ 12
Entropica 12
applicable 12
undertaking 12
hottest 12
Nuclear 12
appe@@ 12
warheads 12
enhances 12
diagrams 12
supporters 12
reconnect 12
dilemmas 12
protections 12
entially 12
cation 12
blunt 12
toughness 12
bodied 12
econ@@ 12
plantations 12
eyesight 12
Vision 12
normality 12
acknowledging 12
squatter 12
squat@@ 12
anew 12
commu@@ 12
Columbus 12
quad@@ 12
carving 12
reas@@ 12
sweating 12
inanimate 12
superpowers 12
exquisitely 12
tragedies 12
traumatized 12
mand@@ 12
cir@@ 12
Nav@@ 12
annoyed 12
Us 12
Fam@@ 12
prohibition 12
fragrance 12
Lau@@ 12
smelling 12
3-@@ 12
oscope 12
off-the-shelf 12
coumarin 12
consult 12
playwright 12
business@@ 12
tenths 12
nau@@ 12
ght 12
kicking 12
tionists 12
hang@@ 12
Beverly 12
for-@@ 12
titude 12
twists 12
crushing 12
chicks 12
hatch 12
genous 12
undermining 12
exchanged 12
fin 12
concentrating 12
assembling 12
pret@@ 12
Morning 12
suppression 12
annihil@@ 12
punched 12
genit@@ 12
arti@@ 12
translations 12
contributors 12
Dorothy 12
hide@@ 12
denti@@ 12
gee 12
ually 12
4,@@ 12
ee@@ 12
fier 12
ship@@ 12
adop@@ 12
Tat@@ 12
transcri@@ 12
violations 12
probable 12
hashtag 12
stewardship 12
graves 12
colonization 12
plac@@ 12
spherical 12
Judy 12
Tru@@ 12
hail 12
pens 12
Tech@@ 12
intersections 12
Yemeni 12
corner@@ 12
timely 12
positively 12
Kuwait 12
self-c@@ 12
osyn@@ 12
dread 12
miner 12
bake 12
Ranger 12
spotlight 12
hype 12
Mess@@ 12
outbreaks 12
ont 12
cave@@ 12
goggles 12
bate 12
metic 12
Sus@@ 12
storytellers 12
dissection 12
peeling 12
Picture 12
disclose 12
subjected 12
dissent 12
hangs 12
Coun@@ 12
extra-@@ 12
Administration 12
persuasive 12
pandemics 12
garment 12
1850 12
intu@@ 12
disparity 12
pac@@ 12
Simply 12
splitting 12
possess 12
droplet 12
Pop 12
impatient 12
adviser 12
ake 12
plum@@ 12
euros 12
Institu@@ 12
Elvis 12
Sao 12
optimization 12
dence 12
Taking 12
redundant 12
Giant 12
27@@ 12
smu@@ 12
phytoplankton 12
Lea@@ 12
comparisons 12
itors 12
oddly 12
outline 12
simultaneous 12
crooked 12
-century 12
socialism 12
aying 12
cathe@@ 12
Strange 12
pulsing 12
gger 12
grou@@ 12
kit@@ 12
undersea 12
rin@@ 12
240 12
less@@ 12
ron@@ 12
imi 12
stranded 12
brilliantly 12
ill-@@ 12
delegation 12
builders 12
weigh@@ 12
mel 12
Interface 12
Skycar 12
Bene@@ 12
beat@@ 12
mony 12
ough 12
atom@@ 12
removal 12
lacked 12
beaver 12
disputes 12
curvature 12
defenders 12
scooter 12
Tab@@ 12
Final 12
ddy 12
translators 12
sentimental 12
Holmes 12
deep@@ 12
neurologic 12
approximation 12
clum@@ 12
bag@@ 12
ceramics 12
galvan@@ 12
interacted 12
railways 12
mechan@@ 12
cow@@ 12
Ferr@@ 12
screws 12
Esther 12
Authority 12
numer@@ 12
Horse 12
Eff@@ 12
acoustics 12
compost 12
mosaic 12
pediatrician 12
embroidery 12
monetary 12
differentiated 12
pasting 12
Swedes 12
fuss 12
plunged 12
skeptics 12
titanium 12
Leave 12
sels 12
quorum 12
Buddhism 12
priesthood 12
rationality 12
termites 12
lot@@ 12
bribery 12
Farmer 12
Ivory 12
Critic 12
moist 12
sculptural 12
Diplomat 12
Manchester 12
Lunch 12
positioning 12
accoun@@ 12
heed 12
Latino 12
Dolly 12
blended 12
Cen@@ 12
NO@@ 12
Alhambra 12
Redwoods 12
d-like 12
astrolabe 12
RHex 12
kh 12
seatbelts 12
seafood 12
Play-Doh 12
Babies 12
cutter 12
reunion 12
ranch 12
digestive 12
beep 12
grants 12
Chernobyl 12
fluent 12
stent 12
Piano 12
Trinidad 12
seizures 12
multicultural 12
hyacinth 12
synapse 12
doodle 12
poachers 12
cemeteries 12
skydiving 12
Brent 12
puffs 12
Mozambique 12
questionnaire 12
Hole 12
Gehry 12
malarious 12
monarchs 12
Shirley 12
Dragon 12
Cyril 12
mast 12
YR 12
Capital 12
Chariot 12
Stroman 12
Rockett 12
Shadi 12
Amel 12
pigmented 12
one-two-three-four 12
role-play 12
cross-border 11
RC 11
dictate 11
salute 11
illustrations 11
toolbox 11
45-@@ 11
Makoko 11
peering 11
rigged 11
cafes 11
rectangular 11
disadvantaged 11
inations 11
Knowledge 11
pins 11
carts 11
Melinda 11
vaccin@@ 11
4th 11
fatigue 11
marketers 11
atable 11
nick@@ 11
stove 11
watt 11
vapor@@ 11
Mechanical 11
plur@@ 11
7th 11
fronts 11
riders 11
messenger 11
3.3 11
explodes 11
synthesized 11
Sagan 11
conce@@ 11
eco-@@ 11
U.S.-@@ 11
high-end 11
mangrove 11
Corexit 11
chrom@@ 11
hale 11
wer@@ 11
dine 11
chill 11
kingly 11
chairman 11
Guys 11
outlets 11
78 11
chimp 11
sobering 11
orangutans 11
dangerously 11
rip@@ 11
Dance 11
brainstorming 11
drain 11
salaries 11
persuasion 11
adore 11
Pass 11
Easy 11
transferring 11
-cost 11
rudimentary 11
hardworking 11
sian 11
Galaxy 11
antic@@ 11
trails 11
billion-@@ 11
disturbance 11
sentient 11
clearance 11
portions 11
lef@@ 11
raz@@ 11
panicked 11
syringes 11
exceeds 11
practitioners 11
62 11
ggers 11
oppressed 11
leap@@ 11
invo@@ 11
breeze 11
nationalism 11
opposing 11
righteous 11
Malcolm 11
parades 11
Michelle 11
redefined 11
mo 11
them@@ 11
ho 11
peer-reviewed 11
presumption 11
dads 11
anxi@@ 11
tful 11
Experim@@ 11
bushes 11
Plat@@ 11
tactile 11
JPL 11
Multi@@ 11
entine 11
searches 11
Dennis 11
trophy 11
tial 11
unites 11
Cer@@ 11
donkey 11
Pitt 11
But@@ 11
toler@@ 11
Warner 11
repu@@ 11
nighttime 11
chas@@ 11
wrinkles 11
uncharted 11
kman 11
coinci@@ 11
spouses 11
elegantly 11
Map@@ 11
patriarchal 11
kisses 11
furious 11
51 11
collateral 11
umin@@ 11
spired 11
water-@@ 11
Son 11
hammer@@ 11
sanctity 11
dice 11
microcredit 11
lend 11
residence 11
Buckminster 11
erous 11
wash@@ 11
pledged 11
temp@@ 11
Developing 11
woo@@ 11
preferably 11
assem@@ 11
rudder 11
lateral 11
buyer 11
teammates 11
prosthetics 11
banal 11
stil@@ 11
age-old 11
Nicole 11
swi@@ 11
Iron 11
amidst 11
collapsing 11
prostitutes 11
conveniently 11
laundering 11
dubious 11
Colombian 11
ecstasy 11
sentiments 11
chec@@ 11
confirmation 11
stellar 11
steadily 11
quotation 11
popularity 11
Elon 11
Musk 11
reliability 11
head-@@ 11
contemplate 11
Wisconsin 11
uniforms 11
breathtaking 11
cup@@ 11
explosive 11
world-changing 11
max 11
Future 11
oblivious 11
fMRI 11
correction 11
Swe@@ 11
sinking 11
molded 11
phthalates 11
bonded 11
backbone 11
pollute 11
wraps 11
inhal@@ 11
harmed 11
degra@@ 11
demise 11
75,000 11
doc 11
eses 11
bureauc@@ 11
cise 11
malls 11
coaches 11
UC@@ 11
rocking 11
comedians 11
Designers 11
200-@@ 11
kinda 11
Anders 11
murderer 11
pissed 11
oters 11
tric@@ 11
Thirty-@@ 11
Cou@@ 11
slaughtered 11
occurrence 11
word@@ 11
verbally 11
arenas 11
pellets 11
loo@@ 11
kout 11
inequalities 11
separates 11
trans-@@ 11
retaining 11
whack 11
versities 11
2025 11
expenses 11
scholarships 11
ich@@ 11
rations 11
discre@@ 11
tely 11
haw@@ 11
ce-@@ 11
Schul@@ 11
HG 11
take@@ 11
missive 11
1912 11
separ@@ 11
nutshell 11
teasing 11
1953 11
800,000 11
outsider 11
Kno@@ 11
1800s 11
1900s 11
preconceived 11
gery 11
reversing 11
evils 11
Mont@@ 11
ag 11
lau@@ 11
Fran@@ 11
Met@@ 11
sket@@ 11
Aw@@ 11
suppressed 11
devils 11
aspiring 11
juxtapos@@ 11
inflection 11
Cage 11
contracting 11
lentils 11
instruc@@ 11
dusk 11
Il 11
marking 11
wishing 11
Soviets 11
opponent 11
protesting 11
resigned 11
bravery 11
penetr@@ 11
Rock 11
alternate 11
McLuhan 11
Environment 11
open@@ 11
orphans 11
upbringing 11
cles 11
alle@@ 11
alleviate 11
gadget 11
booming 11
Gon@@ 11
trainer 11
attendant 11
leness 11
self-expression 11
Feel 11
Andr@@ 11
bully 11
Budapest 11
Lat@@ 11
Mali 11
tedness 11
mum@@ 11
milli@@ 11
Metropolitan 11
Due 11
legisl@@ 11
30-year 11
privatization 11
clever@@ 11
attachment 11
Ce@@ 11
illegally 11
Produc@@ 11
Pierre 11
needless 11
Gard@@ 11
Victoria 11
Invest 11
screen@@ 11
DVDs 11
Clo@@ 11
anks 11
Rober@@ 11
rel 11
brow 11
intellectually 11
tionary 11
addictive 11
pancreatic 11
demor@@ 11
pests 11
Buff@@ 11
8.@@ 11
lou@@ 11
Noise 11
stic 11
Carlos 11
Nazis 11
mother-in-law 11
otypes 11
cholesterol 11
bios@@ 11
los@@ 11
Ath@@ 11
CL 11
consultants 11
severity 11
apologi@@ 11
approve 11
hic@@ 11
Lucy 11
elegance 11
A.D. 11
dial@@ 11
fan@@ 11
mly 11
murders 11
visibly 11
bombar@@ 11
ally@@ 11
humanizing 11
grape 11
fluke 11
ocul@@ 11
insecticides 11
circul@@ 11
blooms 11
Spi@@ 11
vac@@ 11
footnote 11
tility 11
nap 11
virulence 11
genoci@@ 11
eldest 11
inian 11
disappointing 11
adap@@ 11
Encyclopedia 11
emp@@ 11
hostage 11
tification 11
five-year 11
simpli@@ 11
respecting 11
acle 11
cruelty 11
non-governmental 11
65,000 11
barbaric 11
anarchy 11
Leviathan 11
sentiment 11
Pay@@ 11
anism 11
ationally 11
swore 11
jargon 11
lav@@ 11
recreation 11
sound@@ 11
costumes 11
intimidating 11
Blackberry 11
fet@@ 11
26@@ 11
ddled 11
dissolved 11
blending 11
Seymour 11
retrospect 11
Gaddafi 11
consumerism 11
renaissance 11
ema 11
Ivy 11
rehabil@@ 11
buzz 11
ivory 11
Panel 11
Corruption 11
vacations 11
wandered 11
extensively 11
redesigning 11
adjusted 11
immoral 11
Two-@@ 11
mediocre 11
Good@@ 11
Yoruba 11
Cameroon 11
otherness 11
Pres@@ 11
Skid 11
Walt 11
essly 11
collector 11
big-@@ 11
Cin@@ 11
stupi@@ 11
closes 11
Eleven 11
craz@@ 11
wolf 11
icists 11
Alberto 11
dor 11
1981 11
Karen 11
esa 11
value-@@ 11
ruption 11
div@@ 11
sentencing 11
statisticians 11
tat@@ 11
pier@@ 11
baked 11
vocational 11
gloomy 11
tackled 11
emphasized 11
repres@@ 11
warned 11
distill 11
tists 11
hman 11
Gogh 11
beh@@ 11
river@@ 11
melodies 11
chords 11
Sy@@ 11
LC 11
Researchers 11
drive-@@ 11
Walking 11
rebuilt 11
vener@@ 11
Read 11
averse 11
Meaning 11
traders 11
clamation 11
disseminate 11
recurrent 11
anni@@ 11
fel@@ 11
audacity 11
ab 11
Kol@@ 11
orbits 11
feat 11
mini 11
ector 11
conden@@ 11
sation 11
barbecue 11
undergo 11
paved 11
fish@@ 11
es-@@ 11
Kazakhstan 11
fundamentals 11
ecologically 11
bioenergy 11
stly 11
anticipating 11
dents 11
assay 11
Joan 11
aph@@ 11
thankful 11
incorporated 11
dragon 11
brow@@ 11
million-dollar 11
rival 11
paper@@ 11
regards 11
Ani@@ 11
G.@@ 11
Hol@@ 11
hypo@@ 11
Scrip@@ 11
650 11
insidious 11
erce 11
crowdsourcing 11
confess 11
gators 11
stimuli 11
roman@@ 11
possessed 11
Apparently 11
repaired 11
JL 11
bullshit 11
echoes 11
icha 11
Scre@@ 11
cros@@ 11
Towers 11
supernovae 11
azz@@ 11
aboard 11
Week 11
aco 11
Mach@@ 11
pointer 11
Song 11
Jarrett 11
tun@@ 11
marginal 11
Heroes 11
Vivian 11
Declaration 11
monarchy 11
fostered 11
loyal 11
decreases 11
liness 11
humorous 11
filtering 11
Madison 11
hopelessness 11
outstanding 11
iterations 11
recommendations 11
Increasingly 11
inci@@ 11
nanometers 11
NN 11
landers 11
reshape 11
opium 11
plight 11
Zoe 11
applaud 11
Diam@@ 11
complaint 11
comforting 11
myriad 11
Napoleon 11
recyclable 11
imminent 11
ripping 11
decep@@ 11
progressing 11
motive 11
plic@@ 11
0.1 11
wanna 11
overlook 11
etal 11
cherished 11
distortion 11
dislike 11
legislative 11
District 11
Hispanic 11
defl@@ 11
doll@@ 11
ure-@@ 11
zhou 11
crack@@ 11
bargain 11
tremor 11
shu@@ 11
showers 11
perfor@@ 11
ramp 11
polling 11
depletion 11
sponges 11
autumn 11
phy@@ 11
offset 11
utilities 11
punchline 11
ward@@ 11
Cash 11
solic@@ 11
T.V. 11
baking 11
Rock@@ 11
speculate 11
tedious 11
privately 11
contractor 11
initi@@ 11
escence 11
deton@@ 11
crane 11
3.7 11
teeming 11
Typically 11
spacing 11
cious 11
hr@@ 11
dissonance 11
friend@@ 11
beg 11
juicy 11
bal 11
hiking 11
tinker 11
Fort 11
Frankly 11
probation 11
tedly 11
bundle 11
plaster 11
Turkish 11
De 11
participant 11
incre@@ 11
Owens 11
fran@@ 11
amygdala 11
irrespective 11
shaky 11
ough@@ 11
sibly 11
reliably 11
outsourcing 11
Mun@@ 11
.C. 11
ograph 11
carcinogens 11
cryst@@ 11
JK 11
positioned 11
defen@@ 11
Whitney 11
care@@ 11
northwest 11
old-growth 11
implementing 11
Pool 11
10-year 11
Granny 11
poisoned 11
cloud@@ 11
fox 11
configurations 11
skinny 11
Disease 11
punk 11
signi@@ 11
shoved 11
Mam@@ 11
smelly 11
Alliance 11
runners 11
fear@@ 11
need@@ 11
Tyler 11
single-celled 11
bel 11
Self 11
one-to-one 11
Adams 11
SA 11
vase 11
Secret 11
calf 11
vir@@ 11
eries 11
skirt 11
Princess 11
villain 11
nudge 11
smashed 11
thorough 11
chman 11
advisers 11
Jurassic 11
sargassum 11
metry 11
activates 11
requ@@ 11
ceremonies 11
subtly 11
starlight 11
tual 11
barcode 11
betrayal 11
cyberattacks 11
impoverished 11
electr@@ 11
ponds 11
far-fetched 11
rocky 11
Fermi 11
vom@@ 11
tainment 11
fab@@ 11
Hannah 11
mentoring 11
beads 11
angers 11
Stuart 11
dan 11
6-@@ 11
Valentine 11
efully 11
critique 11
thrill 11
Imag@@ 11
lock@@ 11
peacefully 11
admittedly 11
cam 11
Isabel 11
touch@@ 11
Euc@@ 11
Tunisian 11
Senator 11
censor 11
vertebrates 11
submerged 11
webs 11
hijacked 11
out-of-the-box 11
misused 11
plugging 11
wiping 11
Sonny 11
sergeant 11
oscill@@ 11
promotes 11
Mass 11
middle-@@ 11
hangers 11
offs 11
Pharaoh 11
Sym@@ 11
lem@@ 11
arity 11
wiser 11
Ay@@ 11
runaway 11
Drug 11
bankrupt 11
substitu@@ 11
tari@@ 11
scrap 11
writings 11
consist 11
Stories 11
overlapping 11
favors 11
individu@@ 11
hyena 11
ographer 11
paused 11
botanical 11
manually 11
prostheses 11
lemon 11
potassium 11
pups 11
Literally 11
aerodynamic 11
ATM 11
exchanging 11
Yep 11
MO 11
Ralph 11
infr@@ 11
Eames 11
amplified 11
viewpoint 11
insurgency 11
ben@@ 11
foil 11
oted 11
mot@@ 11
Direc@@ 11
seizure 11
lun@@ 11
Evi@@ 11
Fur@@ 11
breathes 11
Glob@@ 11
utilitarian 11
kne@@ 11
feder@@ 11
solidi@@ 11
hominids 11
blat@@ 11
guesswork 11
proof@@ 11
locker 11
mosques 11
coil 11
world-@@ 11
predispos@@ 11
baff@@ 11
stle 11
tram@@ 11
phil@@ 11
sensibility 11
hybrids 11
Program@@ 11
spaghetti 11
Allende 11
Moderator 11
microscopes 11
bonding 11
hunch 11
Jazz 11
microfinance 11
shove 11
AA 11
Ball@@ 11
Hei@@ 11
Wonderful 11
icial 11
Are@@ 11
1963 11
waiter 11
ic-@@ 11
jaws 11
lization 11
Dow 11
stealth 11
lays 11
tadpole 11
best@@ 11
Gowanus 11
menting 11
PCBs 11
vities 11
announ@@ 11
DD 11
abstr@@ 11
Fab 11
Satan 11
3.@@ 11
ESG 11
caus@@ 11
esta 11
Breton 11
warmed 11
ennial 11
Viagra 11
acious 11
crammed 11
academy 11
Vic@@ 11
kilo 11
proscenium 11
Stevenson 11
spans 11
dum 11
immunization 11
bubbling 11
portra@@ 11
sponge 11
humiliated 11
ularity 11
dwar@@ 11
ü@@ 11
takers 11
indulge 11
clear-c@@ 11
scr@@ 11
vores 11
biopsy 11
unison 11
autos 11
per-@@ 11
decay 11
RW 11
Jr 11
pearl 11
Eu@@ 11
aliz@@ 11
desp@@ 11
recurring 11
taxpayer 11
contradictory 11
penny 11
dinners 11
mistrust 11
detention 11
Serious 11
Eng@@ 11
videotape 11
sediments 11
flakes 11
edly 11
fertilized 11
Glacier 11
involuntary 11
Coach 11
SC 11
wavelengths 11
Twit@@ 11
nursery 11
LOLcats 11
dieting 11
plasticity 11
parole 11
enberg 11
anna 11
rods 11
piloted 11
greedy 11
archaeological 11
Sat@@ 11
Riley 11
plutonium 11
brainstorms 11
Phil@@ 11
berries 11
mornings 11
communicated 11
armpits 11
rever@@ 11
losers 11
tosses 11
fetuses 11
valry 11
Franc@@ 11
molten 11
Who@@ 11
biomimicry 11
aroused 11
cross-section 11
Conor 11
synagogue 11
memoir 11
incompatible 11
sprou@@ 11
orph@@ 11
Min 11
port@@ 11
atheists 11
bras 11
Simpson 11
teer 11
limbic 11
energy-efficient 11
attracts 11
Tel 11
Aviv 11
catalo@@ 11
Worldchanging 11
snuck 11
Japanese-@@ 11
Judge 11
harm@@ 11
tidy 11
Bandura 11
sermons 11
Phone 11
caste 11
warps 11
subsidi@@ 11
Kismet 11
acidification 11
microRNAs 11
membership 11
horn 11
trickster 11
Guard 11
Greg 11
Went 11
Tina 11
cemetery 11
car-sharing 11
Lindbergh 11
proteomics 11
PRIZE 11
Maya 11
Everglades 11
amphibians 11
Eurozone 11
desic@@ 11
red-haired 11
Huck 11
TK 11
supplements 11
daycare 11
Clay 11
mildness 11
Najmuddin 11
head-tail-head 11
Gamma 11
Barefoot 11
Sistine 11
Rezero 11
BR 11
Terence 11
loosely 10
reluc@@ 10
agreeing 10
civilized 10
rough@@ 10
365 10
aped 10
walk@@ 10
patter@@ 10
keepers 10
baleen 10
Vis@@ 10
nicest 10
stom@@ 10
1928 10
Kerala 10
lag 10
Teach 10
avoidance 10
refusing 10
stool 10
0-pound 10
distil@@ 10
disciplined 10
hierarchical 10
Pla@@ 10
hydrants 10
fifty 10
store@@ 10
oughs 10
repurposed 10
quick@@ 10
uries 10
osp@@ 10
scent 10
universality 10
serendipity 10
Marilyn 10
adorable 10
911 10
Question 10
Yay 10
toxic@@ 10
Sav@@ 10
looming 10
trop@@ 10
kelp 10
gulf 10
elly 10
13-year-old 10
steri@@ 10
Sustainable 10
priced 10
Deci@@ 10
-sized 10
dissolve 10
detergent 10
rodent 10
bbling 10
washes 10
distr@@ 10
coast@@ 10
havoc 10
trajectories 10
squee@@ 10
stretches 10
banging 10
Want 10
frantically 10
observable 10
ophon@@ 10
fist 10
monk 10
robe 10
Shir@@ 10
lowed 10
Protestant 10
judicial 10
babysit@@ 10
tals 10
ulsion 10
frivolous 10
sorrow 10
hardened 10
icked 10
whipped 10
sorted 10
nationality 10
harmon@@ 10
breaker 10
sari 10
bi 10
taboos 10
silenced 10
renamed 10
RM 10
fiddle 10
well-intentioned 10
Crisis 10
parental 10
pours 10
oni 10
Bom@@ 10
Ses@@ 10
G. 10
flips 10
perfected 10
mann 10
calcul@@ 10
Robo@@ 10
hex@@ 10
amoeba 10
feasibility 10
aments 10
roadside 10
oke 10
proposals 10
robo@@ 10
consisted 10
cruci@@ 10
Perry 10
Smart 10
bbles 10
depict 10
Initially 10
Action 10
unveil 10
mings 10
eyebrow 10
adage 10
displacement 10
dences 10
Allow 10
Pas@@ 10
dissidents 10
outfit 10
loud@@ 10
impunity 10
flir@@ 10
Jenny 10
UC 10
backside 10
kites 10
rub@@ 10
focal 10
Gs 10
blossom 10
World@@ 10
sniff 10
perf@@ 10
prop@@ 10
sne@@ 10
yielded 10
experimenter 10
positives 10
appeals 10
compos@@ 10
Cheering 10
EPA 10
enclosure 10
buck@@ 10
ulls 10
intercept 10
Interesting 10
grap@@ 10
cle 10
lov@@ 10
half@@ 10
make@@ 10
whim@@ 10
wear@@ 10
sensations 10
K. 10
parable 10
ecstatic 10
casual 10
Bulgaria 10
appalling 10
laborers 10
deregulation 10
deposits 10
parade 10
grow@@ 10
cated 10
smugglers 10
i.e. 10
list@@ 10
Mmm 10
texted 10
angular 10
inhibit 10
intractable 10
rollers 10
avid 10
tment 10
ggle 10
-coll@@ 10
marrying 10
air-condi@@ 10
entries 10
wide-@@ 10
open-air 10
las 10
Anim@@ 10
repetition 10
disturb 10
reassure 10
familiarity 10
geome@@ 10
neur@@ 10
convul@@ 10
OS 10
towels 10
absor@@ 10
border@@ 10
aste 10
depiction 10
Fraser 10
dotted 10
exaggerated 10
sliver 10
reminding 10
Services 10
gros@@ 10
intervening 10
brutally 10
constra@@ 10
unwilling 10
18-year-old 10
Sean 10
Female 10
cease 10
Terri@@ 10
tunes 10
stares 10
squirrel 10
font 10
rusty 10
imit@@ 10
buddies 10
discharged 10
light@@ 10
pel@@ 10
one-way 10
provi@@ 10
displace 10
spear@@ 10
fry 10
contrac@@ 10
magnesium 10
explosives 10
magnify 10
99.9 10
camoufl@@ 10
liz@@ 10
ard@@ 10
blue-@@ 10
Cousteau 10
ticism 10
generalization 10
squeaks 10
LS 10
w-@@ 10
CAD 10
recreating 10
insides 10
logos 10
correctness 10
IA 10
nett 10
comprehend 10
bolt 10
escaping 10
Thankfully 10
pra@@ 10
repurposing 10
beforehand 10
varies 10
Anti@@ 10
Eliot 10
cau@@ 10
20th-century 10
acquiring 10
Dy@@ 10
summarized 10
Reu@@ 10
thetic 10
Kaf@@ 10
coloring 10
lame 10
kar@@ 10
nega@@ 10
majors 10
Likewise 10
Martha 10
soundscape 10
Hungarian 10
Ak@@ 10
chuck@@ 10
asing 10
ant-@@ 10
stir 10
Study 10
top-@@ 10
van@@ 10
Teachers 10
ulously 10
denying 10
Violence 10
ache 10
immunized 10
front-@@ 10
prevail 10
antibody 10
coli 10
minim@@ 10
2nd 10
discount 10
preceding 10
amazes 10
brand-new 10
Eno 10
1971 10
lacking 10
know-how 10
subsidize 10
Clarke 10
librarians 10
semin@@ 10
mobs 10
archetyp@@ 10
births 10
constellations 10
ald 10
superstars 10
hero@@ 10
Libby 10
glued 10
iny 10
f-@@ 10
insurg@@ 10
vulnerabilities 10
extracts 10
adaptations 10
interplay 10
reside 10
telecoms 10
tened 10
openings 10
idity 10
aus@@ 10
regim@@ 10
singly 10
Risen 10
Pul@@ 10
A.@@ 10
betting 10
markings 10
FO@@ 10
oll 10
J.@@ 10
illiteracy 10
wake-up 10
Lyndon 10
ish@@ 10
Forum 10
Ther@@ 10
postage 10
niche 10
nicer 10
tweeting 10
metaphorically 10
IN@@ 10
Port-au-Prince 10
ile@@ 10
Engine@@ 10
dia@@ 10
irrit@@ 10
deafness 10
ry@@ 10
witnessing 10
silos 10
Phase 10
startup 10
granddad 10
wisely 10
taps 10
Creativity 10
harsh@@ 10
lear@@ 10
world@@ 10
spells 10
orderly 10
shameful 10
shorthand 10
type@@ 10
blackboard 10
slash 10
sequel 10
Yusor 10
recipro@@ 10
mobilizing 10
ophobia 10
filthy 10
jail@@ 10
aton 10
Alexis 10
Running 10
hap@@ 10
vibr@@ 10
swo@@ 10
formulation 10
farmland 10
seeded 10
ograph@@ 10
dal 10
publicity 10
ret 10
relentless 10
affili@@ 10
interpersonal 10
committees 10
complic@@ 10
rement 10
sely 10
arbit@@ 10
Britannica 10
rubbish 10
Eiffel 10
Bam@@ 10
Politics 10
ci 10
Aus@@ 10
op-ed 10
Know 10
teenth 10
sling 10
precipit@@ 10
enge 10
Pinker 10
uts 10
rich@@ 10
tapestry 10
costume 10
fragmentation 10
confronting 10
anesthe@@ 10
belts 10
pro 10
Annan 10
rugged 10
rene@@ 10
eler@@ 10
time@@ 10
notable 10
freaked 10
undergraduates 10
adrenaline 10
uplifting 10
tempo 10
ín 10
knives 10
polish 10
researched 10
salesman 10
disproportionately 10
repairing 10
master@@ 10
Gilbert 10
1966 10
veling 10
encountering 10
Rub@@ 10
diver@@ 10
paranoid 10
formally 10
kle 10
blan@@ 10
pageant 10
innat@@ 10
Leop@@ 10
Nov@@ 10
Ari@@ 10
tored 10
in-group 10
Governor 10
plain@@ 10
Sto@@ 10
ament 10
tuous 10
audition 10
dder 10
Contin@@ 10
time-consuming 10
dashboard 10
fairer 10
-cir@@ 10
prayed 10
seven-year-old 10
nameless 10
booms 10
Ninety 10
raping 10
debut 10
conju@@ 10
juggler 10
amaz@@ 10
simil@@ 10
accents 10
Islamists 10
spun 10
hurdles 10
sensi@@ 10
big@@ 10
enlist 10
hunter-gatherer 10
och@@ 10
craftsmanship 10
aisle 10
Weather 10
non-invasive 10
pelvis 10
entary 10
affordability 10
L-@@ 10
scraped 10
1940 10
arrays 10
coc@@ 10
volunteering 10
grinding 10
recei@@ 10
imperfections 10
frauds 10
Protection 10
warran@@ 10
weakest 10
Flash 10
perpetrators 10
categor@@ 10
collec@@ 10
symbo@@ 10
repeats 10
textiles 10
photo-@@ 10
sliced 10
templates 10
biodegradable 10
refl@@ 10
excite 10
burger 10
grilled 10
step-by-step 10
was@@ 10
mil@@ 10
Evelyn 10
Stand 10
Tonight 10
retreating 10
rous 10
extrem@@ 10
archae@@ 10
Origin 10
God@@ 10
0,000-@@ 10
dispose 10
compliance 10
Brits 10
vious 10
empathic 10
Velcro 10
inserted 10
paraly@@ 10
LM 10
Dawkins 10
ary-@@ 10
lick 10
Az@@ 10
sac@@ 10
advant@@ 10
wasps 10
shack 10
Extre@@ 10
physi@@ 10
Mobile 10
Aging 10
propri@@ 10
diapers 10
fries 10
topography 10
interval 10
reductions 10
cartel 10
inning 10
first-class 10
Citizens 10
pork 10
sip 10
lust 10
Den@@ 10
got@@ 10
probiotics 10
orally 10
notices 10
Gro@@ 10
archi@@ 10
omous 10
floo@@ 10
Sleep 10
chann@@ 10
Mari@@ 10
moonshot 10
aerospace 10
moon@@ 10
staple 10
Googlers 10
oes 10
sunrise 10
ytes 10
Discovery 10
Opera 10
-cra@@ 10
1,400 10
Carson 10
essays 10
motel 10
impractical 10
dotcom 10
exhausting 10
valuation 10
prognosis 10
extrapolate 10
presently 10
Budd@@ 10
Ark 10
Heritage 10
Block 10
detrimental 10
rob@@ 10
avatars 10
rum@@ 10
side@@ 10
hydrophobic 10
coating 10
nanos@@ 10
High-@@ 10
Macintosh 10
RT 10
correspondence 10
bunker 10
haunting 10
declar@@ 10
scen@@ 10
strangeness 10
recommendation 10
closeness 10
erial 10
vitality 10
gradient 10
unfolds 10
appar@@ 10
agged 10
gamble 10
ycle 10
pleas@@ 10
urging 10
nurtured 10
steep@@ 10
fifths 10
Boom 10
vens 10
synthesizer 10
Hard 10
democratized 10
Guy 10
sweetheart 10
fundamentalist 10
bonuses 10
coping 10
deflect 10
entment 10
exaggerate 10
angio@@ 10
Hansen 10
Affairs 10
mound 10
distort 10
counteract 10
smen 10
freezes 10
rup@@ 10
preaching 10
glide 10
coronary 10
breath@@ 10
still-@@ 10
administered 10
ML 10
podium 10
commis@@ 10
lush 10
atra 10
Artists 10
JB 10
Serra 10
mist 10
lamps 10
stubborn 10
Dennett 10
phi 10
colonial 10
tractor 10
mercury 10
stron@@ 10
mass-@@ 10
Typ@@ 10
narrator 10
isa 10
Rosie 10
en-@@ 10
Chef 10
dragons 10
Andre@@ 10
CBS 10
Indi@@ 10
perimeter 10
sensual 10
ican 10
undertook 10
Made 10
celebratory 10
aspi@@ 10
imaged 10
stockpile 10
orium 10
megacity 10
sile 10
harassment 10
Culture 10
ester 10
hospice 10
clustering 10
prefer@@ 10
contagion 10
attribu@@ 10
ible 10
misinformation 10
schematic 10
biochemistry 10
sab@@ 10
mun@@ 10
examination 10
vest@@ 10
Sports 10
Istanbul 10
muck 10
cot@@ 10
Market 10
tenure 10
brochure 10
Minto 10
autobiographical 10
Pun@@ 10
Forty-@@ 10
sociable 10
faulty 10
nuns 10
Austrian 10
vise 10
cultiv@@ 10
cis@@ 10
bean 10
ankle 10
orious 10
fleeting 10
urged 10
trivia 10
abyte 10
T-@@ 10
handles 10
mosses 10
oss 10
troubles 10
exclude 10
licenses 10
Medicines 10
apology 10
747 10
contradic@@ 10
ener@@ 10
amp 10
anthrax 10
Antonio 10
puppe@@ 10
Cir@@ 10
sar@@ 10
simulating 10
inconsistent 10
tdown 10
mommy 10
agony 10
Summer 10
spor@@ 10
Meth@@ 10
swe@@ 10
thanking 10
artillery 10
alien@@ 10
logged 10
bestseller 10
appreciating 10
conceit 10
apprentice 10
quarter-@@ 10
waits 10
divinity 10
Avatar 10
geo-@@ 10
onies 10
breeders 10
calligraphy 10
swinging 10
projec@@ 10
divers 10
circled 10
dened 10
reconc@@ 10
stir@@ 10
lip@@ 10
influ@@ 10
prophecy 10
gator 10
Juliet 10
Seven@@ 10
mouth@@ 10
bosses 10
snor@@ 10
orient 10
calves 10
disrupted 10
acoustici@@ 10
congre@@ 10
2-year-old 10
quad 10
Unclear 10
sonar 10
esting 10
plea 10
pigments 10
gender-@@ 10
otes 10
PRISM 10
defensive 10
libertarian 10
Magna 10
Carta 10
Bern@@ 10
desolate 10
Willie 10
distinctly 10
deterior@@ 10
debilitating 10
voter 10
blur 10
Alec 10
chocolates 10
sins 10
meta-@@ 10
headset 10
nical 10
Marie 10
Jabbar 10
Allah 10
Hungary 10
Dana 10
mini@@ 10
Libyan 10
underside 10
mid 10
kov 10
pursued 10
nie 10
fon@@ 10
itude 10
Explosion 10
cookies 10
diaper 10
Ty@@ 10
divi@@ 10
biot@@ 10
evolutionarily 10
fallout 10
dorm 10
shredded 10
blogger 10
retreated 10
arctic 10
swimmer 10
hec@@ 10
full-blown 10
caric@@ 10
Ag@@ 10
FS 10
patron@@ 10
lifespans 10
peace@@ 10
residual 10
sent@@ 10
invasively 10
stain 10
harnessed 10
partnered 10
tweeted 10
rhythmic 10
user@@ 10
opa@@ 10
usal 10
icans 10
purity 10
tumbling 10
carto@@ 10
uncontacted 10
uri 10
Commerce 10
nephew 10
predic@@ 10
struction 10
noun 10
conven@@ 10
ensured 10
whaling 10
distor@@ 10
glim@@ 10
Lucas 10
reminiscent 10
good-@@ 10
oranges 10
nery 10
densities 10
capillary 10
seized 10
chee@@ 10
paw 10
cubs 10
breakup 10
suited 10
unchanged 10
impairment 10
childbirth 10
headlights 10
shadowy 10
amputation 10
bloop 10
separately 10
meerkats 10
Lev@@ 10
egos 10
Celine 10
ellular 10
ridiculously 10
mess@@ 10
tokens 10
take-home 10
cabinets 10
orist 10
froze 10
two-and-a-half 10
stakeholders 10
sue 10
barn 10
Johannes 10
angled 10
1929 10
pepper 10
wavelength 10
Mayan 10
nanot@@ 10
heter@@ 10
safe@@ 10
transmitter 10
nugget 10
charm 10
Son@@ 10
Lis@@ 10
conserva@@ 10
gos 10
Hemisphere 10
divergent 10
isotopes 10
16,000 10
contex@@ 10
gene@@ 10
Newcastle 10
Inno@@ 10
vin 10
prospects 10
Woods 10
restless 10
limp 10
Frank@@ 10
Pav@@ 10
lockwise 10
PA 10
Hel@@ 10
knocks 10
autop@@ 10
succum@@ 10
Fif@@ 10
underpins 10
Ram 10
adventurous 10
Kinsey 10
pings 10
janitors 10
aims 10
reliance 10
25-@@ 10
acqui@@ 10
barbershop 10
emperor 10
Occupy 10
fundamentalists 10
politely 10
aggregated 10
5,@@ 10
ranked 10
Judith 10
volts 10
microns 10
nish 10
halved 10
metam@@ 10
revive 10
RP 10
round@@ 10
harmless 10
Jamaican 10
preoccupied 10
testable 10
negoti@@ 10
Dou@@ 10
slopes 10
stray 10
Allan 10
Patr@@ 10
Wildlife 10
miniaturization 10
zooming 10
invading 10
affection@@ 10
religi@@ 10
eship 10
antic 10
decou@@ 10
stry 10
incentivize 10
dis 10
sourcing 10
ety 10
Cher@@ 10
defects 10
summers 10
Sup@@ 10
technolog@@ 10
braking 10
bloodstream 10
mob 10
ever@@ 10
Gapminder 10
Teacher 10
0.@@ 10
Near 10
Expl@@ 10
hose 10
climber 10
dd 10
ticks 10
codi@@ 10
Census 10
copy@@ 10
transgendered 10
Squ@@ 10
-carbon 10
real@@ 10
motives 10
Chin@@ 10
splash 10
allocation 10
lunchtime 10
2.4 10
Religi@@ 10
upside-down 10
zh@@ 10
ired 10
vised 10
ppies 10
Clapping 10
lik@@ 10
trolls 10
denounce 10
mortgages 10
Christi@@ 10
osphere 10
fabricate 10
Mach 10
Sex@@ 10
Gothic 10
Christ@@ 10
auts 10
Faiza 10
sandstone 10
excavate 10
turn@@ 10
orb@@ 10
driveway 10
negotiated 10
disen@@ 10
bedside 10
widening 10
disco@@ 10
disappoint 10
1858 10
Gertrude 10
Invest@@ 10
hea 10
abstractions 10
battle@@ 10
unprepared 10
radiologists 10
connective 10
benefiting 10
above-@@ 10
hin@@ 10
gown 10
workplaces 10
Salman 10
fuses 10
anie 10
mou@@ 10
fertilize 10
upbeat 10
mystic 10
NO 10
Philips 10
lett 10
wasp 10
adhesive 10
ozoic 10
fellowship 10
Uh-@@ 10
geopolitical 10
JE 10
blur@@ 10
exacer@@ 10
shaved 10
Kinect 10
Linus 10
antique 10
orthodox 10
side-by-side 10
brine 10
Stuxnet 10
suffoc@@ 10
syllab@@ 10
Fal@@ 10
tournament 10
circumference 10
bleak 10
courthouse 10
PhD 10
settlers 10
wretched 10
atures 10
contextual 10
Rajasthan 10
coura@@ 10
Vo@@ 10
invisibility 10
starch 10
fil@@ 10
leveled 10
underwent 10
rafts 10
renewed 10
democratize 10
randomized 10
Ces@@ 10
humanistic 10
lically 10
della 10
Birmingham 10
Blah 10
ions 10
sectarian 10
Hab@@ 10
fried 10
crowdsource 10
geniuses 10
psycho-social 10
Mellon 10
yel@@ 10
Torah 10
Masters 10
Share 10
diner 10
dict@@ 10
adversaries 10
Sousa 10
Motors 10
porridge 10
Cargill 10
EC 10
recline 10
kettle 10
Furby 10
Bonobos 10
justness 10
BM 10
adequ@@ 10
RCA 10
Dri@@ 10
aurus 10
Rovers 10
unrealistic 10
Effects 10
Pup@@ 10
sketching 10
pessimism 10
jeweled 10
milkweed 10
Boltzmann 10
Gayla 10
Gos@@ 10
Okapi 10
body@@ 10
NK 10
courtroom 10
thorium 10
105 10
wholeness 10
Sys 10
Admin 10
Somerset 10
head-tail-tail 10
nominate 10
Nano 10
Daisy 10
shna 10
constr@@ 10
metastases 10
Bina 10
Kaluza 10
littleBits 10
YV 10
HC 10
Marduk 10
arma@@ 9
Afghans 9
IC@@ 9
princi@@ 9
landmines 9
mobilization 9
appropri@@ 9
elevators 9
barber 9
canoes 9
paddle 9
toothpaste 9
lightbulb 9
age-related 9
props 9
accessories 9
individuality 9
subtraction 9
Cob@@ 9
Newfoundland 9
sameness 9
flung 9
iti 9
Somali 9
localized 9
vaccination 9
reassuring 9
3.2 9
propane 9
el-@@ 9
combustion 9
Holly 9
85,000 9
distilled 9
forefront 9
Peri@@ 9
nis@@ 9
Darwinism 9
leaking 9
agendas 9
Pic@@ 9
hydrant 9
42nd 9
oul 9
crossroads 9
epoxy 9
Bike 9
frenzy 9
soar 9
destruc@@ 9
galactic 9
suns 9
dwarf 9
doctrines 9
coward 9
presume 9
Knight 9
ppers 9
neuro-@@ 9
Maine 9
disper@@ 9
herring 9
Valdez 9
byproducts 9
discrimin@@ 9
aspir@@ 9
air-@@ 9
lesions 9
Stor@@ 9
assessing 9
aci@@ 9
intern 9
diaspora 9
ventil@@ 9
parameter 9
Apart 9
respectable 9
infl@@ 9
Compar@@ 9
tradeoff 9
frees 9
conserv@@ 9
drastically 9
avert 9
idle 9
emergencies 9
teers 9
thly 9
municipalities 9
electri@@ 9
idiots 9
sonic 9
churn 9
black-@@ 9
km 9
merged 9
colliding 9
laureates 9
mont 9
Outside 9
Prov@@ 9
disappointment 9
Vagina 9
homosexual 9
V-Day 9
factions 9
inas 9
ok 9
weeping 9
honoring 9
injec@@ 9
pist@@ 9
squirt 9
arities 9
aun@@ 9
tel@@ 9
oppressive 9
verses 9
dreamt 9
Lib@@ 9
erian 9
Ellen 9
Sir@@ 9
slang 9
eloquently 9
parting 9
consulting 9
Hang 9
nes 9
science-@@ 9
whi@@ 9
-colored 9
par 9
improvising 9
reciprocal 9
ruthless 9
Home@@ 9
Mothers 9
Mandarin 9
custo@@ 9
dians 9
smoked 9
Grou@@ 9
awfully 9
H.@@ 9
terror@@ 9
1.8 9
rovers 9
LE@@ 9
coar@@ 9
ometers 9
scribble 9
Robinson 9
ticists 9
18th-century 9
recap 9
stutter 9
superimposed 9
increments 9
shortcuts 9
abor@@ 9
phosph@@ 9
haircut 9
outsiders 9
Sophia 9
commanders 9
Call 9
dentists 9
excruciating 9
annies 9
stomachs 9
Wherever 9
sprinkle 9
Ambassador 9
Integr@@ 9
other@@ 9
untold 9
mangroves 9
meadows 9
virginity 9
SAT 9
ture-@@ 9
past-@@ 9
hedon@@ 9
gence 9
carcino@@ 9
photon 9
self-assembling 9
ulations 9
lapse 9
Fukushima 9
-cleaning 9
containment 9
entimeter 9
maneuverable 9
controllers 9
demos 9
Kickstarter 9
fund@@ 9
Rotterdam 9
struc@@ 9
shape-@@ 9
sprinting 9
hind 9
[...]
