#version: 0.2
t h
i n
- c
z h
zh -c
zh-c n
zh-cn _
zh-cn_ _</w>
_ zh-cn__</w>
_ _zh-cn__</w>
a n
th e</w>
e r
o s
a t</w>
o u
a p
in g</w>
t o</w>
a r
ap os
& apos
i s</w>
&apos ;
e n
o f</w>
t i
r e
an d</w>
a l
o n
o r
e r</w>
e d</w>
o n</w>
th at</w>
i n</w>
o t
q u
e s</w>
i t
s t
th e
w h
o u</w>
qu ot
quot ;</w>
& quot;</w>
i t</w>
l y</w>
o m
a n</w>
v e</w>
a c
l i
a s</w>
a t
y ou</w>
e c
r o
&apos; s</w>
w e</w>
u s
l e</w>
n d</w>
o r</w>
er e</w>
i c
e n</w>
n o
e l
h a
T h
A nd</w>
e s
d i
th is</w>
a l</w>
a b
l o
a s
i l
u r
ou t</w>
g h
v er
l d</w>
r i
ti on</w>
m e</w>
ar e</w>
m a
l e
o p
u t</w>
b e
w as</w>
k e</w>
en t</w>
a y</w>
s i
f or</w>
al ly</w>
c h
u n
ha ve</w>
s e
n e
g o
d e
s e</w>
the y</w>
ou r</w>
s h
w it
r a
on e</w>
c om
wit h</w>
w or
al l</w>
t s</w>
o l
b e</w>
c an</w>
o w</w>
p e
S o</w>
us e</w>
&apos; t</w>
p l
wh at</w>
ab out</w>
e x
t er</w>
s o</w>
c e</w>
a g
p ro
i r
gh t</w>
ou ld</w>
th in
e t</w>
th er</w>
no w</w>
no t</w>
u c
t r
c on
s a
r e</w>
s om
u l
t o
a use</w>
t er
d o</w>
ver y</w>
d s</w>
d o
p er
m y</w>
th ere</w>
a r</w>
th ing</w>
I t</w>
m e
&apos; re</w>
or e</w>
op le</w>
us t</w>
i s
li ke</w>
a m
ro m</w>
pe ople</w>
it y</w>
f rom</w>
s p
ti on
c i
t u
b ec
v i
t a
v er</w>
k ing</w>
b ut</w>
f f
e ar
an t</w>
W e</w>
a u
j ust</w>
u m
at e</w>
er s</w>
d e</w>
B ut</w>
a tion</w>
m o
Th e</w>
i m
ur e</w>
o o
el l</w>
the se</w>
u s</w>
i r</w>
t ed</w>
h e</w>
b y</w>
a d
g s</w>
i f</w>
u p</w>
the m</w>
k now</w>
e m
f or
go ing</w>
p o
g e</w>
m ore</w>
ou n
ha d</w>
lo o
e y</w>
wh en</w>
s t</w>
w ay</w>
p ar
W h
in d</w>
bec ause</w>
ic h</w>
s u
p re
es s</w>
se e</w>
h i
w ere</w>
thin k</w>
h ow</w>
som e
g et</w>
o ther</w>
the ir</w>
w n</w>
wh ich</w>
t h</w>
wh o</w>
an y</w>
b o
w ould</w>
il l</w>
g i
re ally</w>
os e</w>
t w
ou nd</w>
0 0</w>
g h</w>
y our</w>
i d</w>
e v
tion s</w>
&apos; ve</w>
t ing</w>
f e
h ere</w>
ti me</w>
en ce</w>
in e</w>
ou r
f i
com p
a y
c re
tu ally</w>
wh ere</w>
Th is</w>
&apos; m</w>
ti c
h as</w>
wor ld</w>
Y ou</w>
au gh
the n</w>
k s</w>
os t</w>
ap p
l l</w>
a d</w>
b i
y ear
g e
ab le</w>
d on</w>
f u
st r
in to</w>
augh ter</w>
som e</w>
d ay</w>
ac k</w>
es t</w>
r ou
ac tually</w>
un d
w ill</w>
b u
al l
ac e</w>
year s</w>
L aughter</w>
uc h</w>
c o
g o</w>
en t
s el
t e
N ow</w>
st ar
ag e</w>
thin gs</w>
Th ey</w>
en ts</w>
h e
d ing</w>
be en</w>
p or
c ould</w>
g re
w ant</w>
as t</w>
l it
c l
p h
di ff
h app
v es</w>
ma ke</w>
d y</w>
f ir
g u
m i
t le</w>
k ed</w>
s o
ri ght</w>
i z
ch an
st e
m ost</w>
at ed</w>
f e</w>
v ing</w>
ti ve</w>
t ure</w>
some thing</w>
th an</w>
i es</w>
sa id</w>
t y</w>
in ter
st or
p r
t al
m uch</w>
g r
ec t</w>
on g</w>
i c</w>
w e
wor k</w>
o d</w>
ou s</w>
l a
diff er
th ose</w>
n o</w>
fir st</w>
en ti
y ing</w>
al so</w>
s y
th ou
m ent</w>
i g
p le</w>
pro b
c h</w>
b ack</w>
tw o</w>
ne w</w>
it e</w>
g y</w>
p os
lit tle</w>
go t</w>
an s</w>
a me</w>
e l</w>
Th at</w>
ay s</w>
f ac
loo k</w>
on s</w>
en d</w>
d es
b le</w>
d ed</w>
w i
o ver</w>
om e</w>
c e
d n</w>
on ly</w>
s c
re e</w>
i de
ic e</w>
h is</w>
s ay</w>
g en
ne ed</w>
st u
m on
il li
t ri
Wh at</w>
m any</w>
ev en</w>
li fe</w>
I n</w>
t ra
lo t</w>
h um
d uc
c oun
es s
A p
ar d</w>
fu l</w>
ver y
h er</w>
sh e</w>
it s</w>
ta ke</w>
k ind</w>
bo dy</w>
e st
ec h
m s</w>
2 0
s ti
com e</w>
p a
bu il
t ur
com m
f f</w>
si on</w>
di d</w>
r u
pl ause</w>
th rou
ar ound</w>
ic al</w>
Ap plause</w>
k e
d er</w>
at er</w>
ac h</w>
el l
m ar
Th ere</w>
ec on
d u
in g
ol l
1 9
n ing</w>
differ ent</w>
I n
und er
il l
f a
e very
al s</w>
as e</w>
tr y</w>
ti c</w>
con t
go od</w>
ti es</w>
do wn</w>
re d</w>
an k</w>
throu gh</w>
an d
por t
ec i
m in
b er</w>
re c
pre s
w s</w>
ti m
n i
di s
w er</w>
a m</w>
b r
e very</w>
&apos; ll</w>
happ en
be ing</w>
v ed</w>
c ar
f r
an ce</w>
y e
a in</w>
0 00</w>
s ur
sa me</w>
prob le
W ell</w>
f in
d re
c all
o b
stor y</w>
H e</w>
p ut</w>
ar y</w>
ma g
at ing</w>
t ech
si de</w>
1 0</w>
an s
w r
c ent</w>
s ol
le ar
a f
do ing</w>
sel f</w>
e ly</w>
m at
I f</w>
g ra
b l
w ays</w>
s on</w>
u e</w>
ch il
an y
or s</w>
sh o
C h
p ri
lo gy</w>
oo d</w>
u t
v el
so ci
li c
per cent</w>
s ci
call ed</w>
s er
si m
illi on</w>
st s</w>
pl an
&apos; d</w>
ma de</w>
n ed</w>
e ver</w>
t ly</w>
ex per
b as
a tions</w>
tion al</w>
o ld</w>
ac h
qu es
h el
in v
2 0</w>
d er
b ra
f ore</w>
th ree</w>
tech no
ye ar</w>
o c
chan ge</w>
t re
us ed</w>
p ic
under st
at es</w>
w om
p i
w ell</w>
re s</w>
t ell</w>
or t</w>
en c
im port
to day</w>
fac t</w>
hum an</w>
wh y</w>
in t</w>
t ter</w>
le t</w>
s en
an c
y s</w>
f ind</w>
un i
di dn</w>
star ted</w>
ste m</w>
v en</w>
o wn</w>
des ig
c our
gre at</w>
ide a</w>
s m
in gs</w>
5 0</w>
& #
&# 9
m er
tal k</w>
p u
p s</w>
k es</w>
en g
af ter</w>
ex am
s ch
t en
Th ank</w>
lo w</w>
, 000</w>
oo l</w>
w ing</w>
f l
i l</w>
wi th
w an
l ast</w>
b it</w>
f t</w>
be li
tim es</w>
be fore</w>
w ent</w>
al iz
g er</w>
me m
mi ght</w>
bi g</w>
ge ther</w>
be tter</w>
ar s</w>
ne ver</w>
thou ght</w>
pl ace</w>
import ant</w>
ter s</w>
h ear
d ic
k i
o ff</w>
f am
to gether</w>
gi ve</w>
g ro
sti ll</w>
sh ould</w>
l ess</w>
ic a</w>
ar i
sh i
ag o</w>
c r
b oo
v ir
cour se</w>
an other</w>
par t</w>
proble m</w>
hi m</w>
k no
ti v
o le</w>
il ity</w>
sy stem</w>
es e</w>
in s</w>
lo c
re s
d at
c ame</w>
ex p
e en</w>
it ed</w>
an ds</w>
&apos ;</w>
w ater</w>
ne x
inter est
o m</w>
fe w</w>
ou s
j o
c ri
nex t</w>
c or
star t</w>
i mag
e w</w>
sh ow</w>
do es</w>
d d
si ble</w>
str uc
be g
b ot
c ol
c ess</w>
e ach</w>
re ad
bra in</w>
w a
f ound</w>
ic ally</w>
n um
ag ain</w>
comp le
m an</w>
c ou
Wh en</w>
m an
c er
ma tion</w>
i ght</w>
e ff
to o</w>
de vel
to o
A mer
e p</w>
techno logy</w>
or g
tw een</w>
me an</w>
n a
pro duc
in cre
be tween</w>
t en</w>
e ve</w>
f ri
exam ple</w>
g a
ac t</w>
al ity</w>
j ect</w>
ques tion</w>
l ar
w ar
dre n</w>
dat a</w>
in for
3 0</w>
po int</w>
fam i
loo king</w>
chan g
T E
u m</w>
f o
sp ec
l es</w>
us ing</w>
c ur
al i
gen er
l ong</w>
is t</w>
d eci
B ec
n ec
n at
comp u
comm un
underst and</w>
O n
d one</w>
s pe
wom en</w>
chil dren</w>
or y</w>
re as
os s</w>
es n</w>
s k
wan ted</w>
c ap
S t
tic al</w>
c ul
n s</w>
li ve</w>
as s
Bec ause</w>
20 0
n ess</w>
do esn</w>
ce p
a way</w>
li ght</w>
A fr
s econ
di a</w>
lo ve</w>
b re
y p
st a
s ec
s ort</w>
H ow</w>
ab ly</w>
th er
f ace</w>
f ul
ou gh</w>
econ om
re al</w>
c all</w>
l ine</w>
ch o
sel ves</w>
m us
al ways</w>
su p
wh ole</w>
tr ying</w>
he al
wor king</w>
gr ap
ul ar</w>
m illion</w>
po li
em ent</w>
ic i
exper i
is h</w>
tr ans
r y</w>
ma y</w>
t ting</w>
per son</w>
beli eve</w>
sch ool</w>
coun try</w>
pu b
org an
po wer</w>
re sp
u tion</w>
li m
hel p</w>
devel op
infor mation</w>
en d
an g
l dn</w>
w al
m y
for m</w>
b or
er i
e p
ec ts</w>
ell s</w>
. .
e t
g g
al e</w>
y s
as s</w>
ne e
too k</w>
ma y
l an
TE D</w>
si g
ou t
ver n
pr ot
me ans</w>
in t
ro om</w>
su b
fe el</w>
f our</w>
thin king</w>
en er
el ec
as k</w>
every thing</w>
d oll
se ar
o ff
lo b
m om
ot s</w>
cre ate</w>
le a
h op
in ess</w>
b us
v al
w er
ul t</w>
th s</w>
on es</w>
se e
mon ey</w>
z e</w>
com es</w>
c oll
bec ome</w>
l and</w>
h al
ent ly</w>
pub li
boo k</w>
i d
sm all</w>
go vern
M y</w>
g rou
ma king</w>
m is
On e</w>
1 5</w>
em s</w>
ki ds</w>
sp ace</w>
may be</w>
d ri
an im
h ar
read y</w>
A n
e -
tri es</w>
par tic
desig n</w>
fu ture</w>
st er</w>
en ough</w>
num ber</w>
e y
d ec
a ma
h ome</w>
Th ese</w>
qu ite</w>
happen ed</w>
te ly</w>
1 00</w>
ver s
s ing
en ds</w>
h ard</w>
w at
it ing</w>
U n
sen se</w>
m en</w>
hi gh
fi ve</w>
at h</w>
S he</w>
d ge</w>
i le</w>
m or
o p</w>
z ing</w>
in es</w>
ge tting</w>
w ed</w>
t e</w>
resp on
ar t</w>
s ing</w>
f ood</w>
b est</w>
v el</w>
a v
we e
se t</w>
pl ac
pos sible</w>
lo g
is m</w>
secon d</w>
ab ility</w>
soci al</w>
stu d
s ure</w>
u p
tic s</w>
o f
ex pl
le ft</w>
s it
y oun
e qu
buil ding</w>
tal king</w>
pre t
o t</w>
a k</w>
with out</w>
wh e
pl ay</w>
interest ing</w>
f ol
to ld</w>
ener gy</w>
L et</w>
re ad</w>
b er
ar e
re aliz
H ere</w>
c are</w>
com ing</w>
l ed</w>
be au
pi ec
n er</w>
ic s</w>
prob ably</w>
at ely</w>
ac r
bi o
for m
cont ro
t or</w>
it al</w>
in ed</w>
coun tries</w>
b ro
ac k
shi p</w>
k en</w>
c a
s on
w on
li ves</w>
.. .</w>
stu ff</w>
ta in</w>
g lob
pret ty</w>
fo re
Afr ica</w>
vir on
sa w</w>
ou se</w>
th ers</w>
c en
c ase</w>
ous ly</w>
mem ber</w>
1 ;</w>
&#9 1;</w>
s uch</w>
p ed</w>
buil d</w>
doll ars</w>
3 ;</w>
&#9 3;</w>
any thing</w>
fami ly</w>
N o</w>
e duc
im p
Wh y</w>
acr oss</w>
in ce</w>
di vi
en viron
k ay</w>
c an
re la
ent al</w>
en e
a h</w>
st ri
mo ve</w>
el s</w>
se en</w>
e as
hal f</w>
p op
happ en</w>
E ar
sp eci
N A</w>
con nec
li ving</w>
d ra
n or
w ard</w>
v e
as ked</w>
d ays</w>
thou gh</w>
4 0</w>
wor ks</w>
F or</w>
i a</w>
w as
gh ts</w>
ne t</w>
i st
sci enti
m en
sim ple</w>
s uc
ro p
ha ving</w>
mom ent</w>
ic an</w>
si ve</w>
youn g</w>
sci ence</w>
he ad</w>
m ents</w>
ic es</w>
experi ence</w>
d in
ma kes</w>
ot e</w>
h u
wh ile</w>
c am
di se
h and</w>
om e
to p</w>
at t
v en
ph ys
o ver
e ty</w>
ap s</w>
c ha
In ter
g ir
thou s
happen s</w>
c ity</w>
st re
tur n</w>
ev ol
A s</w>
ser v
sa ys</w>
v is
c le
lo gi
lear n</w>
e d
l ater</w>
ec ted</w>
N ew</w>
sear ch</w>
d es</w>
pic ture</w>
Ear th</w>
c ar</w>
p er</w>
m ach
ti s
Ch in
A ll</w>
l on
ic k
go es</w>
ch ar
reas on</w>
c u
cont in
pro cess</w>
de p
al most</w>
A l
dis co
si ons</w>
ch all
ir d</w>
compu ter</w>
el se</w>
a ff
a tive</w>
pro gra
enc es</w>
pro ject</w>
f ar</w>
vi de
tr u
fr on
hi gh</w>
pl ay
v ol
mar k
b illion</w>
l ing</w>
D NA</w>
c ra
c ent
c ells</w>
in side</w>
ol s</w>
en s</w>
in e
cl u
no thing</w>
m il
heal th</w>
ver se</w>
ic k</w>
proble ms</w>
loo ked</w>
pa ti
1 2</w>
min ut
m ind</w>
a in
1 1</w>
y et</w>
s um
organ iz
p at
tu res</w>
or der</w>
b ad</w>
glob al</w>
g l
of ten</w>
bus iness</w>
publi c</w>
plan et</w>
my self</w>
ac y</w>
em p
el e
di rec
6 0</w>
k in
commun ity</w>
s es</w>
lan gu
bot h</w>
s ed</w>
ur al</w>
f un
ex c
u al</w>
A r
f er
al ready</w>
our s</w>
f il
beau ti
ag es</w>
r an
i gh
chil d</w>
hi story</w>
sing le</w>
sa ying</w>
ur y</w>
ul ation</w>
ans wer</w>
an ding</w>
hop e</w>
ama zing</w>
al lo
os p
mon ths</w>
re member</w>
govern ment</w>
f ra
li es</w>
whe ther</w>
do c
incre di
0 ,000</w>
ide as</w>
bas ically</w>
le ad
f lo
er y</w>
wr ong</w>
o grap
ke ep</w>
grou p</w>
0 s</w>
loo ks</w>
hear d</w>
c es</w>
ti ce</w>
on ce</w>
with in</w>
di es</w>
ur ing</w>
as es</w>
some one</w>
op er
f re
ph ot
imag ine</w>
ac tion</w>
ge ts</w>
t able</w>
is su
ste ad</w>
Un ited</w>
mat ter</w>
ni ght</w>
ta tion</w>
ti l</w>
b ers</w>
ap e</w>
plac es</w>
beauti ful</w>
E n
op en</w>
t yp
d r
piec e</w>
br ing</w>
si x</w>
mo ther</w>
fi c</w>
ap pro
p ly</w>
po wer
was n</w>
buil t</w>
h und
ar ti
t un
tr ue</w>
won der
gu y</w>
divi du
du ce</w>
ir e</w>
M us
wor ds</w>
or i
und er</w>
o s</w>
in dividu
U .
ti ci
h y
c ess
mat eri
c anc
v o
t in
wor d</w>
nat ure</w>
h ouse</w>
vide o</w>
er ing</w>
b ly</w>
f el
P e
jo b</w>
l s</w>
spec ies</w>
n am
i on</w>
f ic
mus ic</w>
ri s
bec ame</w>
pro f
ch e
ta king</w>
stor ies</w>
is n</w>
happen ing</w>
8 0</w>
k new</w>
por t</w>
cou ple</w>
in no
h er
fri ends</w>
contro l</w>
vi ew</w>
ful ly</w>
si on
in k</w>
ar k</w>
k er</w>
th re
deci ded</w>
fi g
Inter net</w>
sti tu
per son
p ing</w>
do m</w>
un til</w>
tiv ity</w>
comple tely</w>
le vel</w>
it self</w>
gr ound</w>
de l</w>
ar ch
ru n</w>
c op
at s</w>
sh are</w>
langu age</w>
educ ation</w>
pos i
d ru
comp any</w>
m ust</w>
b ur
a w
Amer ica</w>
s s</w>
n ame</w>
ag ain
soci ety</w>
sh ed</w>
again st</w>
ad v
de v
the m
ou th</w>
our selves</w>
St ates</w>
w in
t on</w>
m ic
exper im
ph one</w>
g n
tr an
s ince</w>
j ects</w>
In dia</w>
wom an</w>
a st
fi el
L i
fron t</w>
sol u
lear ned</w>
ac tly</w>
19 9
canc er</w>
b ri
ne t
he ar</w>
re search</w>
2 5</w>
elec tr
dise ase</w>
dd le</w>
R e
every body</w>
oun ds</w>
ac c
na tional</w>
ques tions</w>
ch ing</w>
st op</w>
e ts</w>
re co
O kay</w>
st ems</w>
ap pe
be ha
t ors</w>
cl os
mo del</w>
tu al</w>
lar ge</w>
u r</w>
i se</w>
hear t</w>
ex actly</w>
c lim
in ing</w>
anim als</w>
wor ked</w>
lit er
cou ldn</w>
struc ture</w>
enti al</w>
s li
op port
o ce
fa ther</w>
an t
vers ity</w>
ver ed</w>
them selves</w>
p ul
in du
con si
r un
us es</w>
ap er</w>
k ers</w>
i ve</w>
some times</w>
b ed</w>
me as
cre ated</w>
h aps</w>
ec tive</w>
cep t</w>
st ra
kin ds</w>
ar ly</w>
ou ldn</w>
inno v
ec tion</w>
log ical</w>
h or
beha vi
pl es</w>
Y or
re li
tur ns</w>
stud ents</w>
hu ge</w>
h ours</w>
en ted</w>
ch ed</w>
li st
c le</w>
at e
st ate</w>
partic ular</w>
n er
stu dy</w>
f ar
diff ic
f ish</w>
t om
an ts</w>
str y</w>
w ar</w>
environ ment</w>
p ast</w>
at or</w>
a ir</w>
Th en</w>
kno wn</w>
ra ther</w>
every one</w>
comp an
chang ed</w>
Amer ican</w>
7 0</w>
thous ands</w>
in st
bas ed</w>
O K</w>
t -
ell ing</w>
some body</w>
j our
am oun
al ong</w>
le ast</w>
f und
de mo
C on
pro vi
ne ws</w>
eng ine
u es</w>
ro w</w>
qu i
en ing</w>
v ari
uni verse</w>
tur ned</w>
in ning</w>
s h</w>
f oc
b ar
pr in
ex t</w>
o thers</w>
e i
bec om
O h</w>
s ound</w>
s or
J o
f -
be h
p le
E u
l ots</w>
tic ally</w>
out side</w>
d ro
C A</w>
par ents</w>
p ot
m ing</w>
re st</w>
at ure</w>
i ma
ear ly</w>
war ds</w>
illi ons</w>
ta ken</w>
w on</w>
ga ve</w>
k ey</w>
d ent</w>
or d</w>
sy stems</w>
sc ale</w>
happ y</w>
re si
m ul
fig ure</w>
th y</w>
A f
nat ural</w>
G od</w>
commun ic
ul es</w>
ci ties</w>
b ab
vi ol
di g
lear ning</w>
in stead</w>
con ver
ar ed</w>
c ir
ta in
p ur
e mo
c ell</w>
col le
Chin a</w>
differ ence</w>
5 00</w>
j u
enti re</w>
cur r
mach ine</w>
bl ack</w>
F r
minut es</w>
si ze</w>
n on
di ence</w>
re g
mo ving</w>
me di
m ess
di st
pos ed</w>
beh ind</w>
see ing</w>
ma j
k ill
compan ies</w>
ac e
N or
G oo
t em
nee ded</w>
d ers</w>
re ality</w>
diffic ult</w>
beg inning</w>
I s
cent ury</w>
or din
O r</w>
f ree</w>
ta kes</w>
g le</w>
A u
rela tion
di ed</w>
lea ve</w>
h o
Yor k</w>
econom ic</w>
cl ose</w>
mo v
un ch</w>
m al</w>
bre a
beg an</w>
wh at
ima ge</w>
kno w
cul ture</w>
a ir
Y e
pop ulation</w>
1 8</w>
m ental</w>
i ous</w>
fin ally</w>
sy m
mark et</w>
b ility</w>
2 00</w>
per f
gu ys</w>
fe el
can not</w>
st ed</w>
per haps</w>
ey es</w>
se qu
eas y</w>
an ti
t ou
ter ms</w>
s cre
g ame</w>
W or
phot ograp
are a</w>
par ts</w>
m er</w>
le g
vi sion</w>
gi ven</w>
te am</w>
re gi
nee ds</w>
ver age</w>
un ity</w>
re l
fri end</w>
pat ter
p t</w>
y -
te ach
fiel d</w>
pri v
d uring</w>
n ers</w>
enc y</w>
as h
s our
w ers</w>
t est</w>
S ome</w>
En g
th ird</w>
de ath</w>
tr ac
b an
M o
re pres
oun d
mi ddle</w>
iz e</w>
at ten
T o
tiv ely</w>
d en</w>
bor n</w>
b ir
arch it
wonder ful</w>
an ci
wal k</w>
mo d
ch em
amoun t</w>
S .</w>
M a
cer tain</w>
c y
realiz ed</w>
sur vi
sur pri
me dia</w>
loc al</w>
L e
qu ick
D o</w>
B e
it h</w>
er a</w>
de fin
b el
A t</w>
c al
h ol
sel f-
fel t</w>
ac ter
inv ol
in clu
G re
gro w</w>
d ence</w>
s ha
in c
r ic
poli tical</w>
ne ur
know le
d -
power ful</w>
ne y</w>
sim ply</w>
gro w
en ge</w>
in f
ab or
o il</w>
lon ger</w>
c os
Pe ople</w>
pre dic
y our
pr ac
Ye ah</w>
se ven</w>
oo k</w>
con f
9 0</w>
m et</w>
l ost</w>
h ands</w>
uni ties</w>
de al</w>
as tic</w>
ob vi
T o</w>
wee k</w>
your self</w>
li sh</w>
ex tre
t ot
hum ans</w>
comm on</w>
U. S.</w>
in i
res our
li g
chang es</w>
I s</w>
Goo gle</w>
logi es</w>
h on
fl u
ut ting</w>
g one</w>
t elling</w>
rou ght</w>
mic ro
par t
grow th</w>
gr and
chall enge</w>
sol ution</w>
p as
on d</w>
d en
b loo
a il
a ds</w>
sp i
oce an</w>
interest ed</w>
a i
quick ly</w>
f ly</w>
S e
s il
pos si
des cri
m ol
m ed</w>
hum an
what ever</w>
fun c
ful l</w>
J ust</w>
de li
tri ed</w>
p tion</w>
opport unity</w>
m a</w>
car e
er ed</w>
s qu
s ite</w>
boo ks</w>
z ed</w>
st ing</w>
di e</w>
an tly</w>
wr it
wee ks</w>
tra di
sp ent</w>
ei ther</w>
b ack
p ay</w>
o -
e vi
sur face</w>
sp end</w>
mo vi
Y es</w>
S u
progra m</w>
per i
e ight</w>
ing ly</w>
gro wing</w>
econom y</w>
c ost</w>
wh ite</w>
for ward</w>
O ur</w>
u res</w>
ste p</w>
reli gi
al one</w>
ci vi
a z
ne igh
id enti
d ical</w>
sho ws</w>
lo w
con di
cle ar</w>
incredi ble</w>
sit ting</w>
ill s</w>
Mus ic</w>
qu e</w>
or ig
ig n</w>
a tional</w>
M ar
po or</w>
w ouldn</w>
val ue</w>
t ro
li ke
in ation</w>
f ur
s is</w>
behavi or</w>
g ed</w>
fi ed</w>
develop ed</w>
ul ts</w>
techno logies</w>
knowle dge</w>
hund re
em er
po in
are as</w>
b rought</w>
ab o
year -
sit u
fe et</w>
enti ally</w>
e f</w>
realiz e</w>
me dic
m os
i li
gir l</w>
gg est</w>
ris k</w>
es p
1 8
us h</w>
ra di
bu y</w>
b a
in stitu
fa il
as h</w>
spe ak</w>
phys ical</w>
g ar
fol lo
R ight</w>
1 0
for tun
an al
f as
en ding</w>
clim ate</w>
d om
gre en</w>
for ce</w>
comple x</w>
O n</w>
p sy
h ood</w>
ac cess</w>
N ot</w>
su per
in ten
N o
pl ant</w>
tur al</w>
pati ents</w>
a verage</w>
L a
re le
p aper</w>
gi ving</w>
am es</w>
di sc
ch es</w>
wr ite</w>
num bers</w>
imag es</w>
h old</w>
bl ue</w>
c at
a x
mol ec
s mar
pro duce</w>
fa v
P h
ro bo
com pe
sim il
im pro
su dd
st age</w>
scienti sts</w>
uc k</w>
sol ve</w>
k y</w>
gir ls</w>
b ene
star ting</w>
spe a
pre ci
n y</w>
fe ar</w>
com b
anim al</w>
t ar
mil es</w>
evol ution</w>
em ents</w>
con sci
su ff
N e
materi al</w>
liter ally</w>
ro c
reco gn
g ing</w>
me t
z y</w>
rop e</w>
n al</w>
hundre ds</w>
bo x</w>
M ay
mor ning</w>
el lig
atten tion</w>
1 6</w>
e at</w>
feel ing</w>
f y</w>
solu tely</w>
me an
m ine</w>
C an</w>
to m</w>
st e</w>
ch i
wat ch</w>
pr om
or ies</w>
individu al</w>
he ad
S ome
p an
gener ation</w>
op en
chang ing</w>
to ols</w>
per form
mov ement</w>
m al
1 4</w>
se ver
mul ti
g est</w>
underst anding</w>
ter ri
se ems</w>
loc k</w>
k id</w>
fund am
19 8
ut e</w>
ordin ary</w>
mo der
am s</w>
wr ote</w>
issu e</w>
man ag
r ate</w>
o d
E very
con v
au th
ur ity</w>
la w</w>
h osp
cre ating</w>
conver sa
A c
sup port</w>
for ms</w>
vo ice</w>
like ly</w>
f ast</w>
disco vered</w>
d ou
au dience</w>
mar ke
gre ss</w>
con sum
chall eng
ec h</w>
c ut</w>
ti z
indu stry</w>
Jo h
u ally</w>
mo ved</w>
i al</w>
res ult</w>
c li
D e
sp ir
g ger</w>
de f
re vol
Wor ld</w>
vi e
person al</w>
m illions</w>
gi ves</w>
at ors</w>
ma p</w>
h om
eas i
int ellig
bloo d</w>
car s</w>
cer tain
ri ed</w>
plan ts</w>
c ro
all s</w>
run ning</w>
pa in
est er
car b
b all</w>
ul arly</w>
sh ort</w>
f it</w>
ac hi
v ill
tin y</w>
re ly</w>
r an</w>
cen ter</w>
p ose</w>
anc es</w>
se a</w>
net work</w>
en ded</w>
tran sp
h and
al low</w>
the ma
rec ently</w>
n ice</w>
incre as
av ail
a vi
z er
st op
so on</w>
om s</w>
i sts</w>
uc le
st and</w>
develop ment</w>
dep end
su sta
as king</w>
l ate</w>
f em
bot tom</w>
oo t</w>
nor mal</w>
ex pres
H a
1 3</w>
d ly</w>
ou ght</w>
innov ation</w>
fil m</w>
d ark</w>
any one</w>
G e
o w
fre e
compu ters</w>
beg in</w>
pati ent</w>
li ved</w>
cho ice</w>
connec ted</w>
relation ship</w>
maj or</w>
l ess
dig ital</w>
de gre
de ep</w>
ab solutely</w>
o re
tal ked</w>
ech an
develop ing</w>
Eng lish</w>
op h
o x
grou ps</w>
ex ist
bo ard</w>
th ank</w>
Eu rope</w>
C om
p utting</w>
or ity</w>
l ab
expl ain</w>
b s</w>
y es</w>
nec ess
mi c</w>
chan ce</w>
2 4</w>
S h
year- old</w>
t op
il s</w>
gen e
the ory</w>
on y</w>
me et</w>
g en</w>
ec ture</w>
de ep
b at
U ni
us h
play ing</w>
l ines</w>
de st
B i
tre at
suc cess
sch o
imp act</w>
ec ting</w>
C ar
sho wed</w>
reas ons</w>
produc t</w>
col or</w>
avail able</w>
typ e</w>
n ucle
con cer
becom es</w>
b al
b acter
sever al</w>
see m</w>
sa ve</w>
fu n</w>
desig ned</w>
F ir
ic ans</w>
ha ven</w>
eff ect</w>
to wards</w>
simil ar</w>
sh ape</w>
m as
d ings</w>
P ar
on line</w>
la b</w>
y m
tici p
esp eci
especi ally</w>
tru th</w>
resour ces</w>
H I
m oun
h un
demo cr
gu e</w>
con struc
si a</w>
i de</w>
de ed</w>
ad es</w>
ver s</w>
ter m</w>
sour ce</w>
sm all
sh ar
ey e</w>
ce i
20 00</w>
viol ence</w>
s tic
s le
ro ad</w>
gi c</w>
ex tra
de m
Fir st</w>
t ele
r it
r .</w>
incredi bly</w>
fer ence</w>
fav or
experim ent</w>
dev ice</w>
c ool</w>
se x</w>
ma in</w>
l in
speci al</w>
p ass
m echan
en ly</w>
b an</w>
3 00</w>
wr iting</w>
comp as
b es</w>
appro ach</w>
Ch r
sec urity</w>
ra is
kno ws</w>
us ion</w>
read ing</w>
p ol
n u
ma thema
issu es</w>
di men
a de</w>
S outh</w>
B y</w>
wor th</w>
pic tures</w>
gu ess</w>
to wn</w>
t on
st ay</w>
r ules</w>
p en
bi gger</w>
mess age</w>
er ci
ar en</w>
eff ici
May be</w>
ti ves</w>
B ra
str ong</w>
invol ved</w>
h our</w>
gre at
g ot
b ul
tr ust</w>
mis sion</w>
foc us</w>
c ause</w>
be y
D i
u gg
me dical</w>
le y</w>
S A</w>
tri bu
s ent</w>
p oll
inv est
bab y</w>
b it
sho wing</w>
perf ect</w>
in spi
bey ond</w>
b lo
s end</w>
on to</w>
ri ghts</w>
ev en
situ ation</w>
do or</w>
susta in
jour ney</w>
c lear
P ro
19 7
st and
partic ularly</w>
m u
l and
co de</w>
ac coun
so f
sec re
pr os
in al</w>
de ad</w>
re ach</w>
ci tiz
pro cess
pot ential</w>
g es</w>
moder n</w>
com for
bas ic</w>
ac tive</w>
qu ality</w>
pres ent</w>
o es</w>
movi e</w>
i an</w>
comm unities</w>
beli ev
aliz ed</w>
tr al</w>
exam ples</w>
dri ve</w>
E very</w>
th o
s ounds</w>
ni fic
iz ed</w>
dru gs</w>
M ic
posi tion</w>
me ly</w>
li fe
li z
wal king</w>
sy n
stre et</w>
pro per
lar gest</w>
int ro
Chr is</w>
1 7</w>
str on
lead ers</w>
evi dence</w>
tre es</w>
sh ing</w>
h it</w>
cl ass</w>
an ks</w>
o kay</w>
de ta
G er
star ts</w>
sa fe</w>
le ad</w>
dru g</w>
carb on</w>
bre ak</w>
bi ggest</w>
T w
te ach</w>
scienti fic</w>
s w
comp lic
L ook</w>
w ish</w>
su g
r ap
prin ci
ch ec
HI V</w>
po ver
gre w</w>
fore st</w>
2 1</w>
s al
mon th</w>
dre am</w>
certain ly</w>
c ed</w>
any body</w>
shi ps</w>
per spec
non -
en ter
emp lo
democr acy</w>
Wh o</w>
rec or
ic ity</w>
hund red</w>
gra du
en sive</w>
wan ts</w>
devel op</w>
Chin ese</w>
Af ter</w>
meas ure</w>
char ac
O f</w>
um ent</w>
sk in</w>
sion al</w>
f le
exc iting</w>
w all</w>
po lic
pic k</w>
n ar
m ot
f all</w>
am ong</w>
T a
me ant</w>
li st</w>
ill ing</w>
fir e</w>
f er</w>
an ge</w>
Wh ere</w>
B ri
g al
conf lic
S te
J u
an n
al th</w>
H ar
t ree</w>
scho ols</w>
ac her</w>
spe ed</w>
i tion</w>
high er</w>
wi fe</w>
pover ty</w>
er e
do w
an e</w>
D on</w>
r ing</w>
di ag
B u
s ou
ro le</w>
high -
cl ass
E ven</w>
str ate
fur ther</w>
favor ite</w>
equ i
contin ue</w>
cho ose</w>
every where</w>
ear s</w>
ag ing</w>
st at
st anding</w>
robo t</w>
peri od</w>
osp here</w>
ob s</w>
nucle ar</w>
n ine</w>
cra zy</w>
cam era</w>
w ind</w>
fa ster</w>
ac ks</w>
J ap
th ro
t end</w>
pro jects</w>
obvi ously</w>
im medi
ex tr
de b
V ide
fortun ately</w>
an a</w>
Vide o</w>
H e
um p</w>
sol ar</w>
sho t</w>
off ice</w>
ob ject</w>
fi ght</w>
c in
S i
l ose</w>
it ary</w>
inter est</w>
f ing
ar ds</w>
M ars</w>
se par
k et</w>
er t</w>
ob jects</w>
li ar</w>
di an</w>
de t
com par
P er
1 .
s un
pl an</w>
j us
inclu ding</w>
ad d</w>
F ace
E x
too l</w>
t a</w>
st ore</w>
nam ed</w>
ir s</w>
ac tivity</w>
W i
w il
vel s</w>
sho wn</w>
gen es</w>
even tually</w>
bo y</w>
vill age</w>
tw are</w>
suc cess</w>
sk y</w>
s it</w>
r os
materi als</w>
fami lies</w>
buil dings</w>
at ures</w>
allo wed</w>
res ults</w>
leg al</w>
is tic</w>
fol low</w>
coll abor
c ases</w>
bi le</w>
B o
p ay
mod els</w>
cre ative</w>
Face book</w>
tot ally</w>
no tice</w>
l ay
kill ed</w>
is ms</w>
stud ent</w>
scre en</w>
ni a</w>
individu als</w>
extra ordinary</w>
compas sion</w>
Nor th</w>
D P</w>
u ght</w>
psy cho
piec es</w>
f ant
de ter
0 -
wor l
st ers</w>
sof tware</w>
cl in
al ing</w>
m ass</w>
contin u
as si
P o
wor se</w>
w in</w>
list en</w>
d ang
colle ag
we ver</w>
respon se</w>
re qui
complic ated</w>
a p</w>
W est</w>
C o
sc ri
medic ine</w>
ing ing</w>
ad dre
Ch ri
tradi tional</w>
ran ge</w>
minut e</w>
ess entially</w>
disc us
cri sis</w>
To day</w>
M ost</w>
j obs</w>
incre ase</w>
in te
conversa tion</w>
bacter ia</w>
b om
4 00</w>
w ood</w>
tim ate</w>
tem per
te acher</w>
ol der</w>
bo dies</w>
bio logy</w>
R o
wat ching</w>
wa it</w>
perspec tive</w>
g ri
sudd enly</w>
oun ded</w>
or m
mem ory</w>
en ter</w>
cont ext</w>
Th ose</w>
y ed</w>
ta ught</w>
sup posed</w>
smar t</w>
s ong</w>
r ich</w>
ph en
pa in</w>
organiz ation</w>
no body</w>
ma in
in come</w>
abo ve</w>
H o
C ol
ther e
ma tic</w>
fi gu
er ous</w>
archit ecture</w>
teach ers</w>
sp read</w>
r om
produc ts</w>
neigh bor
li gh
t es</w>
sh e
se x
lar ger</w>
gener al</w>
ac i
wi de</w>
vi sible</w>
sig nific
ro r</w>
g ain</w>
colle ge</w>
ari ly</w>
Af gh
sc en
par ticip
lo wer</w>
al ism</w>
M on
4 5</w>
n os
lo ved</w>
electr icity</w>
e ful</w>
de pres
con n
us ually</w>
sh ap
g as</w>
an g</w>
thous and</w>
t ells</w>
success ful</w>
sp ac
serv ice</w>
pro gress</w>
plan e</w>
mor al</w>
e ting</w>
con st
T V</w>
fundam ental</w>
fin ding</w>
e th
S o
wa ste</w>
in deed</w>
hosp ital</w>
fo ot
W ith</w>
Afr ican</w>
we b
stri bu
ke pt</w>
heal thy</w>
extre mely</w>
ar r
ali ve</w>
ac tions</w>
treat ment</w>
ne w
di stribu
A re</w>
1 9</w>
speci fic</w>
some where</w>
r en
ill ed</w>
exc ited</w>
ex ist</w>
d y
d on
Joh n</w>
Amer icans</w>
throu gh
ra tion</w>
prof es
mach ines</w>
inter national</w>
hi c</w>
g ames</w>
f oot</w>
b ing</w>
S p
wor kers</w>
ser ious</w>
se em
s l
patter n</w>
exp ect</w>
ear li
ab les</w>
str ugg
revol ution</w>
exp ensive</w>
allo ws</w>
tru ly</w>
tion ary</w>
produc tion</w>
neur ons</w>
jo y</w>
intellig ence</w>
writ ten</w>
sor ts</w>
priv ate</w>
photograp h
p age</w>
ou d</w>
go al</w>
R i
19 6
solu tions</w>
posi tive</w>
om en
happ iness</w>
got ten</w>
rec ord</w>
m ers</w>
h im
fin anci
compe ti
any more</w>
C ity</w>
w ell
ti tu
pres s</w>
ph il
f ru
conn ect</w>
vis ual</w>
sur g
recogn ize</w>
im possible</w>
3 D</w>
tra ining</w>
re fl
prot ect</w>
ous ness</w>
gh tly</w>
free dom</w>
dow n
ar m</w>
v ic
p lic
l er</w>
in flu
gal ax
ar ri
wit ter</w>
st om
poin ts</w>
patter ns</w>
min ds</w>
di versity</w>
M e
ver sion</w>
ple ase</w>
phen omen
in s
ici al</w>
en orm
der ed</w>
avi d</w>
ad ap
A d
t or
ser ies</w>
prot e
lon g
li ghts</w>
doc tor</w>
t ory</w>
su n</w>
sig n
secon ds</w>
provi de</w>
m ir
logi sts</w>
indu stri
great est</w>
exp lo
co ld</w>
ach ed</w>
W e
M i
3 5</w>
some how</w>
eff ective</w>
condi tions</w>
b unch</w>
ep ing</w>
con tribu
an i
wi se</w>
sp o
sk ills</w>
o h</w>
fam ous</w>
consi der</w>
ci es</w>
ther n</w>
star s</w>
m it</w>
in si
d aughter</w>
becom ing</w>
any where</w>
N A
we a
up on</w>
ter r
it ation</w>
grap h
e m</w>
challeng es</w>
wer en</w>
tou ch</w>
f ine</w>
d ow</w>
be ings</w>
I mag
v al</w>
s ell</w>
ri se</w>
la ws</w>
k ill</w>
g ent
flo or</w>
mil itary</w>
govern ments</w>
clear ly</w>
F or
D avid</w>
T witter</w>
on ic</w>
o logy</w>
h ic
cos ts</w>
cap it
au tom
ac tual</w>
G DP</w>
regi on</w>
re mark
m ent
h ot</w>
fe ed</w>
fac es</w>
f our
e ties</w>
dec ades</w>
L on
tra vel</w>
st y
sig n</w>
cal cul
5 ,000</w>
ye ah</w>
sen s
institu tions</w>
him self</w>
engine ering</w>
enc ed</w>
an ger</w>
W ar</w>
S a
won der</w>
l uc
d ance</w>
d a</w>
cri tical</w>
b and</w>
al ter
wal ked</w>
wa iting</w>
ur ban</w>
um ents</w>
pr ice</w>
m it
dri ving</w>
bra ins</w>
G o
1 50</w>
i m</w>
g ni
con sequ
P a
un e</w>
stu dies</w>
st ance</w>
ph ones</w>
on e-
n ot
human ity</w>
fami liar</w>
curr ent</w>
aw are</w>
v ely</w>
underst ood</w>
tre at</w>
sub ject</w>
small er</w>
il ing</w>
e ma
ac ity</w>
ther ap
polic y</w>
mas sive</w>
jus tice</w>
dise ases</w>
dang erous</w>
as p
am p
R us
t y
si bility</w>
se m
ou ra
fas cin
do g</w>
ar ies</w>
val ues</w>
spea king</w>
poli ce</w>
in a</w>
con cept</w>
c as
ari a</w>
A no
ve hic
v acc
tr ou
re cei
ini ti
cap ital</w>
C an
Ano ther</w>
tra in</w>
through out</w>
serv ices</w>
p ped</w>
ist an</w>
ili ties</w>
i shed</w>
c ele
beau ty</w>
we ight</w>
vir us</w>
s low</w>
l ands</w>
direc tion</w>
bot s</w>
r ot
inv ented</w>
financi al</w>
ess es</w>
equ ality</w>
cle an</w>
as ed</w>
Imag ine</w>
E ast</w>
z z
sh ared</w>
s ent
no tic
mean ing</w>
immedi ately</w>
en ting</w>
dec ade</w>
comple te</w>
citiz ens</w>
am a</w>
Uni versity</w>
thre e-
progra ms</w>
organiz ations</w>
fant astic</w>
eri a</w>
bri dge</w>
s we
pr ene
f low</w>
to -
there fore</w>
th i
t ext</w>
t ex
sustain able</w>
su e</w>
s mo
cont ent</w>
cl es</w>
b its</w>
ag ed</w>
a id</w>
J e
y a</w>
stre ets</w>
man u
hi stor
fin al</w>
es ti
aliz ation</w>
ac ting</w>
W ester
uni que</w>
h ur
T u
Li ke</w>
sa m
ric ul
mos tly</w>
le vels</w>
for th</w>
follo wing</w>
ar tic
tw o-
tion ed</w>
s us
ro bots</w>
re por
mo bile</w>
me ters</w>
gre ater</w>
c lo
af ter
P S</w>
C ali
x i
mo m</w>
mi sta
mi le</w>
land sc
en se</w>
di o</w>
d ying</w>
con ven
an z
Wh ich</w>
Lon don</w>
rec ent</w>
mat h</w>
log ist</w>
in fra
ent re
earli er</w>
depend ent</w>
al es</w>
K en
Afgh an
tri c</w>
ta ins</w>
r ace</w>
me eting</w>
l os
gene tic</w>
entre prene
dest ro
ac ci
TE D
Cali for
Afghan istan</w>
zer o</w>
ur s</w>
sti c</w>
play ed</w>
pe ace</w>
par a
o id</w>
ma m
le gs</w>
hel ped</w>
expl or
eng th</w>
deci sions</w>
ag ricul
I D
200 8</w>
tu m
tr ack</w>
re duc
ox y
func tion</w>
e um</w>
bene f
vari ous</w>
us eful</w>
ot h</w>
ma gic</w>
deci sion</w>
cop e</w>
connec tion</w>
appe ar</w>
An y
wh ose</w>
well -
ra ise</w>
pa ir</w>
li e</w>
jour n
enc oura
en ess</w>
W om
R a
s la
s at
re qu
pul l</w>
l ad
conflic t</w>
cho ices</w>
b loc
anc ed</w>
a th
terri ble</w>
re sear
poli tics</w>
ne u
ex cept</w>
cre a
cep tion</w>
Califor nia</w>
C am
B ro
perform ance</w>
ne ar</w>
li ber
direc tly</w>
de mon
d a
V i
S econ
M any</w>
7 5</w>
the tic</w>
tech ni
sum mer</w>
n ation</w>
h ous
fa ir
enorm ous</w>
cor por
comm it
ar g
a head</w>
- year-old</w>
tra vel
st ates</w>
for get</w>
environ mental</w>
co ver</w>
tra ff
stop ped</w>
pres sure</w>
gre s
ag ree</w>
tele vision</w>
soci eties</w>
secre t</w>
ri c</w>
qu ar
e ding</w>
communic ate</w>
colleag ues</w>
bu t
app ed</w>
and a</w>
anc y</w>
ag re
Ch ar
we alth</w>
st res
religi on</w>
rel ated</w>
h ole</w>
en ch</w>
effici ent</w>
consci ousness</w>
c ot
ac ked</w>
F rom</w>
9 9</w>
ta tions</w>
str ange</w>
seem ed</w>
pri son</w>
oo ds</w>
g ate</w>
em br
d ness</w>
d ate</w>
cr os
care er</w>
at ory</w>
any way</w>
al g
2 .
teach ing</w>
marke ts</w>
list ening</w>
en tation</w>
con tr
Bra z
we ap
sh or
pr int</w>
it es</w>
inst ance</w>
fu el</w>
ast er
N ational</w>
20 10</w>
w illing</w>
tre m
survi ve</w>
s at</w>
produc ed</w>
pl at
fi gh
e e</w>
doll ar</w>
as soci
al ist</w>
Th e
typ es</w>
temper ature</w>
infra structure</w>
form ed</w>
fl ying</w>
clos er</w>
am bi
wor ry</w>
prac tice</w>
m osphere</w>
l u
in str
dra w</w>
ac ts</w>
S ch
R ic
B er
A b
we b</w>
sli de</w>
l ying</w>
experim ents</w>
at mosphere</w>
Y our</w>
Ge or
6 00</w>
wor k
remark able</w>
ra id</w>
pre v
photograp h</w>
mem bers</w>
inspi red</w>
Q u
ot yp
l a</w>
f la
ec tively</w>
att ack</w>
Wester n</w>
Tw o</w>
Th ink</w>
M c
Eu ro
s wit
pa id</w>
hel d</w>
expl ore</w>
exp ected</w>
doc tors</w>
communic ation</w>
bi li
b le
arti st</w>
addre ss</w>
a -
pre par
p e</w>
manu fac
m el
li c</w>
k il
cam pa
ap art</w>
Ta ke</w>
tur ning</w>
sug ge
os y
l ack</w>
dd en</w>
bir th</w>
ali a</w>
al though</w>
ac cep
tim ately</w>
sa fe
h ot
cor rec
I T</w>
C E
wor st</w>
tu red</w>
phys ics</w>
p ath</w>
net works</w>
n it
f ying</w>
degre es</w>
cap acity</w>
O b
G u
2 2</w>
us i
stra ight</w>
pre si
fem ale</w>
ex ten
ev ent</w>
diag nos
c au
bas is</w>
web site</w>
w is
w el
shar ing</w>
li ed</w>
l am
eff ects</w>
d rop
cul tural</w>
ass um
ans wers</w>
S y
M an</w>
In stead</w>
1 000</w>
trans l
ti l
sup ply</w>
ser ve</w>
re ma
publi shed</w>
orig inal</w>
lo ad</w>
iz ation</w>
deci de</w>
br inging</w>
bel ow</w>
anci ent</w>
af raid</w>
M an
C O
x es</w>
tis h</w>
tech n
s -
pas sion</w>
obvi ous</w>
notic ed</w>
chem ical</w>
ar t
H is</w>
1 5
st o
sle ep</w>
signific ant</w>
ru le</w>
ori th
me th
inte gr
el lit
dro p</w>
comm erci
comfor table</w>
b ought</w>
O r
I ra
uni vers
tu m</w>
stic k</w>
re pe
pl astic</w>
p al
differ ently</w>
di tion</w>
contro l
al -
sli ghtly</w>
mo tiv
ess ed</w>
dy nam
alg orith
A t
ter ed</w>
str ic
st er
qu ick</w>
par ty</w>
me ter</w>
man i
high ly</w>
h us
fe els</w>
d ad</w>
anal y
D r.</w>
un g</w>
ul ate</w>
ter y</w>
t an
squ are</w>
scienti st</w>
p ush</w>
p ush
n ur
ing ton</w>
hear ing</w>
g er
for ces</w>
car ry</w>
c o</w>
b one</w>
ac tiv
vic ti
sat ellit
long -
la w
f os
disco ver</w>
an k
ali ties</w>
sur r
ound ation</w>
ot ing</w>
ne arly</w>
dev ices</w>
desig ners</w>
cor ner</w>
con duc
bio logical</w>
be es</w>
S an</w>
Gre at</w>
B ar
struc tures</w>
experi ences</w>
comple x
charac ter</w>
cele br
ca uses</w>
Is ra
G PS</w>
1 ,000</w>
tw ice</w>
shi ft</w>
ra in</w>
r ying</w>
ph o
o ds</w>
n a</w>
j ec
he at</w>
evol ved</w>
emo tional</w>
em is
c y</w>
bro ken</w>
b la
trem end
stor s</w>
radi o</w>
phil os
molec ules</w>
fi x</w>
e ating</w>
differ ences</w>
cri min
con serv
comp on
cen tral</w>
achi ev
Y ou
t al</w>
sup por
sho c
r a</w>
le t
il ed</w>
hel ping</w>
d ents</w>
st ation</w>
spe ech</w>
re turn</w>
progra m
neigh b
necess ary</w>
la un
gen e</w>
bl ind</w>
2 ,000</w>
1 0,000</w>
sty le</w>
sol di
s ick</w>
relation ships</w>
pur pose</w>
intro duc
complex ity</w>
19 5
possi bly</w>
organ isms</w>
or ts</w>
lic ations</w>
l at
gen ome</w>
app ly</w>
NA SA</w>
F in
st ar</w>
sp ending</w>
respon sibility</w>
pain ting</w>
moun tain</w>
mag az
ha ir</w>
easi ly</w>
Jap an</w>
Au str
t ask</w>
so ld</w>
pop ular</w>
p ping</w>
op tim
na tive</w>
impro ve</w>
gu n</w>
far mers</w>
es sion</w>
eng age</w>
cu stom
con fi
bir ds</w>
achi eve</w>
ab ilities</w>
Euro pe
200 9</w>
terr or
se t
op pos
nu tri
easi er</w>
cor ru
T ur
E l
ro l
landsc ape</w>
in tu
i Ph
ha m
gra de</w>
f lies</w>
dom in
In dian</w>
pass ed</w>
oper ation</w>
mis sing</w>
lead ing</w>
fun ny</w>
for mation</w>
fas hi
d ar
con ference</w>
c oo
bo ys</w>
ach ing</w>
ac ti
M ex
v ul
tot al</w>
neighbor hood</w>
gr y</w>
gl ass</w>
fore ver</w>
el low</w>
chil d
b ble</w>
ai m</w>
Th anks</w>
H ey</w>
1 ,
surg ery</w>
su me</w>
respon d</w>
rais ed</w>
lim ited</w>
el ess</w>
x ed</w>
tici ans</w>
te en
ro oms</w>
r ac
no tion</w>
civi liz
br ings</w>
ach es</w>
resear ch
re duce</w>
n one</w>
cre ates</w>
200 7</w>
ver ing</w>
val u
stand ard</w>
re -
in sec
foc used</w>
f ab
an ce
F i
tri al</w>
tran si
ste in</w>
pri mar
par k</w>
kil ome
enti rely</w>
e f
e dge</w>
crea tivity</w>
civi l</w>
bus in
at ch</w>
ap h
ad a</w>
B r
z en</w>
ti n</w>
on g
j a
fin ished</w>
des p
defin ition</w>
car to
bu d
aliz e</w>
strate gy</w>
rou gh
possi bility</w>
p rou
mom ents</w>
mat ters</w>
k a</w>
gen der</w>
ear th</w>
descri be</w>
adv ant
Ho wever</w>
1 7
us ual</w>
o ther
m ale</w>
luc ky</w>
jo in</w>
gi ant</w>
cro w
ass es</w>
M S</w>
win dow</w>
open ed</w>
op s</w>
ne l</w>
l oss</w>
in ci
figu red</w>
ari an</w>
Some times</w>
vol un
trou ble</w>
tis sue</w>
su it</w>
sit es</w>
plac ed</w>
p ass</w>
mar ri
maj ority</w>
kno wing</w>
ke t
in j
f ro
cy cle</w>
cri me</w>
bab ies</w>
ac cur
O ver</w>
we ar</w>
tur ing</w>
stre am</w>
so il</w>
re fu
ple as
opport unities</w>
it ch
iPh one</w>
ha bit
exp ec
ear ing</w>
degre e</w>
bal ance</w>
arti sts</w>
Ac tually</w>
2 7</w>
tra de</w>
tion ally</w>
qu es</w>
meas u
in dic
import antly</w>
imag ination</w>
identi ty</w>
go l
f all
au l</w>
W ash
E g
CO 2</w>
worl d
u le</w>
t ons</w>
stud ying</w>
ju d
i ously</w>
har d
gra v
co ff
chec k</w>
and -
T al
ID S</w>
H u
Fr anc
vis it</w>
sa ving</w>
resp ect</w>
religi ous</w>
di sp
c ore</w>
c lic
ad op
Wash ington</w>
Ric hard</w>
w alls</w>
u tionary</w>
sh el
ri ver</w>
off er</w>
necess arily</w>
invest ment</w>
ig n
consci ous</w>
ce ive</w>
bl ed</w>
aff ord</w>
acti vi
pre vi
oppos ite</w>
le tter</w>
figh ting</w>
et c</w>
en ed</w>
e th</w>
Ira q</w>
6 5</w>
-c on
sta tis
se ts</w>
roc k</w>
my st
fic ation</w>
fair ly</w>
extr a</w>
ent ally</w>
desp ite</w>
call s</w>
c um
bo at</w>
bl ing</w>
b illions</w>
b ank</w>
T i
Fr ench</w>
Bri tish</w>
Au dience</w>
A sia</w>
A le
vir tual</w>
tremend ous</w>
su m</w>
st uck</w>
low -
grap h</w>
ga tive</w>
coll ap
ul timately</w>
new sp
hy dro
ess or</w>
er ship</w>
cre d
br and</w>
ali sts</w>
S ha
H um
wil d</w>
tra ined</w>
suff ering</w>
respon sible</w>
ou l
on -
it ely</w>
industri al</w>
gent le
engine ers</w>
ema il</w>
ang ing</w>
Secon d</w>
R ob
M IT</w>
Europe an</w>
D ar
A gain</w>
th row</w>
t ent</w>
st one</w>
plan ets</w>
par al
oc k</w>
mo on</w>
li f
for d</w>
for ced</w>
emo tions</w>
dist ance</w>
col ors</w>
be d
Se e</w>
tre ated</w>
phenomen on</w>
le ts</w>
ke ts</w>
equ al</w>
e fully</w>
di sa
deter min
cre ation</w>
c ard</w>
as sem
ap preci
y ellow</w>
surpri se</w>
rele v
re port</w>
r in
p ounds</w>
no ise</w>
hol ding</w>
f ically</w>
d i</w>
cha ir</w>
cat ch</w>
benef its</w>
Tu be</w>
L in
um s</w>
ul ations</w>
spac es</w>
re ve
prou d</w>
nor m
nar ra
nam es</w>
mal aria</w>
inv est</w>
in visible</w>
ep ide
eff ort</w>
ec osy
du e</w>
disco very</w>
ci ence</w>
bro ad
believ ed</w>
back ground</w>
att emp
anc ing</w>
ac king</w>
N ig
M al
Li fe</w>
L o
B ill</w>
A IDS</w>
val ent</w>
ic o</w>
f illed</w>
f ill</w>
ex hi
dem and</w>
compar ed</w>
coll ective</w>
cl a
cau ght</w>
campa ign</w>
c ell
bene fit</w>
b ase</w>
am ing</w>
We b</w>
On ce</w>
Geor ge</w>
A n</w>
0 .
suc ce
or row</w>
n ote</w>
ke e
int ell
extre me</w>
expl a
el ements</w>
dre ams</w>
des er
bili ties</w>
b lock</w>
all ed</w>
Eg yp
D id</w>
C oun
v ast</w>
r ay</w>
quot e</w>
ici an</w>
hel ps</w>
fail ure</w>
el er
dimen sional</w>
depres sion</w>
b on
ar m
app ing</w>
T im
Ha ve</w>
C l
un fortunately</w>
ul ous</w>
stu died</w>
sor ry</w>
sen si
pho to</w>
oper ate</w>
mo ves</w>
in -
hi dden</w>
consequ ences</w>
competi tion</w>
co m</w>
Mus li
M r.</w>
Braz il</w>
2 3</w>
wh om</w>
transp or
ta il</w>
predic t</w>
oxy gen</w>
lea ds</w>
he av
fac ts</w>
der son</w>
d el
cre atures</w>
br illi
an -
V ery</w>
th in</w>
ste ps</w>
sec tor</w>
o logical</w>
mo thers</w>
manag ed</w>
ha s
h a</w>
g lo
fac tory</w>
ex tin
do ws</w>
de a
che ap</w>
bro ther</w>
br an
ar ms</w>
ar gue</w>
an o</w>
aff ect</w>
P le
F e
sig nal</w>
sa v
s and</w>
m ouse</w>
it able</w>
hus band</w>
gener ate</w>
fre qu
ev ents</w>
child hood</w>
agricul ture</w>
20 11</w>
un k</w>
m es</w>
less on</w>
lab or</w>
d ama
dama ge</w>
condi tion</w>
brea k
P aul</w>
G ood</w>
transp ar
l ap
im m
enc ing</w>
co gni
beli ef</w>
b ru
arti f
ap ers</w>
You Tube</w>
ys is</w>
sign als</w>
sh ouldn</w>
s low
refu ge
perf ec
part ment</w>
organiz ed</w>
organ ic</w>
mo tion</w>
lea ving</w>
j um
il e
hor ri
ge ly</w>
f li
al o
S we
P al
K .</w>
sudd en</w>
r ates</w>
plan ning</w>
n e</w>
lead ership</w>
ke eping</w>
inter act</w>
fascin ating</w>
f light</w>
every day</w>
dri ven</w>
concer ned</w>
accoun t</w>
Th ree</w>
200 5</w>
wa ke</w>
trans form</w>
struc tion</w>
sta ur
separ ate</w>
re staur
min i
men tioned</w>
mar ried</w>
magaz ine</w>
lead er</w>
kilome ters</w>
inv ited</w>
inv en
ici ans</w>
gg ing</w>
extin c
deep ly</w>
coff ee</w>
cha in</w>
be ar</w>
K i
0 0
thre at</w>
ner v
fore ign</w>
fa ir</w>
engine er</w>
ec u
e k</w>
e g
demo cra
c ru
acc eler
S tre
Ger many</w>
A m
titu de</w>
tal ity</w>
st ood</w>
sho p</w>
sc ul
s ons</w>
pu zz
pro found</w>
plat form</w>
fore sts</w>
follo wed</w>
en joy</w>
consi dered</w>
clos ed</w>
O l
M ore</w>
Bi g</w>
An derson</w>
2 1
y er</w>
typ ical</w>
traff ic</w>
t ough</w>
sm ell</w>
se ly</w>
re plic
p ra
oc cur
mi d
inv esti
har der</w>
h i</w>
gener ations</w>
fail ed</w>
ex ists</w>
er -
deli ver</w>
const antly</w>
commerci al</w>
char ge</w>
busin esses</w>
an tum</w>
A ma
3 2</w>
tri p</w>
to x
tion ing</w>
surpri sing</w>
sp ot</w>
ser iously</w>
s y</w>
s ac
repres ent</w>
ran dom</w>
pre gn
g ay</w>
fiel ds</w>
d ol
contin ent</w>
beg ins</w>
be at</w>
am i</w>
G r
Every body</w>
E ach</w>
vul ner
ver si
tar get</w>
re m
pic ked</w>
pa int</w>
p ha
mi gr
i ed</w>
h ate</w>
ai ly</w>
K ore
Every thing</w>
200 4</w>
19 4
uni versity</w>
sion ate</w>
ro ll</w>
prev ent</w>
ne gative</w>
movi es</w>
le -
iz ing</w>
he ads</w>
gro wn</w>
far m</w>
a de
we ird</w>
tis m</w>
th ir
st ay
se as
pu ts</w>
prot otyp
prac tic
pl us</w>
oce ans</w>
oc cu
it or</w>
fol ks</w>
direc t</w>
d le</w>
conv inc
cap able</w>
call ing</w>
ate g
V al
P ri
Mex ico</w>
I S
x im
sus p
stitu te</w>
resi dent</w>
laun ched</w>
ha dn</w>
gh t
gen cy</w>
fe ed
f old</w>
f ell</w>
er as</w>
elec tric</w>
descri bed</w>
cir cle</w>
b ird</w>
ad ver
1 4
ur ch</w>
sym bo
survi val</w>
slow ly</w>
si ght</w>
sequ ence</w>
proper ty</w>
prof it</w>
ograp h
n an
fl u</w>
en cies</w>
char acter
ca used</w>
ag s</w>
advant age</w>
I I</w>
H i
therap y</w>
sol ved</w>
presi dent</w>
other wise</w>
mic ros
intell ec
hom es</w>
exper ts</w>
def ine</w>
deb ate</w>
curr ently</w>
cop y</w>
appe ared</w>
ad ults</w>
Wom en</w>
E in
Austr alia</w>
200 6</w>
v ac
tal ks</w>
s ul
s pl
philos oph
ob s
me at</w>
increas ingly</w>
g ly</w>
ester day</w>
emplo ye
be t</w>
av oid</w>
ac cept</w>
a stron
W ould</w>
The ir</w>
P i
viol ent</w>
ten s</w>
surpri sed</w>
stres s</w>
spir it</w>
scul p
safe ty</w>
research ers</w>
produc tive</w>
on ed</w>
met aph
ki d
identi fy</w>
fing er</w>
est ab
ess ential</w>
desig ning</w>
d aily</w>
coun t</w>
cl oud</w>
W al
G i
E m
wor ried</w>
w earing</w>
un less</w>
t ac
si ster</w>
reg ular</w>
re action</w>
r ural</w>
phot os</w>
mathema tics</w>
mat ch</w>
inter pre
ill u
has n</w>
fashi on</w>
ef s</w>
construc tion</w>
co vered</w>
civiliz ation</w>
b y
5 000</w>
u b
ser ved</w>
sent ence</w>
ra in
pay ing</w>
partic les</w>
oun ding</w>
multi ple</w>
micro bes</w>
lea ves</w>
l au
j e
gradu ate</w>
en ever</w>
cir cu
c ateg
b us</w>
anti bio
Mic ha
vehic le</w>
uc ks</w>
tom orrow</w>
sec tion</w>
recei ved</w>
princi ple</w>
perfec tly</w>
p oo
norm ally</w>
mag ne
is co</w>
im pres
hon est</w>
exist ence</w>
dra wing</w>
con cep
b allo
appro pri
ang le</w>
G o</w>
Ch il
s ity</w>
prote in</w>
p ages</w>
m outh</w>
j ump</w>
is es</w>
inter action</w>
i P
equi valent</w>
em pa
el et
el es
dou b
car ds</w>
ber g</w>
S cot
P M</w>
Ein stein</w>
B rit
A s
vis u
v oc
us ers</w>
strugg le</w>
st -
sig ned</w>
scen e</w>
or ders</w>
marri age</w>
ga p</w>
f al
experi enced</w>
demon str
cor ding</w>
cont act</w>
Can ada</w>
C ome</w>
wis dom</w>
wat ched</w>
volun te
so li
requi res</w>
qu antum</w>
process es</w>
neur os
ma tically</w>
loc ation</w>
li br
l ay</w>
l augh
insec ts</w>
influ ence</w>
h ell</w>
g ation</w>
doc um
de aling</w>
arri ved</w>
arg ument</w>
ad ed</w>
Tim es</w>
M il
10 0,000</w>
wa ves</w>
wa ve</w>
thre at
spec tr
shi f
sh es</w>
sel ling</w>
princi ples</w>
mus eum</w>
it ting</w>
h ome
co c
bre ad</w>
I tal
D o
2 6</w>
2 50</w>
. com</w>
- up</w>
x ing</w>
vo ices</w>
v e-
spo ke</w>
sex ual</w>
sc an
ri d</w>
relev ant</w>
re f
par ent</w>
oper ating</w>
mor tality</w>
hy po
galax ies</w>
erci se</w>
din ner</w>
d ry</w>
coun ter
comp os
bl es</w>
at ur
artif icial</w>
ab led</w>
vie ws</w>
to ward</w>
the sis</w>
techn ical</w>
te sting</w>
t ol
sym me
ra tional</w>
produc ing</w>
po c
p it
op ening</w>
op e</w>
nerv ous</w>
mat es</w>
le g</w>
l abor
hop efully</w>
h an
g el
fra me</w>
ex ercise</w>
dou ble</w>
des ire</w>
deep er</w>
comp are</w>
coll ect</w>
clin ical</w>
cl assi
artic le</w>
a war
U. K.</w>
I ran</w>
D es
B os
um in
ul ated</w>
thin ks</w>
res h</w>
prom ise</w>
os ity</w>
or d
molec ule</w>
man age</w>
langu ages</w>
inter ven
increas ing</w>
hous es</w>
ge on</w>
fel low</w>
es ome</w>
emer ging</w>
ech no
corru ption</w>
cir cum
chem i
c ure</w>
brilli ant</w>
bl in
a k
R es
H er
D oes</w>
B C</w>
weap ons</w>
ur ies</w>
sym p
set t
s wi
reas on
ot ed</w>
logi c</w>
is ol
i or</w>
grand mother</w>
go ti
er r
din os
deta il</w>
col on
ar ity</w>
ann oun
al ed</w>
S ince</w>
Ama z
9 5</w>
war ming</w>
vari ety</w>
sa d</w>
p id</w>
ne ath</w>
mar k</w>
l or
ga ther
connec tions</w>
c lock</w>
as ks</w>
air plane</w>
Ken ya</w>
F ri
D H</w>
3 .
3 ,000</w>
200 3</w>
vers us</w>
univers al</w>
si an</w>
re ci
re al
profes sional</w>
om y</w>
meth od</w>
met al</w>
lay er</w>
ki st
ke ys</w>
in dependent</w>
i ly</w>
hol es</w>
galax y</w>
fac ing</w>
ex plan
econom ics</w>
desig ner</w>
cred it</w>
bre ast</w>
P resident</w>
Franc isco</w>
20 th</w>
0 0,000</w>
y ers</w>
techni ques</w>
t ech</w>
swit ch</w>
su ggest</w>
sp on
soldi ers</w>
si des</w>
satellit e</w>
ris ks</w>
rele ase</w>
pres er
possi bilities</w>
oph is
ophis tic
ne goti
n ations</w>
mess ages</w>
lic ation</w>
l unch</w>
intro duce</w>
fri end
feel ings</w>
evol utionary</w>
di r
d est</w>
cam eras</w>
bloc ks</w>
alter native</w>
Micha el</w>
D .</w>
ve ge
tic a</w>
sh oul
sa ved</w>
s ophistic
m illi
let ters</w>
imp anz
high est</w>
em ber</w>
eff ectively</w>
ad ult</w>
Stre et</w>
M at
B as
v ement</w>
under neath</w>
thou ghts</w>
te x</w>
process ing</w>
pro ve</w>
power ed</w>
ou se
mus cle</w>
ic ks</w>
go ld</w>
fin ish</w>
cre te</w>
cl usion</w>
cl aim</w>
chemi stry</w>
C ould</w>
C or
B l
z one</w>
wea ther</w>
sw im
speci fically</w>
sour ces</w>
shap es</w>
s outh</w>
r are</w>
priv ile
p ment</w>
mean ing
in equality</w>
import ance</w>
g on
g all
dist inc
des ert</w>
charac ters</w>
bro ke</w>
aff ected</w>
Ple ase</w>
z es</w>
si x
sen ding</w>
s an
po e
mo di
los ing</w>
intellec tual</w>
in ner</w>
g an
cur ious</w>
b ound
ac tor</w>
Su n</w>
20 12</w>
2 8</w>
19 60</w>
1 20</w>
w est</w>
r hy
ob serv
j ective</w>
is land</w>
id ly</w>
ic als</w>
fa ith</w>
e ds</w>
dr ink</w>
d ots</w>
b right</w>
b ar</w>
ar re
a ti
J ames</w>
200 1</w>
2 9</w>
1 6
y esterday</w>
vi a</w>
v ote</w>
tr illion</w>
stra tion</w>
str ength</w>
sp ring</w>
sho es</w>
ro b
neu ro
mov ements</w>
li qu
kill ing</w>
intellig ent</w>
associ ated</w>
adv anced</w>
acci dent</w>
y wood</w>
vol u
sc ared</w>
rec y
ra m
qu it
organ ism</w>
no w
manag ement</w>
l ink</w>
l as
heav y</w>
grand father</w>
feed back</w>
fa il</w>
expres sion</w>
eng ine</w>
electr ical</w>
dynam ic</w>
dol ph
deta ils</w>
cou ra
chem icals</w>
ch r
ab str
Y et</w>
S er
Pa kist
J an
Isra el</w>
ul l</w>
rem ote</w>
rela tively</w>
radi ation</w>
pro ce
pri son
poli ticians</w>
per s</w>
long- term</w>
four th</w>
epide mic</w>
emis sions</w>
dis ci
coll ection</w>
co al</w>
ac ted</w>
Mi ddle</w>
C .</w>
B ab
3 3</w>
sk elet
si vely</w>
por tra
pe t</w>
p p
nor th</w>
narra tive</w>
life time</w>
gi es</w>
ere as</w>
emp ty</w>
ch impanz
bi a</w>
L ast</w>
J os
G lob
y n</w>
victi ms</w>
v es
sensi tive</w>
se at</w>
rough ly</w>
ri es</w>
poin ted</w>
pic ally</w>
om as</w>
medi um</w>
m as</w>
k ne
in her
grap hic</w>
go ods</w>
fi re
es h</w>
ele ph
e li
distribu tion</w>
dimen sions</w>
cul tures</w>
ap art
amp ;</w>
ab sol
K e
Jap an
A R
7 00</w>
& amp;</w>
world wide</w>
un it</w>
t ables</w>
ro ads</w>
repres ents</w>
ol a</w>
n ose</w>
ma kers</w>
increas ed</w>
hosp it
heal th
form ing</w>
exist ing</w>
es tim
disci pl
conversa tions</w>
ci l</w>
cen ters</w>
anal o
Char les</w>
8 00</w>
20 50</w>
w ings</w>
valu able</w>
terror ism</w>
rap idly</w>
prof essor</w>
previ ous</w>
pl ays</w>
p tions</w>
or al</w>
oc cas
li shed</w>
lad y</w>
inv ent</w>
in fin
h os
gre en
g or
g ment</w>
exp an
equi pment</w>
ent ure</w>
employe es</w>
el ed</w>
dre w</w>
cha m
care fully</w>
ba g</w>
aw ful</w>
autom a
ad dition</w>
Tal k</w>
P or
wonder ing</w>
wh el
vide os</w>
um ber</w>
the ater</w>
st y</w>
re min
qu a
pe dia</w>
org an</w>
mem ber
ma ster</w>
m aps</w>
inter face</w>
f resh</w>
expres s</w>
ex act</w>
e u
defin ed</w>
ac le</w>
ac comp
Chri sti
C enter</w>
An gel
vacc ine</w>
v est
tum or</w>
stu pid</w>
se tting</w>
org ans</w>
open -
oo m</w>
nat ur
is ed</w>
dep ends</w>
defin itely</w>
cr uc
consum ption</w>
cogni tive</w>
cen tr
car rying</w>
cap ture</w>
b ic
anal ysis</w>
Chri st
v ey</w>
symp tom
ste el</w>
statis tics</w>
s lo
re ven
re a
over whel
molec ular</w>
mi x</w>
it i</w>
intu i
in ary</w>
i ds</w>
gentle men</w>
fos si
convinc ed</w>
bud get</w>
absol ute</w>
M u
CE O</w>
us ive</w>
te eth</w>
tan e
spectr um</w>
sc ar
resi stance</w>
requ ire</w>
r ound</w>
men ted</w>
h ouse
gra tion</w>
ent y</w>
co ast</w>
awar eness</w>
at trac
aster n</w>
T om</w>
S im
G al
Fr ance</w>
Brit ain</w>
B F</w>
At lan
- like</w>
ti ll</w>
t les</w>
sam ple</w>
rhy th
recor ded</w>
re main</w>
pre -
pot entially</w>
part ner</w>
min ist
manufac turing</w>
kee ps</w>
k itch
in sur
ho wever</w>
gr an
g un
es cap
en jo
dri ver</w>
de -
cr oss</w>
consi st
compon ents</w>
bu ying</w>
behavi ors</w>
att acks</w>
ad ly</w>
activi ties</w>
S tu
vie wed</w>
v an</w>
tw e
tr ick</w>
ti ous</w>
ro of</w>
resour ce</w>
re sc
pro p
pos t
no on</w>
l in</w>
innov ative</w>
i e</w>
hon or</w>
go s</w>
dr in
do ors</w>
Ste ve</w>
Nig eria</w>
In stitute</w>
E D</w>
B en
z a</w>
writ er</w>
war m</w>
tradi tion</w>
st ant</w>
se es</w>
s na
ri de</w>
requi red</w>
proper ties</w>
op tion</w>
min im
m ur
less ons</w>
fl at</w>
eng aged</w>
en e</w>
cam p</w>
bat tle</w>
Amaz on</w>
21 st</w>
w are</w>
us er</w>
to il
sophistic ated</w>
sol ving</w>
sing ing</w>
re ment</w>
primar y</w>
prepar ed</w>
prac tical</w>
log ically</w>
li ked</w>
introduc ed</w>
health care</w>
fem in
en coun
discus sion</w>
de struction</w>
con crete</w>
comb ination</w>
class room</w>
bat tery</w>
at en</w>
ad ded</w>
V o
M R
vir uses</w>
techno logical</w>
swi m</w>
shap ed</w>
s co
regi ons</w>
re ti
re ached</w>
ph r
per cent
metaph or</w>
jo ined</w>
inven tion</w>
hor iz
gra m</w>
form er</w>
fle xi
fac tors</w>
explor ation</w>
em bar
el ing</w>
cla im
app lied</w>
ance stors</w>
Wh ile</w>
Th omas</w>
Per haps</w>
J er
Eng land</w>
A l</w>
. .</w>
wh enever</w>
volu me</w>
tri als</w>
th r
symptom s</w>
sh all</w>
se v
rela tive</w>
ph er
particip ate</w>
p ack
m ate</w>
in o</w>
in ev
hi de</w>
fi sh
f oundation</w>
evi l</w>
environ ments</w>
echno logy</w>
bu bble</w>
anti -
S ec
Ob ama</w>
O c
Japan ese</w>
Glob al</w>
win ter</w>
was h
v ard</w>
transpor tation</w>
th es</w>
su ici
stat us</w>
sa tis
ra dical</w>
pul led</w>
pro por
por ary</w>
plan es</w>
part ners</w>
moun tains</w>
mista ke</w>
inf ected</w>
hy per
gi ft</w>
corpor ate</w>
comfor t</w>
cle an
ag er</w>
adver ti
W ill</w>
R u
L os</w>
J im</w>
C al
B ay</w>
5 0,000</w>
worl ds</w>
travel ing</w>
trans formation</w>
qui et</w>
prot ection</w>
per form</w>
pe ace
newsp aper</w>
myst ery</w>
ma ker</w>
la unch</w>
imp le
ic ken</w>
ha m</w>
grav ity</w>
gener ally</w>
fu nd</w>
fi le</w>
est s</w>
ent ary</w>
elec tion</w>
democra tic</w>
correc t</w>
conv ince</w>
collabor ation</w>
clic k</w>
c ents</w>
ac tors</w>
P aci
L u
K ing</w>
F re
F ive</w>
B ank</w>
B G</w>
Any way</w>
y l
restaur ant</w>
rele ased</w>
re place</w>
re member
ne ar
liter ature</w>
l -
interest s</w>
imm une</w>
gg ed</w>
expla ined</w>
er ies</w>
encoura ge</w>
dar k
challeng ing</w>
capit alism</w>
a i</w>
a c</w>
W ow</w>
Con gress</w>
A ra
w o
vulner able</w>
ty pically</w>
ton ight</w>
te sted</w>
st able</w>
ro ots</w>
ri sing</w>
re spec
play er</w>
per ception</w>
on ics</w>
oll ywood</w>
mathema tical</w>
loc ked</w>
liqu id</w>
kitch en</w>
institu tion</w>
ill ness</w>
i ther</w>
hor se</w>
fe wer</w>
fall ing</w>
doub t</w>
dep lo
de dic
N i
D is
C en
v a</w>
transi tion</w>
st un
pl ate</w>
photograph s</w>
p li
out come</w>
on e
min d
men tion</w>
is on</w>
in gre
ingre di
h anging</w>
gener ated</w>
emo tion</w>
dom es
di et</w>
depend ence</w>
consum er</w>
cli p</w>
c utting</w>
bre ath</w>
aw esome</w>
V ir
Sch ool</w>
On ly</w>
No body</w>
H er</w>
199 0</w>
tu be</w>
t eles
swim ming</w>
sou l</w>
son gs</w>
situ ations</w>
sig ns</w>
rema ins</w>
rais ing</w>
po em</w>
or ing</w>
occur red</w>
not es</w>
neighb ors</w>
mis s</w>
hol ds</w>
gri d</w>
go als</w>
fi shing</w>
fac tor</w>
ev ening</w>
es timate</w>
entreprene urs</w>
elec tro
el ine</w>
drop ped</w>
det ect</w>
cra ft</w>
confi dence</w>
bom b</w>
bi om
appe ars</w>
Some thing</w>
S m
8 5</w>
un known</w>
ul timate</w>
u ary</w>
stre t
st ro
sc ore</w>
re mind</w>
qu anti
poe try</w>
percent age</w>
pa int
orig in
natur ally</w>
me tho
in ion</w>
ex change</w>
cr ash</w>
cl ou
b o</w>
b es
accur ate</w>
ab sor
Rus sia</w>
E d
C i
wor ker</w>
w ars</w>
u de</w>
sil k</w>
sil ence</w>
prot ected</w>
prin ting</w>
pregn ant</w>
no vel</w>
inclu de</w>
in fl
hospit als</w>
gl am
fossi l</w>
fin ance</w>
en ni
d um
cor al</w>
cont em
ch ose</w>
brea king</w>
bo xes</w>
be e</w>
b age</w>
ar ts</w>
ar ing</w>
an der</w>
after noon</w>
T r
Paci fic</w>
M arti
B ur
un usual</w>
tol er
ti e</w>
sug ar</w>
struc k</w>
sc r
ru p
rel ate</w>
re ward</w>
prote ins</w>
p il
op tions</w>
op inion</w>
op ia</w>
on ym
na vi
mot or</w>
le m
it ors</w>
inspi ration</w>
fundam entally</w>
figu res</w>
cor tex</w>
c ing</w>
c at</w>
W illi
St an
S E
F a
Ar ab
3 000</w>
. D.</w>
v a
ti le</w>
the -
sur ve
run s</w>
rou gh</w>
re t
re solution</w>
pleas ure</w>
ox ide</w>
on i
off ic
mem ories</w>
jo ke</w>
ir t</w>
h ack
graph y</w>
fund ing</w>
fal se</w>
fac ed</w>
exhi bi
empa thy</w>
embr ace</w>
crimin al</w>
continu ed</w>
const ant</w>
S ou
N G
Every one</w>
D ay</w>
v est</w>
ta x</w>
stu dio</w>
st ances</w>
ri gh
re r</w>
ra m</w>
r ene
pre ven
pl om
perform ing</w>
para dig
o l</w>
mam m
it arian</w>
ig nor
fe eding</w>
en able</w>
el ev
ch art</w>
c el
appropri ate</w>
ap par
adv ice</w>
ac cording</w>
T e
Pakist an</w>
P en
N .</w>
Har vard</w>
G ir
z o
te ams</w>
sp orts</w>
sp here</w>
sim ul
sen ses</w>
re less</w>
pri me</w>
p en</w>
ori ties</w>
occu r</w>
o v
mechan ism</w>
lin ked</w>
li ver</w>
k o</w>
ir ing</w>
il legal</w>
hur t</w>
flo wers</w>
fing ers</w>
f at</w>
explan ation</w>
ell o</w>
ecosy stem</w>
ec tions</w>
dre s
direc tor</w>
des per
clos ely</w>
ch icken</w>
bor ing</w>
ap es</w>
antibio tics</w>
ans wer
an th
amoun ts</w>
St ate</w>
S atur
P ark</w>
- to-
y ment</w>
tra ge
te sts</w>
t ape</w>
str ing</w>
stat ement</w>
sta ff</w>
sens ors</w>
s mile</w>
provi ding</w>
pro gres
os is</w>
n or</w>
mista kes</w>
instr ument</w>
in struc
hop ing</w>
her o</w>
fil ms</w>
econom ies</w>
distribu ted</w>
dea ths</w>
d ancing</w>
cur ve</w>
compu ting</w>
bur ning</w>
auth ority</w>
au tism</w>
ad mit</w>
S ep
Rob ert</w>
R os
Ol ym
Fin ally</w>
vehic les</w>
top ic</w>
ta ined</w>
stor y
sev ere</w>
ser ving</w>
pre ce
ph arm
om o</w>
o tic</w>
libr ary</w>
inc enti
in ts</w>
h oods</w>
glo be</w>
fra me
exp on
exp and</w>
effici ency</w>
dra matic</w>
ch urch</w>
c tic</w>
bl u
bic y
au ton
ar gu
appreci ate</w>
allo wing</w>
algorith ms</w>
agre ed</w>
Un fortunately</w>
U. N.</w>
P an
Ne w
N umber</w>
N at
Jan uary</w>
Al so</w>
wonder ed</w>
tem ber</w>
spir it
see ds</w>
s and
poli cies</w>
pl a
meaning ful</w>
id es</w>
hot el</w>
ell ed</w>
coll ected</w>
co ordin
chi p</w>
bus y</w>
bi as</w>
ang ers</w>
an gry</w>
ag ers</w>
T it
Sep tember</w>
S k
O s</w>
N a
D u
C a
B M</w>
B I</w>
Ara b</w>
An tar
youn ger</w>
wat er
sti mul
sk ill</w>
seas on</w>
recy cl
priv acy</w>
poll ution</w>
pe ak</w>
ol ds</w>
illu str
h its</w>
fic tion</w>
dri ves</w>
dis play</w>
consi der
clo thes</w>
ci enti
ca ve</w>
c ast</w>
bor der</w>
at oms</w>
X -
Uni on</w>
S S</w>
Musli m</w>
M oun
Joh n
Dar win</w>
D en
4 ,000</w>
w ire</w>
th anks</w>
suff er</w>
sa tion</w>
pro of</w>
person ally</w>
per man
measu red</w>
lau gh</w>
lar gely</w>
l ength</w>
ju dge</w>
is tics</w>
hand le</w>
h all
gu ar
gro ws</w>
g in
fr ank
frank ly</w>
fle w</w>
fi f
evol ve</w>
dis appear</w>
den se</w>
cre ature</w>
che str
ballo on</w>
asp ects</w>
archit ect</w>
Pro ject</w>
M ary</w>
Ju li
G ra
Egyp t</w>
C hi
Be fore</w>
200 2</w>
tain ment</w>
sh oot</w>
refuge es</w>
puzz le</w>
pres ence</w>
pre dat
ori al</w>
om ic</w>
od d</w>
marke ting</w>
ja il</w>
inter view</w>
func tional</w>
fu els</w>
expl os
exper t</w>
er ror</w>
embar r
el d</w>
do zen</w>
do gs</w>
disa ster</w>
d ay
ch ap
c up
be l</w>
bar ri
at r
an ia</w>
Val ley</w>
M ini
D ec
D an</w>
Ch ic
Ale x
t ack
sustain ability</w>
succe ed</w>
s now</w>
ri st</w>
ri dic
recor ds</w>
po wers</w>
pen gu
par king</w>
p ack</w>
mus ical</w>
mon key</w>
mar ine</w>
kno c
gar den</w>
func tions</w>
fi ve-
f alls</w>
eng aging</w>
el a</w>
destro yed</w>
dec line</w>
conven tional</w>
control led</w>
con clusion</w>
comb ine</w>
clim b</w>
c ement</w>
bot tle</w>
asp ect</w>
as sume</w>
ar my</w>
ab use</w>
W il
R NA</w>
4 7</w>
y r
stric t</w>
sp reading</w>
sel ection</w>
sav ings</w>
re gre
ra w</w>
push ing</w>
play ers</w>
ph y
paint ings</w>
ograp hic</w>
n ic
li s
insur ance</w>
imp lications</w>
ex tent</w>
ex posed</w>
electr onic</w>
eg gs</w>
doc uments</w>
d anger</w>
ca using</w>
bir th
b ones</w>
app lications</w>
ac ade
H i</w>
Chic ago</w>
B a
Angel es</w>
19 3
z oom</w>
yp e</w>
v it
tr end</w>
tou ched</w>
ta ste</w>
sub -
spec tac
sh ment</w>
s can</w>
rop y</w>
recogn ized</w>
re move</w>
re fer
pl u
phys ically</w>
ograph y</w>
off ered</w>
lim its</w>
l ine
in put</w>
hydro gen</w>
fa ke</w>
f loo
f ed</w>
ear th
dis h</w>
der al</w>
connec ting</w>
collap se</w>
bor ders</w>
b ow</w>
ax is</w>
ath le
at a</w>
am ed</w>
V er
MR I</w>
J une</w>
D el
C A
Bos ton</w>
y n
wal ks</w>
trac king</w>
ti tle</w>
techni que</w>
sun light</w>
stay ed</w>
st ations</w>
sec ure</w>
resi li
pop ulations</w>
pas sionate</w>
of -
le f
la dies</w>
l en
journ alist</w>
igh t
horri ble</w>
har m</w>
gra in</w>
gra b</w>
f ears</w>
equ ation</w>
deb t</w>
cy ber
con stra
comb ined</w>
co ol
cho os
cent uries</w>
car ried</w>
bur n</w>
be e
archit ects</w>
ain ing</w>
aff ord
ac les</w>
S ar
Par is</w>
H y
Ger man</w>
Christ mas</w>
4 8</w>
-c ent
y st
w ine</w>
vi l</w>
v ation</w>
un expected</w>
tox ic</w>
the me</w>
th ri
ter -
t all</w>
st ag
so c
re pair</w>
pres ented</w>
pos es</w>
poll en</w>
pat ent</w>
pa tho
on ing</w>
ol ate</w>
ner ship</w>
mir ror</w>
main tain</w>
inter nal</w>
in tr
frame work</w>
er ever</w>
el ement</w>
domes tic</w>
de partment</w>
conserv ation</w>
at tr
am ent</w>
acc um
So ci
S cience</w>
R w
Mus eum</w>
Inter national</w>
Gre en
Ab out</w>
6 0s</w>
20 15</w>
wh ale</w>
well- being</w>
up per</w>
travel ed</w>
three- dimensional</w>
t at
suici de</w>
re ference</w>
provi ded</w>
mis sed</w>
mani pul
instr uments</w>
her oes</w>
four -
flo wer</w>
f usion</w>
ex ecu
e e
di ab
consum ers</w>
con centr
coll ecting</w>
col um
c ow</w>
attemp t</w>
acc es
Wi ki
S ol
Re member</w>
Kore a</w>
C he
B al
Ar t</w>
Ap ple</w>
A h</w>
19 80</w>
-c alled</w>
whe el</w>
under water</w>
un like</w>
ul a</w>
trans formed</w>
ti an</w>
t ar</w>
sur vey</w>
stron ger</w>
some what</w>
repres ented</w>
pub lic
pl as
p es</w>
o ci
mil k</w>
le gi
i osity</w>
he ight</w>
ge -
g ence</w>
fortun ate</w>
explor ing</w>
equ ally</w>
ene my</w>
embarr ass
custom ers</w>
circum stances</w>
brea the</w>
app le</w>
ag end
adv oc
U S</w>
T or
P r
O ther</w>
H ouse</w>
G ener
E thi
B on
Afr icans</w>
vir tu
vacc ines</w>
tre ating</w>
sub jects</w>
sam ples</w>
quar ter</w>
no where</w>
neighb or</w>
mechan ical</w>
mamm als</w>
magne tic</w>
m .</w>
it er
insi ght</w>
ic ked</w>
h att
green house</w>
fru str
fru it</w>
fe ature</w>
exist ed</w>
eli min
educ ated</w>
di plom
commit ment</w>
ar d
accep ted</w>
abstr act</w>
O x
F oundation</w>
A .</w>
7 2</w>
. m.</w>
wi reless</w>
thro wn</w>
spl it</w>
so -called</w>
sc ary</w>
roc ks</w>
recor ding</w>
pros per
pl ans</w>
out comes</w>
organiz e</w>
on al</w>
mit ted</w>
il le</w>
hum or</w>
gni tion</w>
flo ating</w>
ex ter
es tion</w>
drin king</w>
dra matically</w>
di v
di gn
deter mine</w>
crow d</w>
cour t</w>
coo king</w>
che aper</w>
ch rom
care ful</w>
cam p
but ton</w>
b al</w>
an ticip
ab und
Wh e
Sa har
R IS
Marti n</w>
M is
M ay</w>
Com m
19 0
tion -
symbo l</w>
st ock</w>
shoul der</w>
se ed</w>
s ession</w>
qu e
pri ze</w>
person ality</w>
over all</w>
n est</w>
m im
labor atory</w>
l ung</w>
l ass</w>
in ations</w>
imag ined</w>
hi li
h at
fe atures</w>
exhibi tion</w>
dro ve</w>
dist ur
contr ast</w>
clin ic</w>
b il
automa tically</w>
ad dic
S un
N ever</w>
Man hatt
M ag
J es
G h
F our</w>
D on
D an
Cen tral</w>
7 0s</w>
20 20</w>
19 th</w>
y outh</w>
wan ting</w>
t- hand</w>
t ap
swe et</w>
surr ounded</w>
soli d</w>
sim pl
sh ark</w>
re verse</w>
re ceive</w>
pre scri
practic es</w>
po p</w>
plan ted</w>
paradig m</w>
pain ful</w>
p apers</w>
over come</w>
ne ts</w>
mus h
ma d</w>
l un
j ected</w>
i er</w>
graph ics</w>
gr and</w>
educ ational</w>
dign ity</w>
cro ps</w>
com e
col ony</w>
class es</w>
celebr ate</w>
aliz ing</w>
S al
Manhatt an</w>
9 0s</w>
5 5</w>
win dows</w>
wh ales</w>
trans late</w>
to y</w>
sugge sts</w>
sha ke</w>
sear ching</w>
repor ted</w>
re aching</w>
pl ed</w>
pi ano</w>
ol dest</w>
occas i
obs essed</w>
me d
lat est</w>
la m</w>
j un
ing dom</w>
ing -
in d
hun gry</w>
gi ble</w>
g ers</w>
g ent</w>
et ary</w>
es c
en tr
eff orts</w>
e es</w>
dis orders</w>
dep end</w>
coura ge</w>
conven i
con stitu
classi c</w>
cap tured</w>
am i
ag ement</w>
Wh ite</w>
Swe den</w>
P T
N ext</w>
La tin</w>
G et</w>
Ad am</w>
A -
4 2</w>
. C.</w>
wor thy</w>
wee k
v or</w>
tr uck</w>
til ity</w>
te e</w>
sla very</w>
scen ari
s n
s ki
rene w
re moved</w>
privile ge</w>
poo rest</w>
pl enty</w>
pha se</w>
p un
p in
or bit</w>
o logists</w>
life style</w>
ke y
incenti ves</w>
id en
hous ing</w>
g ust</w>
enter ed</w>
emer gency</w>
dis order</w>
di c</w>
dev ast
cir cul
cha os</w>
ber t</w>
bar ely</w>
ban ks</w>
au d
app lication</w>
addre s
ad y</w>
Wom an</w>
W a
T ra
T ex
Pal est
He alth</w>
D emo
20 30</w>
2 5
y i
y ard</w>
wh erever</w>
versi ties</w>
transpar ency</w>
the less</w>
te a</w>
tane ously</w>
sy ste
sh op
se y</w>
se as</w>
reco gnition</w>
profes sion
n els</w>
met abo
lay ers</w>
inter active</w>
inst all
i us</w>
habit at</w>
h ang</w>
gr ay</w>
gr ass</w>
gen u
fer ti
f at
experi encing</w>
ev el
en h
em bed
ear ch</w>
do t</w>
di oxide</w>
den sity</w>
d ust</w>
cr ying</w>
con clu
communic ations</w>
commit ted</w>
co operation</w>
bro thers</w>
brea thing</w>
beli efs</w>
bel on
algorith m</w>
al u
acces sible</w>
R evolution</w>
P ole</w>
No thing</w>
M or
Is lam
C ur
B run
A ri
199 8</w>
vir tually</w>
ter ies</w>
ta x
ro ot</w>
ric h
poli o</w>
pol y
pol ar</w>
pic s</w>
phr ase</w>
optim istic</w>
om es</w>
neur on</w>
ne ither</w>
ma xim
m ess</w>
lic on</w>
le l</w>
las er</w>
intui tive</w>
in sp
h all</w>
des k</w>
de gra
d ding</w>
cr y</w>
cei ved</w>
bro w
bi ke</w>
behavi oral</w>
as ive</w>
apart ment</w>
al d</w>
ad di
a es
Wiki pedia</w>
W at
T ell</w>
M A</w>
H ollywood</w>
Bas ically</w>
A ir
3 6</w>
1 3
. 5</w>
ul ty</w>
ter ing</w>
ta g</w>
sup pose</w>
stand ards</w>
si sters</w>
rela tions</w>
ra dic
r and
preci sely</w>
poc ket</w>
philosoph y</w>
or a</w>
mon keys</w>
micros cope</w>
m ice</w>
incre ases</w>
im er</w>
ic king</w>
histor ical</w>
hear ts</w>
g ments</w>
g in</w>
fir m</w>
fascin ated</w>
fac ial</w>
f it
er o</w>
do z
cur iosity</w>
cor n</w>
construc t</w>
c up</w>
ap p</w>
afford able</w>
Sp ace</w>
Pe ter</w>
P A</w>
In deed</w>
I .</w>
D A</w>
B e</w>
Atlan tic</w>
8 0s</w>
4 0
20 ,000</w>
zer o-
whe el
wh ereas</w>
vol can
uc k
sur geon</w>
scri pt</w>
sch ol
roc ket</w>
robo tic</w>
ra p</w>
r ice</w>
quar ters</w>
produc es</w>
pres entation</w>
pos ing</w>
pi le</w>
p y
p uni
p ost</w>
o de</w>
nee dle</w>
lo vely</w>
lim it</w>
l oud</w>
in cl
i um</w>
hard ware</w>
gu il
friend ly</w>
for ma
fa ult</w>
f ounded</w>
extr act</w>
expec tations</w>
eth n
dra wn</w>
dir ty</w>
di ans</w>
desig ns</w>
conv ic
compon ent</w>
coc k
chan nel</w>
c ute</w>
be ach</w>
ba th
b alls</w>
all -
S pe
N ations</w>
I BM</w>
G ab
C ha
C D</w>
B ang
3 1</w>
- and-
w l</w>
vis ited</w>
vill ages</w>
v ot
ur ation</w>
u gly</w>
to c
ti ed</w>
th um
so ft</w>
shoc k</w>
sha me</w>
sh irt</w>
rec ru
pu tation</w>
predic table</w>
pr ices</w>
plic ity</w>
p ool</w>
p on
or chestr
neighbor hoods</w>
mon y</w>
metho ds</w>
m ill
lo aded</w>
invol ves</w>
ign ore</w>
iden tical</w>
ide al</w>
hun ger</w>
hon est
ga ther</w>
g al</w>
g a</w>
fund ed</w>
fro zen</w>
f are</w>
et ings</w>
e igh
e ar</w>
disco ver
dinos a
concep ts</w>
birth day</w>
au di
att ached</w>
agend a</w>
adverti sing</w>
adap t</w>
ad minist
S pan
R ec
M ark</w>
M ad
La b</w>
Is lam</w>
Bu dd
An y</w>
wh is
un comfortable</w>
ti red</w>
spir ing</w>
r ar
r ab
push ed</w>
psycho logy</w>
pa th
p ure</w>
ong st</w>
mechan isms</w>
lic ense</w>
leg is
integr ated</w>
infin ite</w>
her self</w>
gun s</w>
gl aci
foot ball</w>
flu id</w>
et es</w>
emp ha
electr onics</w>
econom ists</w>
dep ending</w>
dat ab
d ates</w>
con trac
can di
be have</w>
bar re
ate ful</w>
as ide</w>
ap pl
ani mation</w>
am ongst</w>
achiev ed</w>
W in
M in
G ol
F lor
1. 5</w>
under ground</w>
ta tive</w>
t emp
t ability</w>
su rely</w>
st ands</w>
spirit ual</w>
spea ker</w>
sil ent</w>
see k</w>
ru b
ri min
ri f
respon ses</w>
refl ect</w>
rand om
psycho logical</w>
prototyp e</w>
proper ly</w>
pl ain</w>
pic king</w>
pass ing</w>
p are</w>
op posed</w>
off icial</w>
ob st
ob jective</w>
me etings</w>
me -
li ft</w>
leg acy</w>
laugh ing</w>
it tle</w>
isol ated</w>
inv ite</w>
inten ded</w>
inst inc
infor med</w>
i red</w>
ha i</w>
glob ally</w>
fi xed</w>
ex pe
er al</w>
embed ded</w>
di verse</w>
deli vered</w>
da mag
concer n</w>
con sume</w>
co -
clou ds</w>
chrom os
ch oc
carto on</w>
capit a</w>
c tica</w>
c ats</w>
an onym
Vo ice</w>
Stan ford</w>
M e</w>
L ar
H el
G ive</w>
Antar ctica</w>
199 9</w>
19 50</w>
1 2
zh e
zhe imer</w>
wil d
vir al</w>
un its</w>
ul f</w>
tun e</w>
thre w</w>
t ab
stic ks</w>
si zed</w>
sel s</w>
se l</w>
program ming</w>
produc tivity</w>
pos t-
paral lel</w>
n es
mi d-
li ce</w>
la id</w>
j i
inf ection</w>
g ut</w>
for gotten</w>
er ad
enter tainment</w>
en abled</w>
dist ant</w>
direc tions</w>
dinosa urs</w>
diagnos ed</w>
destro y</w>
der ly</w>
dedic ated</w>
cruc ial</w>
col li
cle ver</w>
b low</w>
aw k
ag ue</w>
ag ency</w>
a ks</w>
S am
Re ally</w>
P R</w>
F u
C ap
Al zheimer</w>
4 000</w>
-cent ury</w>
year- olds</w>
wh ist
we igh
vari ation</w>
sup er</w>
sto res</w>
sli des</w>
sk ull</w>
sh ut</w>
se where</w>
remin ded</w>
pre fer</w>
por ts</w>
p h</w>
om in
ob es
my th</w>
mal es</w>
li kes</w>
le an
lap top</w>
l ens</w>
l aughter</w>
in y</w>
hi p</w>
gu ide</w>
gh ten
ful l-
f oun
earth qua
divi ded</w>
d ges</w>
cor d</w>
control ling</w>
contr act</w>
comp rom
colleag ue</w>
ch est</w>
car di
b ags</w>
ar do</w>
ani el</w>
ad ding</w>
V en
T I</w>
Rw anda</w>
N ature</w>
Ma ke</w>
Gh ana</w>
D V
Con go</w>
we al
vi br
tr ick
toil et</w>
sp ots</w>
sp ar
si de
sho oting</w>
s ket
regi me</w>
re comm
open- source</w>
obes ity</w>
o logist</w>
multi -
meas uring</w>
l uck</w>
ki lo
insp ire</w>
iP od</w>
h ire</w>
h il
ge ous</w>
fe deral</w>
far mer</w>
ess ing</w>
escap e</w>
en z
en a</w>
elec ted</w>
el sewhere</w>
diab etes</w>
di alo
def ense</w>
de x</w>
conflic ts</w>
citiz en</w>
chimpanz ees</w>
chi at
b um
auth or</w>
P l
M ed
Li b
I m
H on
F ran
F o
C ra
2. 5</w>
wi red</w>
victi m</w>
under lying</w>
tu s</w>
to ber</w>
strugg ling</w>
sim pli
resi stant</w>
pro per</w>
pi lot</w>
ph a</w>
par ties</w>
p es
oc cup
ma il</w>
kill er</w>
inter actions</w>
in spiring</w>
he lic
govern ance</w>
f ought</w>
extinc t</w>
erad ic
e fly</w>
divi de</w>
d augh
daugh ters</w>
d am
contribu te</w>
ar med</w>
appar ently</w>
adv ance</w>
ace u
W all</w>
Sy ri
Scot t</w>
Oc tober</w>
O ce
M os
G en
Chil dren</w>
B ush</w>
9 11</w>
198 4</w>
y ours</w>
uni versities</w>
un t</w>
thir ds</w>
tele phone</w>
strate gies</w>
ri m
rel ation</w>
ra ti
provi des</w>
per cep
p ink</w>
ot a</w>
ori sts</w>
o ids</w>
nutri tion</w>
nor thern</w>
li on</w>
le tting</w>
journ alists</w>
innov ations</w>
in gu
imag ing</w>
i ans</w>
head ed</w>
h um</w>
h ost</w>
grand children</w>
gran ted</w>
ge ome
foc using</w>
f an</w>
eth ical</w>
ess ence</w>
eleph ant</w>
elec tions</w>
ele g
ear n</w>
construc ted</w>
consequ ence</w>
cli ents</w>
choos ing</w>
ce iling</w>
blo g</w>
ast oni
an xi
Tex as</w>
So vi
P hili
Fr ank</w>
9 6</w>
writ ers</w>
ve ter
un clear</w>
ul ating</w>
trans forma
tici an</w>
t ories</w>
sub tle</w>
str angers</w>
sing ly</w>
sh ore</w>
sh ops</w>
s or</w>
rou te</w>
reve al</w>
repres en
religi ons</w>
re plac
re p
re ments</w>
rar ely</w>
pur cha
psy ch
posi tions</w>
perman ent</w>
per mission</w>
pas sen
par as
op ens</w>
nutri ents</w>
na ked</w>
mini ster</w>
main ly</w>
loc ated</w>
j am
inv ent
ingredi ents</w>
inclu des</w>
ic ist</w>
hal f-
guar an
gen oci
ex trac
et e</w>
es is</w>
entreprene ur
en sure</w>
ed a</w>
ec tor</w>
dr ill</w>
dolph ins</w>
discover ies</w>
contin ues</w>
con tra
certain ty</w>
c us</w>
c ook</w>
bla h</w>
bicy cle</w>
be ars</w>
auton om
a is
T en</w>
S he
N I
J on
Gre en</w>
3 50</w>
. A.</w>
- based</w>
, 500</w>
transpar ent</w>
transp ort</w>
tr ends</w>
thi er</w>
th ick</w>
t y-
t ears</w>
t asks</w>
st oc
spectac ular</w>
sim plicity</w>
sh ine</w>
se ven
rom an
reco very</w>
re turned</w>
r at</w>
or ous</w>
off ici
n ings</w>
m m</w>
la ke</w>
l ers</w>
k is
inten se</w>
identi fied</w>
i p
har vest</w>
har dly</w>
go od
flexi ble</w>
fin ds</w>
fav or</w>
eng agement</w>
em power
doz ens</w>
dis appeared</w>
dis ability</w>
dark ness</w>
cr ash
cos mo
cor respon
consist ent</w>
confi dent</w>
c enti
bro wn</w>
bio logists</w>
b att
assum ptions</w>
archit ec
ap o
an thro
U g
S or
Is land</w>
H en
Ethi opia</w>
Bro o
B ang</w>
199 4</w>
.. ..</w>
y an</w>
wel come</w>
ver tical</w>
ti mi
stri al</w>
st ages</w>
sp inal</w>
s ke
ro ws</w>
psy chiat
prom ote</w>
pi g</w>
per su
ow ner</w>
ow ned</w>
os en</w>
or ph
me tr
lin ks</w>
impro vement</w>
gon na</w>
gl asses</w>
ge ons</w>
g ated</w>
engine ered</w>
en i
ell er</w>
ed ges</w>
con fron
character istics</w>
cap ability</w>
c er</w>
bound aries</w>
bo ards</w>
b ucks</w>
at tribu
as sign
al ga
agricul tural</w>
ag encies</w>
Z e
Ti me</w>
SE TI</w>
S ur
M y
K ar
Ital y</w>
Ar ctic</w>
A bed</w>
1 30</w>
we ak</w>
w oo
w and
ush ed</w>
ur i
un believ
ta ining</w>
t led</w>
symme try</w>
stor m</w>
spea kers</w>
sou thern</w>
sk y
se ats</w>
satellit es</w>
repe at</w>
reduc ed</w>
re stric
re act</w>
r ul
out put</w>
origin ally</w>
organiz ing</w>
on ally</w>
nit ure</w>
neuros cience</w>
mechan ics</w>
loo p</w>
law yer</w>
l ation</w>
kne e</w>
k i</w>
inter acting</w>
ill usion</w>
gr ab
go ver
gar bage</w>
fr ac
ex cep
ev alu
eri ous</w>
el ly</w>
ec k</w>
e ye
e ded</w>
dre ss</w>
doc ument</w>
comb at</w>
bri ef</w>
back wards</w>
b ars</w>
au r</w>
arr ang
air craft</w>
agre ement</w>
ag gres
ad ing</w>
acade mic</w>
Whe ther</w>
Wh it
Mic ros
M om</w>
Isra el
Ha iti</w>
H ello</w>
F er
E ric</w>
19 45</w>
top s</w>
ten sion</w>
stop s</w>
sto red</w>
spo ken</w>
spi der</w>
sent ences</w>
sculp ture</w>
rol ling</w>
ric her</w>
re form</w>
re d
ra ys</w>
pharm aceu
per si
pain ted</w>
p ace</w>
on a</w>
mus cles</w>
l ecture</w>
ignor ance</w>
ic an-
gen ius</w>
g am
flo ws</w>
exc ell
en th
embr ac
e ast</w>
determin ed</w>
con tain</w>
bi e</w>
be gun</w>
b ill</w>
announ ced</w>
an i</w>
ad ol
a ven</w>
U S
P ol
Ox ford</w>
N ic
N SA</w>
D uring</w>
A m</w>
4 4</w>
weap on</w>
vi ously</w>
ur a</w>
tran sc
trage dy</w>
tar gets</w>
ta p</w>
t our</w>
t an</w>
syn thetic</w>
surve ill
sugge sting</w>
ridic ulous</w>
ri x</w>
revol u
prot ecting</w>
predic ted</w>
ni ght
mus icians</w>
mi xed</w>
liber al</w>
li zed</w>
li um</w>
l es
invest ing</w>
initi al</w>
in ch</w>
il es</w>
id a</w>
h oo
glob alization</w>
fri ghten
foot print</w>
fla g</w>
fil ter</w>
fil m
fail ing</w>
fa thers</w>
f ts</w>
exten ded</w>
er o
emplo yment</w>
dri vers</w>
do x</w>
de ly</w>
d ys
cop es</w>
cir cles</w>
chan ces</w>
ch osen</w>
bri efly</w>
bl ack
bio diversity</w>
b or</w>
ag gre
W ol
Ug anda</w>
T er
Span ish</w>
Si x</w>
B ack</w>
A C
20 13</w>
y o</w>
y fish</w>
v ital</w>
u d</w>
treat ments</w>
tr a</w>
tex t
t i</w>
sta irs</w>
st or</w>
st am
smo ke</w>
ske p
sh ots</w>
sc ales</w>
sac red</w>
reli able</w>
re putation</w>
r ent</w>
preci se</w>
mon itor</w>
line ar</w>
imp acts</w>
immedi ate</w>
ic ul
histor ic</w>
her o
h itting</w>
fur niture</w>
fri ger
fac ility</w>
educ ate</w>
e ks</w>
discus s</w>
dimen sion</w>
compe te</w>
chi ps</w>
cha irs</w>
brea ks</w>
arch y</w>
answer ed</w>
an gu
am in
Th ings</w>
Sm ith</w>
Ri o</w>
Res earch</w>
Ph il
P rot
Oce an</w>
Hum an</w>
9 7</w>
wit ness</w>
was h</w>
ves sels</w>
up set</w>
un able</w>
ti p</w>
the ories</w>
surveill ance</w>
suff ici
sim ulation</w>
she et</w>
sa fer</w>
s er</w>
reason able</w>
re friger
qu est</w>
prin ted</w>
primar ily</w>
pres sed</w>
pre mi
per ceive</w>
pa irs</w>
p ound</w>
or ange</w>
oper ations</w>
observ ation</w>
ner ve</w>
me al</w>
m -
lu x
k es
inj ury</w>
hi p
ha bit</w>
h ey</w>
gol f</w>
gi le</w>
fi ber</w>
expon ential</w>
exp anding</w>
exc it
enter pri
emer ged</w>
e ball</w>
diag ram</w>
di g</w>
d ency</w>
conf used</w>
c us
bla me</w>
b oun
autom o
attr act</w>
astron om
arti stic</w>
ali en</w>
alga e</w>
T ri
Se a</w>
R ed</w>
Musli ms</w>
M and
M A
L ong</w>
I .
H al
F ar
F BI</w>
Bo b</w>
Bl ue</w>
19 00</w>
win ning</w>
wi dely</w>
ul tra
ti zed</w>
ter rit
tack le</w>
t ank</w>
suppor ted</w>
suff ered</w>
sp ort</w>
smar t
sh rim
sac rif
re tin
re con
re cep
ra ft</w>
pri mi
pres sion</w>
prece d
phys icist</w>
phy si
paral y
p um
p lot</w>
offic er</w>
o ft</w>
mor ality</w>
mag ical</w>
law yers</w>
lan ded</w>
l ined</w>
k ni
ing er</w>
im mer
helic op
h ill</w>
got ta</w>
fif th</w>
far ming</w>
extinc tion</w>
estab lished</w>
el son</w>
ecosy stems</w>
dic tionary</w>
dialo gue</w>
contro ls</w>
contem porary</w>
con tains</w>
con cent
com mod
choc olate</w>
c ash</w>
b oss</w>
b in
assem bly</w>
arr ator</w>
aff ects</w>
acci dents</w>
ac qui
T ali
S up
S qu
S om
Ob viously</w>
O k
N arrator</w>
Micros oft</w>
L ittle</w>
J ack</w>
Hi gh</w>
H ig
F ord</w>
E b
E astern</w>
A L
20 14</w>
19 70</w>
-c lass</w>
wh o
volunte ers</w>
v ember</w>
usi ons</w>
ur ban
transl ation</w>
trans plant</w>
tr icks</w>
ti ze</w>
thre ats</w>
shor t
shop ping</w>
resc ue</w>
repor ts</w>
real m</w>
re st
radic ally</w>
prosper ity</w>
prob ability</w>
preced ented</w>
phys ician</w>
photograph ed</w>
ph or
particip ants</w>
orig in</w>
optim ism</w>
op y</w>
o red</w>
n -
mos quit
mon it
min ing</w>
mi gration</w>
ment ally</w>
mar ks</w>
lo an</w>
it ate</w>
is ing</w>
ir on</w>
interest ingly</w>
hack ers</w>
frequ ency</w>
fig uring</w>
fab ulous</w>
fa st
expl aining</w>
ex tend</w>
ex ha
ev in</w>
el derly</w>
ec e</w>
down load</w>
domin ant</w>
crimin als</w>
co ho
c ut
bel ong</w>
at titude</w>
architec tural</w>
after wards</w>
adop ted</w>
a tives</w>
a h
W as</w>
T om
M ur
L a</w>
Is n</w>
G ates</w>
C re
C T</w>
Bo y</w>
An drew</w>
Ac t</w>
9 00</w>
6 ,000</w>
3 7</w>
199 0s</w>
00 0-
y al</w>
um a</w>
transl ated</w>
trans mission</w>
trans fer</w>
tr ucks</w>
ti se</w>
ti les</w>
th -
te l</w>
surpri singly</w>
ste al</w>
st ones</w>
sh ell</w>
separ ated</w>
ro wing</w>
r yp
pre fer
peri ods</w>
mo de</w>
meth ane</w>
me l</w>
lo red</w>
lim it
le verage</w>
ins ul
il er</w>
ic on</w>
gradu ally</w>
ex ception</w>
estim ated</w>
encoun ter</w>
emer ge</w>
di str
demonstr ate</w>
conclu de</w>
co vering</w>
c ous
bu b
bro ad</w>
bra ve</w>
bi al</w>
b acks</w>
at ar</w>
anxi ety</w>
anc er</w>
al t</w>
al a</w>
ac qu
Wi thin</w>
T ed</w>
Su per
Sovi et</w>
S D</w>
Pri ze</w>
Or gan
N elson</w>
M er
La w</w>
Gir l</w>
Brun o</w>
199 5</w>
z ar
wit n
wi der</w>
wa i
un precedented</w>
threat ened</w>
terror ist</w>
t ate</w>
t ancy</w>
sym b
symb ols</w>
su its</w>
st ere
soldi er</w>
smo king</w>
skelet on</w>
sens ory</w>
secre ts</w>
res on
refuge e</w>
re ver
prot oc
pit ch</w>
pi one
photograph y</w>
nur ses</w>
nar row</w>
lo ans</w>
lea p</w>
j ection</w>
is lands</w>
inev itable</w>
in i</w>
hypo the
human itarian</w>
hel p
han ded</w>
genoci de</w>
gar d
fli p</w>
fl ash
fab ric</w>
et te</w>
dist ingu
dis ap
depres sed</w>
deli ber
curr ency</w>
corpor ations</w>
connec tivity</w>
clu b</w>
circu it</w>
chr on
ch er</w>
car ing</w>
a tic</w>
Vi et
T re
Sou thern</w>
Ri ver</w>
R ab
No bel</w>
N one</w>
J H</w>
Hig gs</w>
G ar
Fi f
E s
E .
DV D</w>
Christi an</w>
Bi ble</w>
wi d
v y</w>
u ality</w>
tun a</w>
tri bes</w>
tra jec
terr orists</w>
ter ror</w>
success fully</w>
smar ter</w>
shrim p</w>
ser ves</w>
sco res</w>
sch e
sal es</w>
ro of
rhyth m</w>
reco ver</w>
re tro
rap id</w>
r ings</w>
prof its</w>
prin ter</w>
primi tive</w>
po et</w>
photograp her</w>
ph os
per pe
par tly</w>
p ir
on ia</w>
ol ly</w>
mem or
me ga
m ut
lim b</w>
k able</w>
inv e
intu ition</w>
he aven</w>
gr ateful</w>
go ds</w>
gene tically</w>
fing er
ferti liz
f illing</w>
exper tise</w>
expan sion</w>
eri an</w>
el ite</w>
earthqua ke</w>
e go</w>
deser ve</w>
dep th</w>
de fe
d ated</w>
contra dic
chap ter</w>
ch im
categ ories</w>
calcul ate</w>
bur den</w>
bu g</w>
b en
as pi
artic les</w>
arre sted</w>
arr ay</w>
ang les</w>
al coho
ac he</w>
a to</w>
a ster</w>
T ru
T es
S W</w>
M as
L ED</w>
Jo e</w>
I ran
G ulf</w>
Flor ida</w>
De partment</w>
Coun cil</w>
Cam bridge</w>
B re
3 4</w>
1 40</w>
wor e</w>
ver sions</w>
un cle</w>
u bi
th out</w>
terri fying</w>
teen agers</w>
sup p
sugge sted</w>
su gg
sta tic</w>
st ine</w>
st ability</w>
shel ter</w>
ri vers</w>
prot est</w>
pre pare</w>
peace ful</w>
p ump</w>
p ts</w>
ore sc
or g</w>
motiv ation</w>
meas ures</w>
may or</w>
mar ry</w>
ligh ting</w>
less ly</w>
ki e</w>
jum ped</w>
j ell
ig no
ic e
har m
h h
fra gile</w>
foot age</w>
fant as
f is
dra wings</w>
disc rimin
di um</w>
datab ase</w>
d am</w>
cros sing</w>
cr yst
cop y
competi tive</w>
clos est</w>
char ity</w>
cer ti
cat ast
c ab
bi zar
b illi
b ats</w>
at tle</w>
appro aches</w>
analy ze</w>
ambi gu
air port</w>
addi tional</w>
accep table</w>
Wi thout</w>
Th ird</w>
Satur n</w>
Rus sian</w>
R ome</w>
R ay</w>
R B</w>
Ph .D.</w>
Mini ster</w>
Mar ch</w>
L uc
Gener al</w>
D ou
C our
Bu il
A T
A M</w>
9 8</w>
6 4</w>
5 9</w>
4 3</w>
2 4
199 6</w>
198 9</w>
198 0s</w>
vac u
v able</w>
ut ter
u ti
tradi tions</w>
th al</w>
ten ds</w>
teles cope</w>
sum mar
stron gly</w>
squ ee
sou p</w>
sle eping</w>
ri l</w>
repres entation</w>
remember ed</w>
predic tions</w>
predic tion</w>
pengu ins</w>
particip ation</w>
partic le</w>
p ap
open ness</w>
ob serve</w>
marke t
li ons</w>
knowle d
instruc tions</w>
ici sts</w>
hom eless</w>
h op</w>
gr as
excit ement</w>
enth usi
en de
ed ly</w>
dom ain</w>
di ve</w>
deta iled</w>
d entally</w>
comm is
collabor ative</w>
clim bing</w>
chi ef</w>
bru ary</w>
bra in
bizar re</w>
bi an</w>
bas eball</w>
b y-
autonom ous</w>
astoni shing</w>
as sets</w>
anthro po
adv enture</w>
ad vis
Tali ban</w>
T im</w>
T .</w>
P E
Nor thern</w>
Je wish</w>
Go vern
G ore</w>
Fe bruary</w>
Dec ember</w>
Col um
Car ol
Bri an</w>
B en</w>
B A</w>
Alex ander</w>
5 0
3 0,000</w>
1 500</w>
z ones</w>
wat ers</w>
w age</w>
vie wer</w>
tis su
ti stic</w>
sy l
sur faces</w>
sub way</w>
she ep</w>
shar ks</w>
sh it</w>
sand w
reven ue</w>
regre t</w>
re al-
r ush</w>
qu it</w>
qu alities</w>
pret end</w>
pos ted</w>
pe op
ound ly</w>
oper a</w>
op timi
om ics</w>
mir acle</w>
k l
invest ed</w>
inve stors</w>
ins ect</w>
in k
in car
im men
help ful</w>
h an</w>
frustr ated</w>
fr action</w>
fi res</w>
fast est</w>
f lic
esc ence</w>
end ang
en ables</w>
e aten</w>
di ble</w>
descri ption</w>
der ing</w>
cro p</w>
colon ies</w>
chan nels</w>
categ ory</w>
carto ons</w>
c able</w>
by e</w>
bur ned</w>
bur ied</w>
bi c</w>
be er</w>
auth or
and er
adap ted</w>
activi sts</w>
a .m.</w>
Z ero</w>
Un til</w>
Sor ry</w>
R oc
R ed
Mo on</w>
L ist
L G</w>
J C</w>
Gre ek</w>
Chil d</w>
199 7</w>
199 1</w>
197 0s</w>
y o
wild life</w>
what so
whatso ever</w>
war ning</w>
tra ins</w>
to ys</w>
ti er</w>
thro wing</w>
tar ge
tal s</w>
tal ent</w>
story telling</w>
sil ly</w>
shel f</w>
sel f
scho ol
sch iz
renew able</w>
reci pe</w>
ram id</w>
r on</w>
r ats</w>
pul ling</w>
pre h
po le</w>
ne ural</w>
motiv ated</w>
mo bility</w>
min d-
mach in
list ened</w>
li ament</w>
k ick</w>
inno cent</w>
initi ally</w>
heal thier</w>
gr ass
gl ad</w>
gen ous</w>
gather ing</w>
flu oresc
f its</w>
experim ental</w>
enter ing</w>
dres sed</w>
di lem
conver t</w>
con front</w>
camp us</w>
c a</w>
bi ot
b adly</w>
b a</w>
au g
ar i</w>
ap or
an ni
am ine</w>
a king</w>
Yor ker</w>
Willi am</w>
T echnology</w>
Ste ph
Sh ould</w>
R om
Palest ini
N et
Mo ore</w>
M other</w>
H un
H all</w>
Eb ola</w>
E S
A I
20 s</w>
win ds</w>
wash ing</w>
vie wing</w>
v ice</w>
u ed</w>
tum ors</w>
tri be</w>
toc in</w>
tic ity</w>
the ore
survi ved</w>
st ain</w>
shif ting</w>
she ets</w>
s its</w>
re actor</w>
re actions</w>
pur poses</w>
prison ers</w>
poin ting</w>
pl ing</w>
ph ony</w>
pe er</w>
newsp apers</w>
ne ys</w>
la p</w>
l it</w>
l ec
ki ly</w>
interven tion</w>
inter viewed</w>
i di
happ ier</w>
gra ms</w>
gol den</w>
gener ating</w>
fin ed</w>
femin ist</w>
ey ed</w>
explos ion</w>
es ia</w>
em powered</w>
ec ological</w>
dr one</w>
disp os
dis abled</w>
diagnos is</w>
di a
demon stration</w>
d ose</w>
d ating</w>
cr it
con sul
compas sionate</w>
clo thing</w>
blo wing</w>
b ound</w>
assum ption</w>
ad m
achiev ement</w>
O ff
L A</w>
John son</w>
Jes us</w>
In don
Hen ry</w>
Fri day</w>
Col le
Ar du
Afr ican-
9 .
5 4</w>
197 5</w>
, 000-
wor ms</w>
wand ering</w>
v ille</w>
ubi quit
ubiquit ous</w>
tra gic</w>
to w
titu des</w>
the ast</w>
th ur</w>
t one</w>
super -
stro ke</w>
st on</w>
sil ver</w>
sen ior</w>
scenari o</w>
rob ust</w>
replic ate</w>
rema ining</w>
reduc tion</w>
reduc ing</w>
re ads</w>
r i</w>
publi sh</w>
prop ag
profession als</w>
prof oundly</w>
pro jec
per ceived</w>
peop les</w>
p it</w>
ou ter</w>
orig ami</w>
off ices</w>
off ers</w>
myst erious</w>
mos qui
mer ely</w>
medic ation</w>
ma r</w>
m on</w>
liter acy</w>
l ou
jud gment</w>
inst ant</w>
inclu ded</w>
in ches</w>
impro ving</w>
ill a</w>
iP ad</w>
i g</w>
horiz on</w>
ho li
hi red</w>
heal ing</w>
grand parents</w>
gra m
gar age</w>
g os
g an</w>
fem ales</w>
f ted</w>
f ound
f ear
exten sion</w>
expla ins</w>
expec tancy</w>
est ate</w>
ere k</w>
endang ered</w>
e ter
dis rup
di ving</w>
deli very</w>
de ar</w>
conserv ative</w>
compu tation</w>
col or
bu rea
bath room</w>
av o
arri ve</w>
appl ying</w>
al ty</w>
air planes</w>
Y oun
T as
Squ are</w>
P ete</w>
Lo ve</w>
L .A.</w>
K o
Ital ian</w>
Islam ic</w>
Is lands</w>
G and
E D
D erek</w>
Braz ili
B oth</w>
Ar thur</w>
Al though</w>
Al pha</w>
1 -
. org</w>
un likely</w>
tra u
ti ps</w>
ta il
t ary</w>
syn the
suppor ting</w>
simul taneously</w>
shi pping</w>
sh y</w>
scr atch</w>
scen es</w>
re placed</w>
re fer</w>
re build</w>
py ramid</w>
pro pos
pi gs</w>
phil anth
par ti
oph ren
n in
micro bial</w>
mat rix</w>
m un
lar ge-
lab s</w>
k in</w>
k el
k -
inst antly</w>
influ enced</w>
industri es</w>
in duc
in dependence</w>
head lines</w>
gather ed</w>
fac tories</w>
estim ates</w>
entreprene ur</w>
em en</w>
dro ps</w>
distinc t</w>
dinos aur</w>
d or</w>
cu ts</w>
cre w</w>
com et</w>
co in</w>
clos ing</w>
claim s</w>
civi li
cham pi
bur gh</w>
bo red</w>
be ating</w>
appe ar
analo gy</w>
an ten
al and</w>
ab s
St ar</w>
St ar
Sh ang
S us
S pain</w>
S cr
S an
S am</w>
Nor way</w>
Mo z
Mic hel
M ac
K evin</w>
J eff
In du
F O
Bang lad
5 8</w>
2 -
zero- sum</w>
weal thy</w>
wea k
v enture</w>
unbeliev able</w>
ub a</w>
tr ace</w>
to es</w>
tion ality</w>
st ered</w>
smo oth</w>
ser ver</w>
schiz ophren
s .</w>
rati o</w>
pri de</w>
pos ter</w>
portra it</w>
plan etary</w>
our ing</w>
off ering</w>
oc curr
ob served</w>
nur se</w>
ne at</w>
navi gate</w>
mosqui to</w>
lis m</w>
li hood</w>
inte gration</w>
insi ghts</w>
inf ections</w>
in justice</w>
hear t
hall uc
h es
glam orous</w>
fu r</w>
flo wing</w>
fac ilities</w>
f ancy</w>
explo red</w>
err ors</w>
er able</w>
e pi
dis gu
di am
der i
d op
cu st
comp elling</w>
co operate</w>
cl ay</w>
civi c</w>
cienti sts</w>
cer em
ca de
br a</w>
bes ides</w>
ba i</w>
b at</w>
auth orities</w>
au dio</w>
as i
arg uments</w>
ar cha
ama z
X- ray</w>
U p</w>
Sun day</w>
Some body</w>
Si licon</w>
S ing
S har
Pe ace</w>
M ach
L ou
Ju ly</w>
Ha wai
Gab by</w>
E ver
E d</w>
Demo cr
Dan ny</w>
D evel
D et
Be at
B el
5 0s</w>
200 ,000</w>
.. ....</w>
-c om
win d
wheel chair</w>
w ound</w>
vi bra
trac ks</w>
t sun
t ag
supp lies</w>
struc tural</w>
ste pped</w>
st ays</w>
sh a</w>
san itation</w>
ris h</w>
refl ection</w>
re view</w>
qu ali
pros titu
prin ts</w>
preser ve</w>
p ants</w>
p al</w>
oxy tocin</w>
ous y</w>
ordin arily</w>
or b
oo h</w>
na tives</w>
mi dd
men tation</w>
mag nific
m apping</w>
ligh t
jell yfish</w>
in ity</w>
impro ved</w>
imag ery</w>
i est</w>
house hold</w>
high way</w>
he al</w>
g i</w>
g ases</w>
f es
exter nal</w>
ep is
ent y-
en for
em a</w>
e Bay</w>
dolph in</w>
disco vering</w>
demo graphic</w>
de man
dd enly</w>
cy cles</w>
cour ses</w>
conduc ted</w>
cli ent</w>
circu its</w>
che ese</w>
cer e
cap abilities</w>
burea uc
bul b</w>
bran ch</w>
bot tles</w>
boo m</w>
beauti fully</w>
be an</w>
b and
attrac tive</w>
athle tes</w>
ag ent</w>
ac ies</w>
ab and
Ze aland</w>
Wor l
W K</w>
V ic
S ir</w>
S il
R A</w>
P C
M P
M K</w>
Gr and</w>
Devel op
Des ign</w>
Del hi</w>
Colle ge</w>
Can a
C D
Bro wn</w>
B lack</w>
Arab ic</w>
A cade
9 4</w>
5 2</w>
3 8</w>
10 -
wo ke</w>
we dding</w>
w oods</w>
v ors</w>
tro l
trajec tory</w>
to wer</w>
terri bly</w>
te en</w>
ta xes</w>
sub si
stra ight
stor age</w>
stay ing</w>
squ ar
some day</w>
simpl er</w>
sha dow</w>
sel ected</w>
see king</w>
sal t</w>
ro gen</w>
ri sky</w>
realiz ing</w>
real istic</w>
re infor
rap ed</w>
qu een</w>
qu ad
pur sue</w>
previ ously</w>
preci ous</w>
pr ic
plu g</w>
pi e</w>
phos phor
philos op
person alized</w>
pan els</w>
pal m</w>
nit ude</w>
mo od</w>
mind set</w>
min es</w>
medic ines</w>
mag nitude</w>
lux ury</w>
ligh ten
le x
institu tional</w>
ha med</w>
h ated</w>
fun ds</w>
fre ely</w>
fl ash</w>
fi red</w>
fi bers</w>
f oods</w>
ec raft</w>
down town</w>
domin ated</w>
di ver
di stor
di gi
dec re
dec or
dea f</w>
cos mic</w>
correc tly</w>
continu ous</w>
comm and</w>
car ri
cam ps</w>
boo k
bed room</w>
barri er</w>
at omic</w>
ari ans</w>
an ity</w>
air s</w>
ad ays</w>
T ony</w>
Su ddenly</w>
Soci al</w>
Shang hai</w>
Par kin
P ra
NG Os</w>
Le on
K or
D ut
D AR
Be ing</w>
B or
B M
Ar gent
A T</w>
199 3</w>
1. 2</w>
&apos; clock</w>
vacu um</w>
v oting</w>
um es</w>
tra uma</w>
tr ash</w>
tissu es</w>
t ine</w>
soci ally</w>
sl ums</w>
safe ly</w>
sacrif ice</w>
s wal
resili ence</w>
reg ul
ra il
r o</w>
pu p
propor tion</w>
proce d
proced ure</w>
pro posed</w>
pro file</w>
prepar ing</w>
phenomen a</w>
pan ic</w>
p ene
ot ted</w>
offici als</w>
nec k</w>
mis sions</w>
lo ws</w>
lif ted</w>
kill s</w>
key board</w>
k ingdom</w>
jus ti
it t
inter ior</w>
initi ative</w>
incar cer
im provi
igno red</w>
hun ting</w>
hop es</w>
he avi
gro cer
gr ounds</w>
gi e</w>
gentle man</w>
gener ous</w>
ge l</w>
fore station</w>
expe dition</w>
exp ecting</w>
ex pos
ent ropy</w>
ei j
diffic ulty</w>
differ enti
dem ands</w>
d os
curr icul
cros s-
copy right</w>
contro versi
continu ing</w>
contin ents</w>
concer ns</w>
comple ted</w>
communic ating</w>
com ment</w>
coll ectively</w>
ci ous</w>
catast rop
br ush</w>
bom b
bo ats</w>
blu e
blo wn</w>
believ ing</w>
b ol
b end</w>
b ands</w>
audi ences</w>
assign ment</w>
ari ties</w>
Worl d
T anz
Secon dly</w>
S ure</w>
P ut</w>
Olym pics</w>
Me dic
K in
F ur
D ad</w>
B eij
Ardu ino</w>
4 0,000</w>
196 0s</w>
wi res</w>
w ill
vi sions</w>
ur able</w>
un certainty</w>
trans mit</w>
tra its</w>
sub stance</w>
sub st
strate gic</w>
str eng
str anger</w>
ster n</w>
speci alized</w>
sp an</w>
so le
sha hi
seem ingly</w>
se min
resi dents</w>
ra tions</w>
pul se</w>
pharmaceu tical</w>
pack age</w>
p ig
p ause</w>
p acked</w>
overwhel ming</w>
ni ghts</w>
mot h</w>
mo ld</w>
micro -
ment or</w>
measu rements</w>
mathema ticians</w>
machin ery</w>
life -
large- scale</w>
lan ding</w>
l en</w>
in tri
in di
impres sive</w>
im migr
i ded</w>
horiz on
histor ically</w>
g -
fre sh
ff s</w>
fall en</w>
encoura ged</w>
ell a</w>
econom ist</w>
dr ones</w>
dr ome</w>
discipl ine</w>
damag ed</w>
d al</w>
curricul um</w>
coun ter</w>
cor als</w>
connec ts</w>
comm ents</w>
char ged</w>
can opy</w>
bran ches</w>
bom bs</w>
bene ath</w>
b un
b inary</w>
b i</w>
b all
appe aring</w>
anonym ous</w>
al tru
administ ration</w>
ade qu
abs ence</w>
ab s</w>
ab ili
Wh at
U shahi
Steph en</w>
Sahar an</w>
S till</w>
S L</w>
Parkin son</w>
PT SD</w>
NG O</w>
M um
L oo
Je ff</w>
Indon esia</w>
I ts</w>
H omo</w>
Fre e
Fran k
F ree</w>
Ar my</w>
196 8</w>
- making</w>
vi al</w>
vege tables</w>
val ley</w>
vac ation</w>
tim acy</w>
temper atures</w>
tem por
teen age</w>
ta tional</w>
t less</w>
subst anti
stri p</w>
straight forward</w>
sti l
si der</w>
shoc ked</w>
sex y</w>
reti rement</w>
remember ing</w>
re store</w>
r ating</w>
pro pose</w>
phys icists</w>
perform ed</w>
paraly zed</w>
para dox</w>
par ach
pan el</w>
ou ts</w>
occasi onally</w>
mot or
mel t</w>
man ner</w>
li vest
lab el</w>
kni fe</w>
ju red</w>
iz es</w>
interpre tation</w>
inten sive</w>
inev it
hor mon
hi er
he a</w>
gi a</w>
gg ers</w>
geome try</w>
g ating</w>
fron tal</w>
fol ding</w>
fi es</w>
ex er
electro des</w>
dynam ics</w>
di strict</w>
di arr
d ential</w>
cot ton</w>
con tain
com preh
collap sed</w>
challeng ed</w>
cha ins</w>
c al</w>
br is</w>
believ es</w>
b uc
at ers</w>
as i</w>
appro aching</w>
an ic</w>
am ate
alcoho l</w>
al istic</w>
activ ist</w>
accoun ts</w>
Z ip
What ever</w>
Wat son</w>
Sec urity</w>
Qu een</w>
Ne ander
L ord</w>
F l
Det ro
D ra
Cour t</w>
C y
C os
C lar
B ru
B P</w>
5 0-
4 6</w>
4 1</w>
2. 0</w>
195 0s</w>
1 80</w>
yr us</w>
whe els</w>
whe at</w>
tsun ami</w>
ton gue</w>
tic ism</w>
susp ect</w>
surr ounding</w>
suc k</w>
stri ke</w>
sp in</w>
so ap</w>
small est</w>
sk i</w>
scan ner</w>
re mot
re minds</w>
re ha
prom ised</w>
portra its</w>
poli tically</w>
pe ts</w>
par ks</w>
p se</w>
p ill</w>
p hi
obst acles</w>
nu ts</w>
minim um</w>
me ta
mam mo
main stream</w>
m ou
m ac
loc ations</w>
lab eled</w>
kee pers</w>
it er</w>
inten sity</w>
ide ology</w>
hypo thesis</w>
hu a</w>
honest ly</w>
home work</w>
head ing</w>
hal f
gradu ated</w>
g li
ful ness</w>
follo ws</w>
fl ou
f ate</w>
es the
equ ity</w>
en vel
ec tors</w>
don or</w>
destro ying</w>
descri bing</w>
dd in</w>
dam n</w>
cont amin
con fir
colum n</w>
bo xing</w>
be aten</w>
att acked</w>
aster oid</w>
as ing</w>
ambi tious</w>
U C
Sk ype</w>
S wit
S pr
P ic
N N</w>
List en</w>
L augh
In dians</w>
C H
Any body</w>
Al most</w>
Acade my</w>
6 8</w>
20 -
yi eld</w>
wor m</w>
wat ts</w>
war t</w>
v ag
ut es</w>
up side</w>
u als</w>
tr apped</w>
th ood</w>
ten dency</w>
succe eded</w>
sub ur
sig nature</w>
si zes</w>
shar p</w>
sh r
sens or</w>
s ni
s ink</w>
s enti
ref used</w>
re ef</w>
r ose</w>
pri sons</w>
plan ting</w>
phosphor us</w>
ou gh
orig ins</w>
on going</w>
ner ves</w>
near by</w>
mem es</w>
loc ally</w>
lo g</w>
l an</w>
it ems</w>
inter net</w>
inst alled</w>
in cen
in able</w>
imag ining</w>
ick et</w>
i p</w>
hy bri
hon ey</w>
hi ding</w>
helicop ter</w>
ha r</w>
h at</w>
h acking</w>
guil ty</w>
gu id
grav it
gen s</w>
gen esis</w>
g as
g aps</w>
fra g
form at</w>
fol ded</w>
fa i
f ence</w>
extra ordinarily</w>
enti c</w>
eleph ants</w>
ear ning</w>
dis abilities</w>
cur ves</w>
cri tici
cri mes</w>
coun ting</w>
conveni ent</w>
conv ey</w>
constra ints</w>
comm it</w>
come dy</w>
co vers</w>
cl arity</w>
chimpanz ee</w>
cell ular</w>
campa ig
bur g</w>
bo y
bel ly</w>
ban king</w>
b ite</w>
auth entic</w>
ann ual</w>
an at
adv ances</w>
accoun tability</w>
a ve</w>
a than</w>
Ushahi di</w>
Tur ns</w>
St asi</w>
St age</w>
Sp eci
Se attle</w>
S el
S M</w>
Pro f
Lin u
K ur
J ac
Ex cept</w>
Char lie</w>
Carol ina</w>
C r
C oll
C le
C M
Broo kl
Brazili an</w>
A lice</w>
7 6</w>
y ourselves</w>
work force</w>
wid th</w>
wi ves</w>
we i
volunte er</w>
utter ly</w>
ur ge</w>
un -
um en</w>
trans forming</w>
ti ble</w>
ther mal</w>
tem porary</w>
teles copes</w>
teen ager</w>
su stain</w>
stri king</w>
star ing</w>
spea ks</w>
sett le
sel fish</w>
sci ences</w>
scan ning</w>
roman tic</w>
rol led</w>
reve aled</w>
reg ard
regard less</w>
recycl ing</w>
re alities</w>
r ape</w>
qui e
pros tate</w>
pro ved</w>
pot ent</w>
por tion</w>
pleas ant</w>
plat forms</w>
orchestr a</w>
op ini
ol it
occur s</w>
ob lig
neu tr
micro phone</w>
mar ch</w>
lun gs</w>
lo ving</w>
lo ves</w>
ju gg
inv enting</w>
introduc tion</w>
indi genous</w>
in jured</w>
illustr ate</w>
i res</w>
grocer y</w>
glaci er</w>
gl ue</w>
gene tics</w>
g lim
far ms</w>
excell ent</w>
evol ving</w>
ethn ic</w>
es sions</w>
equ ations</w>
ep h</w>
enc ryp
emplo yed</w>
dilem ma</w>
desper ately</w>
decre ase</w>
d ung</w>
cul tiv
chromos ome</w>
cal ories</w>
ca ves</w>
bub bles</w>
broad er</w>
bre eding</w>
bot tom
blin dness</w>
b ond</w>
awk ward</w>
automo bile</w>
assi stance</w>
appro ved</w>
appear ance</w>
appe al</w>
ali an</w>
ag ents</w>
adop t</w>
activ ate</w>
ac tively</w>
ac knowledge</w>
abund ance</w>
a u</w>
To gether</w>
Th ir
St .</w>
S wis
S top</w>
Prof essor</w>
P ub
P at
Organ ization</w>
Linu x</w>
La dies</w>
L O
Kore an</w>
Jos eph</w>
J us
I M</w>
F DA</w>
E l</w>
Chi le</w>
Ber lin</w>
Ar ch
A ir</w>
8 2</w>
6 000</w>
6 0,000</w>
- of-
zer land</w>
we stern</w>
we ed</w>
ver -
vari ations</w>
u red</w>
tou ching</w>
tic ket</w>
th ic</w>
terri fied</w>
ter min
ter ey</w>
t rop
syn drome</w>
suffici ent</w>
sti g
s per
s ne
rub ber</w>
robo tics</w>
ro w
rit ual</w>
restaur ants</w>
requ est</w>
reli ef</w>
puni shment</w>
poll in
pi x
passen ger</w>
pass es</w>
pas sive</w>
pa ired</w>
p ill
p el
om ing</w>
n am</w>
mi x
market place</w>
manag er</w>
magnific ent</w>
m and
limit ations</w>
li sts</w>
legi timate</w>
lea f</w>
l ot
l friend</w>
install ation</w>
inf ec
har mony</w>
ga ined</w>
fortun e</w>
expres sed</w>
exp lic
ex cl
es cal
enfor cement</w>
eleg ant</w>
e ing</w>
dom s</w>
div or
discus sions</w>
dest iny</w>
descri bes</w>
den ial</w>
defin ing</w>
d ental</w>
custom er</w>
cr ack</w>
concer t</w>
comprom ise</w>
comp ounds</w>
co inci
can v
c and
break fast</w>
bound ary</w>
bl ank</w>
bio logist</w>
ash ed</w>
appro xim
alter natives</w>
al arm</w>
Viet nam</w>
Swit zerland</w>
Ste wart</w>
S how</w>
S en
S au
R it
R O
Ph ot
Mon terey</w>
Mand ela</w>
Le e</w>
Indu strial</w>
H igh
Green land</w>
E con
Coun ty</w>
Brookl yn</w>
Banglad esh</w>
B ell</w>
Au gust</w>
Ap ril</w>
Ale x</w>
Afgh an</w>
8 6</w>
wor rying</w>
we t
we l</w>
war ri
w rist</w>
v oted</w>
v enti
ut ter</w>
ush ing</w>
tun nel</w>
tu bes</w>
tou gh
ti fication</w>
thum b</w>
therap ies</w>
th west</w>
territ ory</w>
sum mit</w>
stop ping</w>
st um
st ly</w>
spac ecraft</w>
six -
signific antly</w>
sec tors</w>
sc al
sc aff
rema ined</w>
refl ected</w>
read ers</w>
re think</w>
propos al</w>
pre me</w>
po x</w>
po ems</w>
pi geon</w>
philosop her</w>
part ner
ow nership</w>
on er</w>
off spring</w>
od ds</w>
neu tral</w>
mosquit os</w>
monit oring</w>
mel ting</w>
me g
me ets</w>
mat ure</w>
kin dness</w>
j et</w>
it y-
it em</w>
it age</w>
integr ate</w>
int on</w>
i ons</w>
hop eful</w>
ha bits</w>
h -
gu ard</w>
go d</w>
gin ia</w>
g ins</w>
func tioning</w>
fil es</w>
fail ures</w>
expos ure</w>
explo it</w>
encoura ging</w>
en em
el em
ec ology</w>
drop ping</w>
det ection</w>
cr icket</w>
co at</w>
clu bs</w>
car t</w>
break through</w>
ban g</w>
auth en
aud it
as set</w>
as ion</w>
art work</w>
ar -
appro ached</w>
apo logi
amaz ingly</w>
ama zed</w>
al titude</w>
aes thetic</w>
advoc ate</w>
Vir ginia</w>
Th rough</w>
Swis s</w>
Sing ap
Si f
Ra ther</w>
R S</w>
Pro b
P lan
P C</w>
O pen</w>
Mon t
M en</w>
M el
K B</w>
Jeff er
J ones</w>
Israel i</w>
I A</w>
Ge ographic</w>
G M</w>
Dut ch</w>
Ch urch</w>
C er
Beij ing</w>
Ab solutely</w>
A A</w>
3 0-
-c ost</w>
w rap</w>
w a</w>
visu alization</w>
ves sel</w>
tro ops</w>
trans fer
th or
te ar</w>
t z</w>
syste matically</w>
swit ched</w>
sub mer
sub jective</w>
stret ch</w>
stor ms</w>
st ot
sp ra
skelet al</w>
si ans</w>
se a
sc ans</w>
sandw ich</w>
ru pt</w>
righ t-hand</w>
rela tives</w>
reg ulation</w>
rec k
re land</w>
rais es</w>
pur ple</w>
publi shing</w>
prot ests</w>
profes sion</w>
pro position</w>
pre ad</w>
plas tics</w>
over night</w>
ob jec
o li
mush room</w>
min us</w>
me als</w>
m asses</w>
m ass
low est</w>
l ining</w>
kid ney</w>
k o
k ins</w>
je al
invest ments</w>
intri gu
insul in</w>
imp ul
im it
ig er</w>
i ding</w>
hor ses</w>
hel pl
har vest
glam our</w>
gh ted</w>
ge ography</w>
g y
for got</w>
fo rec
fab ric
expan ded</w>
exer c
ex ag
estab lish</w>
er ce</w>
er als</w>
enem ies</w>
en try</w>
ema ils</w>
earli est</w>
dou bled</w>
docum entary</w>
deci sion
de vil</w>
de stri
de als</w>
d ough</w>
controversi al</w>
contribu ted</w>
conduc t</w>
concent ration</w>
con fig
co ws</w>
class rooms</w>
ch ur
c k</w>
but ter
buil ds</w>
ble w</w>
bi ol
ber ry</w>
bacter ial</w>
az z</w>
au to
at titudes</w>
assem ble</w>
as m</w>
ans as</w>
aggres sive</w>
ad ul
accomp lished</w>
accomp lish</w>
ac knowled
aband oned</w>
a er
a eda</w>
Wh ereas</w>
Syri a</w>
Sy stem</w>
Sau di</w>
S ame</w>
S P</w>
Ro bo
Q aeda</w>
Olym p
O ut</w>
No vember</w>
N ick</w>
Leon ardo</w>
L oc
K u
J ane</w>
Har ry</w>
H or
H im
H ans</w>
Detro it</w>
D re
D .C.</w>
Cl inton</w>
C as
B us
B la
Ari stot
Any one</w>
AI MS</w>
A sian</w>
6 1</w>
wr apped</w>
win ner</w>
visu alize</w>
ver theless</w>
v ary</w>
tru st
tiv eness</w>
tic k</w>
th ly</w>
t esti
sus pic
st ack</w>
soc cer</w>
shif ts</w>
separ ation</w>
s us</w>
s lic
s anc
s ale</w>
retin a</w>
respon ded</w>
re solve</w>
pur suit</w>
pros thetic</w>
pro ven</w>
pro li
pr ay</w>
pe di
p iz
ori ous</w>
or dered</w>
op a
ong side</w>
nee d
mus ician</w>
mo tions</w>
mis erable</w>
min ority</w>
me tric</w>
mark er</w>
mani fe
loc ks</w>
legis lation</w>
leg ally</w>
le ep</w>
landsc apes</w>
ket ball</w>
jo int</w>
infec tious</w>
incen tive</w>
imple ment</w>
home town</w>
hard est</w>
gu ards</w>
great -
gra ve</w>
ge st
ge ar</w>
fundam ent
frighten ing</w>
fra m</w>
fe ver</w>
ent -
enjo ying</w>
elimin ate</w>
el ds</w>
di al</w>
des k
def end</w>
dec ent</w>
de pic
da wn</w>
d ary</w>
cul ar</w>
cruc i
contr ary</w>
con qu
compe ting</w>
co ast
class ical</w>
cl ue</w>
ci gar
che at</w>
car ed</w>
ca p</w>
barri ers</w>
b os
app y</w>
ap a
ant a</w>
al ongside</w>
ag e-
ad just</w>
ab y
a im
Wol fram</w>
Tur key</w>
Tit an</w>
Tanz ania</w>
Sus an</w>
St even</w>
Some one</w>
S ta
Ro b</w>
Prob ably</w>
Po int</w>
P ho
M R</w>
Kor an</w>
K -
Jos hua</w>
J as
I reland</w>
I cel
Hal f</w>
E duc
E S</w>
Co ke</w>
Cana dian</w>
Cam bo
B S</w>
B BC</w>
A K</w>
1. 3</w>
1 1
war e
un conscious</w>
tri vial</w>
traff icking</w>
t ance</w>
sur geons</w>
stom ach</w>
stere otyp
st es</w>
sp her
sh at
sen sing</w>
sen sation</w>
scre ening</w>
s a</w>
rit uals</w>
resi st</w>
res ul
repres enting</w>
recei ving</w>
re vel
re efs</w>
random ly</w>
rain forest</w>
pro be</w>
predat ors</w>
pre y</w>
pol ar
poc kets</w>
po is
pic k
pe destri
p here</w>
p ecu
opini ons</w>
narra tives</w>
n esses</w>
n ap
mot ors</w>
mim ic</w>
me tic</w>
man kind</w>
lef t-hand</w>
laugh ed</w>
lan es</w>
kne es</w>
journ alism</w>
je wel
is u
ir ts</w>
interpre t</w>
infor mal</w>
inevit ably</w>
in ser
il a</w>
ici ous</w>
ha ir
gras p</w>
ge o
g ering</w>
fra ud</w>
found ations</w>
fol ds</w>
f on
f ing</w>
exc use</w>
ev apor
eni x</w>
emis phere</w>
em power</w>
dro w
docum ented</w>
deplo yed</w>
deep est</w>
dec lar
de pos
de forestation</w>
d or
cros sed</w>
crit eria</w>
cra tic</w>
cor ners</w>
continu ously</w>
cont ex
consci ously</w>
concentr ated</w>
compar ison</w>
col n</w>
co lored</w>
clu sters</w>
cli ff</w>
chec k
bri dges</w>
biol umin
bel t</w>
be half</w>
bas ketball</w>
b in</w>
b am
aster oids</w>
ar ded</w>
antibio tic</w>
ang es</w>
anc ers</w>
aff ecting</w>
ad dy</w>
ac id</w>
a qu
a a
Wa it</w>
V -
Sy l
Singap ore</w>
R omo</w>
Po wer
P re
Ne ws</w>
N an
Mum bai</w>
Me dia</w>
Lin coln</w>
La ke</w>
L ad
H osp
H C</w>
G B
For ce</w>
El ec
D av
Co ast</w>
C ri
C R</w>
Br on
Ben jam
B at
B .</w>
Ap oll
A sh
9 2</w>
8 ,000</w>
6 7</w>
3 -
198 5</w>
- down</w>
vi vi
vers ary</w>
v ant
ul ture</w>
tri gger</w>
tre as
thri ve</w>
tex ting</w>
teach es</w>
tal e</w>
t ant</w>
t all
syn ap
stra tions</w>
str an
ste am</w>
smart phone</w>
sm iling</w>
sec tions</w>
sc aling</w>
s ors</w>
ru ption</w>
rou tine</w>
ri ding</w>
revol utionary</w>
remark ably</w>
re sur
pres sing</w>
pr osp
pi pe</w>
phenomen al</w>
pat ents</w>
part nership</w>
parach ute</w>
ow ners</w>
ol d-
non profit</w>
no des</w>
na sty</w>
mu d</w>
mi xing</w>
manag ers</w>
lo wer
liz ab
livest ock</w>
lif esp
li ze</w>
li a</w>
lea ther</w>
k ton</w>
k n
jour nal</w>
ji had</w>
investi gate</w>
inf ant</w>
impres sion</w>
ick ens</w>
ice berg</w>
ic onic</w>
harm ful</w>
hand ful</w>
guaran tee</w>
g ur
g ates</w>
frequ ently</w>
fra mes</w>
form ula</w>
fluoresc ent</w>
far ther</w>
ev ity</w>
ev al</w>
est ers</w>
es cent</w>
enterpri se</w>
embarrass ing</w>
em bo
electr on</w>
dra g</w>
dis agree</w>
devast ating</w>
desk top</w>
des c
demonstr ated</w>
deli cious</w>
dec k</w>
de struc
de mic</w>
de fault</w>
contribu ting</w>
consum ed</w>
compu tational</w>
chr onic</w>
calcul ated</w>
c age</w>
bul let</w>
belon gs</w>
back yard</w>
b on</w>
as th
ar bit
apart ments</w>
an ch
aff airs</w>
adequ ate</w>
Youn g</w>
T ran
Ri ghts</w>
RIS D</w>
Por tu
Pa ti
P ret
P os
N 1</w>
Mi ke</w>
M ill
L GB
Ken ne
Jeffer son</w>
J S</w>
J F</w>
Em ma</w>
E ven
E lizab
E M</w>
Cra ig</w>
Ch ap
B ol
B J</w>
African- American</w>
A .
9 3</w>
4 .
2 5,000</w>
198 6</w>
197 6</w>
1 60</w>
y ards</w>
witn essed</w>
web sites</w>
wa sted</w>
wa ited</w>
w ol
vis iting</w>
us cri
us age</w>
ul tural</w>
ul tr
u ps</w>
tu ber
tru ths</w>
toler ance</w>
tiz ation</w>
thre sho
thresho ld</w>
t is</w>
t elec
su red</w>
str ings</w>
sk illed</w>
she er</w>
self -con
sel ect</w>
scre aming</w>
s in
s al</w>
ri dge</w>
research er</w>
represen tative</w>
repe ated</w>
ref use</w>
re sem
re produce</w>
privile ged</w>
prison er</w>
pri or</w>
prepar ation</w>
preci sion</w>
po ison</w>
pan demic</w>
p our</w>
p ays</w>
osy n
ori um</w>
om ed</w>
observ ations</w>
negoti ate</w>
na tion
my ce
mu tations</w>
mom en
mar t</w>
manipul ate</w>
man uscri
m ask</w>
m apped</w>
lo go</w>
lo ads</w>
like lihood</w>
le thal</w>
l o</w>
kis s</w>
kel ey</w>
j a</w>
invol ve</w>
inten tion</w>
ins ane</w>
incl usive</w>
in dex</w>
imp lic
immen se</w>
i shing</w>
hun t</w>
hormon es</w>
hop ed</w>
high- tech</w>
gra des</w>
gr as</w>
gor geous</w>
gen omes</w>
gall ery</w>
fl esh</w>
fac il
enni um</w>
eigh t-
dou ble
dop amine</w>
dist ances</w>
dic t
diarr hea</w>
dia meter</w>
di sh
de fic
de ad
d ation</w>
cy lin
cul osis</w>
cros s
convic ted</w>
com pl
co her
co des</w>
clu ster</w>
clim bed</w>
car ries</w>
car pet</w>
bor row</w>
bon ds</w>
bo o</w>
bo ld</w>
bi ases</w>
bee tle</w>
as sa
any on</w>
anticip ate</w>
al y
acqui red</w>
accur acy</w>
Z im
W atch</w>
U l
T y
Syl via</w>
S pi
S ho
P rin
Moun tain</w>
Mat t</w>
Jer sey</w>
J our
I P</w>
Hawai i</w>
Ha ving</w>
H op
H ong</w>
Gand hi</w>
G or
E r
DAR PA</w>
D aniel</w>
D J</w>
D I
Budd h
Ber keley</w>
Ar chi
Apoll o</w>
A V</w>
5 6</w>
197 3</w>
z zy</w>
wel fare</w>
w ow</w>
w ling</w>
vis ually</w>
vi sion
typ ing</w>
tuber culosis</w>
transforma tive</w>
tra ding</w>
tow ns</w>
tion aries</w>
ti zing</w>
ti me-
th us</w>
th a</w>
susp ended</w>
super market</w>
sta ke</w>
st le</w>
st in
sp inning</w>
so oner</w>
small pox</w>
shor t-
sequ encing</w>
sen ds</w>
s in</w>
ro les</w>
ri ses</w>
resur rec
reha bil
re vers
re stor
re actors</w>
re aches</w>
pro v
princi pal</w>
pri ority</w>
prescri ption</w>
po int
pl um
piz za</w>
pes tici
per v
pecu liar</w>
pa ths</w>
p ouring</w>
overwhel med</w>
os ex
or -
ol en</w>
off -
occurr ing</w>
n ity</w>
momen tum</w>
mod eling</w>
mo bili
mem br
mar ked</w>
mam mal</w>
ma ster
m all</w>
liter ate</w>
lin gu
li sh
l i</w>
kes pe
k icked</w>
innov ate</w>
inher ently</w>
inci dent</w>
imple mented</w>
im a</w>
identi ties</w>
hum ili
hor ror</w>
har bor</w>
happ ily</w>
half way</w>
h o</w>
form al</w>
fir ing</w>
fic ations</w>
fe es</w>
eng ines</w>
en ab
el abor
e ums</w>
do od
discus sing</w>
discrimin ation</w>
dis per
des pair</w>
coun sel
co oper
canv as</w>
candi date</w>
calcul ations</w>
c on</w>
bur st</w>
bloc k
blo gs</w>
bat teries</w>
bam boo</w>
b other</w>
b ills</w>
auth ors</w>
argu ed</w>
ar ro
an no
ag an</w>
ad el
W ay</w>
Tra de</w>
T M</w>
T .
Sha kespe
Se bas
Scr atch</w>
S tr
S anta</w>
R en
Pret ty</w>
Palestini an</w>
O per
Moz art</w>
Me an
L T</w>
In cre
H ill
H aw
H am
G ene</w>
FO X
Even tually</w>
D E
C u
C oc
Be e
A ge</w>
8 7</w>
3 9</w>
1 2,000</w>
y e</w>
x -
wor th
val ence</w>
us eless</w>
underst ands</w>
un le
un happy</w>
tri bal</w>
tra p</w>
threat ening</w>
thr illed</w>
theore tical</w>
th en
tex ts</w>
techn ically</w>
su ing</w>
str ands</w>
sp are</w>
sla ve</w>
signific ance</w>
sh ining</w>
sett led</w>
sequ ences</w>
schizophren ia</w>
sa il</w>
s lower</w>
rot ate</w>
repor ting</w>
rel ates</w>
reg ularly</w>
rec ur
realiz ation</w>
real- time</w>
re war
re turns</w>
ra ins</w>
psycho logist</w>
pl ates</w>
pene tr
pe ers</w>
p in</w>
p ills</w>
op tical</w>
o dy</w>
nor ms</w>
near est</w>
n om
my tho
mur der</w>
mu st
mess y</w>
maxim um</w>
man ual</w>
los ses</w>
long evity</w>
la sting</w>
isu ddin</w>
in mates</w>
im plant</w>
go o
gener ic</w>
free zing</w>
flo at</w>
exag ger
et al</w>
est er</w>
entrepreneur ship</w>
enjo yed</w>
ed itor</w>
du ty</w>
dre aming</w>
distur bing</w>
distinc tion</w>
dest ination</w>
desper ate</w>
decision -making</w>
d ged</w>
d enti
cru de</w>
conver ted</w>
conduc tor</w>
con sens
con doms</w>
com ic</w>
ca the
ca ke</w>
ballo ons</w>
b ad
at oes</w>
activ ated</w>
ack er</w>
achiev ing</w>
ac re</w>
ac cess
abund ant</w>
a- half</w>
Zip car</w>
TED Talk</w>
Sebas tian</w>
S B</w>
Ra isuddin</w>
R em
R I
Pa ul
P u
Nig erian</w>
N ep
Mo der
Ma thema
Lu ther</w>
Le go</w>
Lar ry</w>
L P</w>
I N
Hi story</w>
Fu nd</w>
F ore
Egyp tian</w>
Develop ment</w>
Com pu
Ch o
Bl ack
Benjam in</w>
B ot
Aristot le</w>
Ar m
Ac cording</w>
AC E</w>
5 3</w>
youn gest</w>
y le</w>
work place</w>
vo id</w>
v ania</w>
un ks</w>
ultr as
u k
tur b
tri ps</w>
tra iler</w>
tr ical</w>
tor ture</w>
top ics</w>
tiv al</w>
terri fic</w>
ter rain</w>
syl vania</w>
stu res</w>
stre ams</w>
sta ir
sper m</w>
sp ati
sm ells</w>
shoul ders</w>
sa ke</w>
ri sts</w>
respon si
reg ard</w>
recogn izing</w>
rec t
rec all</w>
pul ls</w>
psycho logists</w>
produc ers</w>
po t</w>
persi st
percep tions</w>
pe ti
p unch</w>
p ad</w>
ou red</w>
op ar
on ds</w>
ol ine</w>
ob ese</w>
o y
o tion</w>
o let</w>
now adays</w>
net working</w>
na mely</w>
n is</w>
mus eums</w>
mul tin
mill en
mathema tician</w>
magaz ines</w>
m ly</w>
lo wed</w>
lic k
lam p</w>
k it</w>
j i</w>
it -
int act</w>
inst all</w>
indic ate</w>
in fr
id ity</w>
i sha</w>
hy dr
hon ey
high light</w>
hi bi
heavi ly</w>
h ook</w>
gra ins</w>
glim pse</w>
gir lfriend</w>
fro g</w>
fl uc
fish eries</w>
f ting</w>
expres sions</w>
ex otic</w>
ess ly</w>
enti ties</w>
enorm ously</w>
end ers</w>
en s
emer gence</w>
electr om
econom ically</w>
dr unk</w>
divi sion</w>
dir t</w>
de lic
d us</w>
cr um
contribu tion</w>
consens us</w>
compos ition</w>
com mon
co ach</w>
chec ks</w>
cat ching</w>
cat aly
candi dates</w>
cal m</w>
c av
bu m</w>
bloo d
barre l</w>
b ited</w>
az a</w>
ay a</w>
au ts</w>
associ ate</w>
ar rest</w>
ar a</w>
analy zed</w>
amp li
al lies</w>
adop tion</w>
acceler ate</w>
ac ou
ab ul
Zim bab
Ye ar</w>
Wh o
W it
V ol
Th ere
Tes la</w>
T en
T -
S now
Pub lic</w>
Pho enix</w>
Off ice</w>
M id
M T
L ine</w>
Kenne dy</w>
Ke ep</w>
K os
Jo el</w>
I SA</w>
H an
Gi us
G G</w>
E B</w>
Con sider</w>
C S
C NN</w>
Bus iness</w>
Au dio</w>
Argent ina</w>
A h
1 10</w>
voc abul
vi se</w>
ven ue</w>
uni qu
uni form</w>
un ited</w>
tru sted</w>
trop ical</w>
trau matic</w>
toil ets</w>
ther ed</w>
th -century</w>
te dly</w>
targe ted</w>
ta ke
t le
syste matic</w>
survi vors</w>
sugg estion</w>
strugg led</w>
st olen</w>
sp rin
sp reads</w>
sla ves</w>
six th</w>
shoc king</w>
shif ted</w>
sha king</w>
se duc
se al</w>
scre ens</w>
san i</w>
ri gi
resili ent</w>
res s</w>
re jected</w>
program mers</w>
prof itable</w>
preven tion</w>
pres um
prac tically</w>
pos ters</w>
plan ned</w>
philanth ropy</w>
phi a</w>
par enting</w>
p ac
ou tw
or ds</w>
or a
on stage</w>
olit an</w>
off s</w>
occas ion</w>
ne gl
n sylvania</w>
n ell</w>
n ate</w>
myce lium</w>
mat ched</w>
m one</w>
m ere</w>
m are</w>
lon ely</w>
lo s</w>
lick r</w>
lean ing</w>
ju ven
j am</w>
j ac
inv asive</w>
in timate</w>
im posed</w>
il and</w>
i tions</w>
i ti
horizon tal</w>
hor mone</w>
hier archy</w>
ha z
graph s</w>
gr at
gener ates</w>
gard ens</w>
ga ins</w>
fir st-
fin dings</w>
favor ites</w>
fantas y</w>
f est</w>
exha u
er ra</w>
ende av
end less</w>
encoun tered</w>
emo tionally</w>
ed itors</w>
e astern</w>
dum b</w>
dis gust</w>
det ected</w>
democr acies</w>
deci ding</w>
d rought</w>
cre ator</w>
cra p</w>
coun tless</w>
coun ted</w>
concentr ate</w>
con tained</w>
con g
compar ing</w>
colum ns</w>
co verage</w>
clin ics</w>
chec ked</w>
che mo
cerem ony</w>
celebr ated</w>
ce -
cat tle</w>
bus h</w>
bi ased</w>
b ury</w>
at ings</w>
ast ro
as ka</w>
anni versary</w>
ani um</w>
adel phia</w>
addres sing</w>
accoun table</w>
ac compan
a ther</w>
U sing</w>
Sim on</w>
Si erra</w>
Shakespe are</w>
Satur day</w>
Sahar a</w>
S in
R ick</w>
R G</w>
Q .</w>
Phil adelphia</w>
Pen nsylvania</w>
Pan ban
P ot
P op
O oh</w>
N ath
Mach ine</w>
M ol
Le w
Je ws</w>
J a
Inter est
Go als</w>
F lickr</w>
Elizab eth</w>
De an</w>
D ru
Col om
Ca tho
C old</w>
AL S</w>
3 0s</w>
3 0
20 16</w>
2 ,
198 3</w>
15 0,000</w>
y ota</w>
woo den</w>
wi shes</w>
who ever</w>
wei gh</w>
wash ed</w>
w et</w>
vot ers</w>
virtu e</w>
ver e
ven ess</w>
v in</w>
uc ked</w>
u l</w>
two- thirds</w>
tun ately</w>
tu p</w>
tra vels</w>
th and</w>
surg ical</w>
sub- Saharan</w>
story t
sti m
stim ulation</w>
st em
st abili
sole te</w>
so vere
si r</w>
shel ves</w>
scre am</w>
s essions</w>
s ance</w>
ro wed</w>
respon ding</w>
resc ued</w>
reason ing</w>
public ly</w>
prototyp es</w>
prostitu tion</w>
po w
play ful</w>
pengu in</w>
pay ment</w>
ou tra
op position</w>
offic ers</w>
ob solete</w>
mu tation</w>
mor tal</w>
me tals</w>
manag ing</w>
ma inten
mainten ance</w>
m i</w>
lob by</w>
lo ose</w>
list en
li ance</w>
lap tops</w>
kid n
jun gle</w>
j an</w>
it ly</w>
is a</w>
investi gation</w>
inter views</w>
ingredi ent</w>
ic h
hol ders</w>
ho ly</w>
her itage</w>
helpl ess</w>
ght ful</w>
gest ure</w>
fron tier</w>
foun der</w>
fos ter</w>
fluc tu
fe eds</w>
fat al</w>
f t
exhi bit</w>
ex ec
estab li
enab ling</w>
en ses</w>
empower ment</w>
elev ator</w>
electrom ag
eg g</w>
ed it</w>
dru m</w>
disrup tive</w>
di ly</w>
deser ves</w>
des pread</w>
deci des</w>
dec ep
d ancers</w>
d an</w>
d af
cu ps</w>
cu be</w>
cre am</w>
cor ri
cop ic</w>
consider ing</w>
con fer
com modi
collabor ators</w>
civiliz ations</w>
chim ps</w>
cha se</w>
bu ff
brow ser</w>
be et
b bean</w>
attemp ts</w>
at ories</w>
ash a</w>
ari bbean</w>
approxim ately</w>
ang el
an e
acceler ating</w>
ac res</w>
ac ious</w>
absor b</w>
W on
W ar
Ven us</w>
To k
There fore</w>
T ry</w>
T ha
Spr ing</w>
Sar ah</w>
S um
R D</w>
P ur
New ton</w>
Med ical</w>
M ari
K an
K S</w>
Jas on</w>
J en
In tel</w>
In dus</w>
I -
Hosp ital</w>
Gius sani</w>
For tunately</w>
F GM</w>
Ever est</w>
E ve</w>
Dis ney</w>
Di rec
D oc
Ci vil</w>
C yrus</w>
C aribbean</w>
Bron x</w>
B ir
B il
B each</w>
Arch it
Ar ound</w>
A re
8 9</w>
6 3</w>
5 7</w>
10 000</w>
1, 500</w>
z u
z er</w>
weigh s</w>
w rest
vit am
vi olet</w>
ver i
univers es</w>
ul l
twe et</w>
tri um
transl ator</w>
tr y
tex ture</w>
ta ils</w>
t t</w>
t ful</w>
syn chron
su res</w>
stri kes</w>
str at
stag gering</w>
st are</w>
squar es</w>
speci ally</w>
spe eds</w>
sm ugg
sli me</w>
sil s</w>
shi pped</w>
sh u
satis fied</w>
s now
ro t</w>
revolu tion
reven ues</w>
ren der</w>
reg ulations</w>
re generate</w>
rac ing</w>
ra ge</w>
pu rely</w>
prot ective</w>
pow der</w>
poli tician</w>
ple ased</w>
phys icians</w>
pe tro
partner ships</w>
pa ir
p y</w>
p is
over -
ori ented</w>
open ha
on ically</w>
no ises</w>
nit rogen</w>
nan ot
mis sion
millen nia</w>
mi gra
mi es</w>
man -
ma ke
m ing
m ans</w>
low -cost</w>
li der</w>
le op
knoc k</w>
k er
j unk</w>
isol ation</w>
int ent</w>
infl ation</w>
im per
i ties</w>
hum ility</w>
head -
gu it
gas oline</w>
fr ic
en ters</w>
empower ing</w>
ell ular</w>
electr ons</w>
e ase</w>
du le</w>
dra g
don ors</w>
dic tionaries</w>
di se</w>
di gging</w>
determin es</w>
deli vering</w>
de bris</w>
de adly</w>
d are</w>
cous in</w>
cou ples</w>
cosmo s</w>
coordin ation</w>
confron ted</w>
con sent</w>
comp ute</w>
comp ound</w>
comm ons</w>
collabor ate</w>
co di
cli ps</w>
cl ing</w>
celebr ity</w>
car d
bul bs</w>
bud gets</w>
br ick</w>
be am</w>
be a
bacter ium</w>
b ind</w>
az z
attrac ted</w>
at ro
at om</w>
argu ing</w>
app lies</w>
apologi ze</w>
anz i</w>
ance stor</w>
analy zing</w>
an esthe
ambi tion</w>
adap tive</w>
ab sur
a e</w>
Win dows</w>
Tok yo</w>
T uni
T S</w>
Sim il
Sh ir
S her
Par ty</w>
Panban isha</w>
Olymp ic</w>
O ver
O E
Nor den</w>
Nath aniel</w>
Mic hi
M aria</w>
Li br
L es
K er
J ord
ID E
I M
I C
H ur
E van</w>
Dar win
D ata</w>
D al
CE Os</w>
C ape</w>
C ancer</w>
Arm strong</w>
A BC</w>
7 7</w>
7 ,000</w>
3 00,000</w>
-c hanging</w>
wi despread</w>
war mer</w>
w ins</w>
vis ed</w>
us al
usal em</w>
umin um</w>
tun ed</w>
transpor ted</w>
trans mitted</w>
tou ches</w>
too th
to oth</w>
ti ghtly</w>
them es</w>
th al
text books</w>
tal ented</w>
t anks</w>
survi vor</w>
sul fi
ste aling</w>
some time</w>
sna kes</w>
sna ke</w>
simpl est</w>
shor ter</w>
sho e</w>
sex uality</w>
se gment</w>
s wing</w>
rob i</w>
resear ching</w>
replac ing</w>
refl ects</w>
recomm end</w>
re invent</w>
quie tly</w>
program med</w>
pro -
pregn ancy</w>
predat or</w>
practic ing</w>
pol l</w>
pi pes</w>
perspec tives</w>
pen is</w>
path way</w>
pass age</w>
p ity</w>
over seas</w>
on ist</w>
oc ity</w>
ob sc
non- zero-sum</w>
non e
none theless</w>
n ou
mush rooms</w>
multin ational</w>
multi ply</w>
min ded</w>
men str
membr ane</w>
mat ches</w>
man eu
li fel
jum ps</w>
ju ice</w>
is y</w>
interven tions</w>
inter section</w>
inter connected</w>
inj uries</w>
in depend
head quarters</w>
h ob
gravit ational</w>
gradu ates</w>
grab bed</w>
fra gments</w>
for give</w>
flo ors</w>
fla vor</w>
fa vel
f ers</w>
experim enting</w>
execu tive</w>
excep tions</w>
ess ors</w>
es day</w>
eri al</w>
epis ode</w>
envel ope</w>
entrepreneur ial</w>
en lighten
embrac ing</w>
elabor ate</w>
diplom acy</w>
dem o</w>
deliber ately</w>
corru pt</w>
cop ied</w>
config uration</w>
cock ro
coast al</w>
co ding</w>
cl oth</w>
ch ol
cele bra
cap s</w>
cal end
ca sting</w>
bo iling</w>
bi kes</w>
b ay</w>
authen ticity</w>
assum ing</w>
ass ess
as hamed</w>
as cular</w>
apa gos</w>
al uminum</w>
al together</w>
ais sance</w>
ai robi</w>
ag on</w>
adap tation</w>
ad ju
acqu ire</w>
accur ately</w>
ab road</w>
a wake</w>
W ater</w>
Tu esday</w>
TED x</w>
Spe ech</w>
Re public</w>
R oss</w>
R N
Per u</w>
N in
N airobi</w>
Moun t</w>
Michi gan</w>
M ot
Libr ary</w>
Lew is</w>
Laugh s</w>
L yn
L ady</w>
K ong</w>
K ingdom</w>
Jon athan</w>
Jer usalem</w>
J im
Iran ian</w>
In formation</w>
I S</w>
Gal apagos</w>
FOX O</w>
DI Y</w>
D R</w>
Con nec
Ci ties</w>
Catho lic</w>
Cambo dia</w>
B it
Al aska</w>
A ur
8 3</w>
7 1</w>
4 9</w>
1 70</w>
- 2</w>
ye ast</w>
y clo
week end</w>
ware house</w>
vulner ability</w>
vocabul ary</w>
voc al</w>
ver ly</w>
va e</w>
v ements</w>
v an
un es</w>
ultra violet</w>
u el</w>
u ation</w>
ty pe
trick y</w>
ti tles</w>
the tics</w>
text book</w>
tane ous</w>
t arian</w>
sub mit</w>
stig ma</w>
stair case</w>
spec im
spe ech
sp ill</w>
sm an</w>
skep tical</w>
self- interest</w>
se mi
se als</w>
schol ar
sche me</w>
sc ar</w>
sc aled</w>
s ounded</w>
roof s</w>
ri ots</w>
respec ted</w>
repe at
recon ci
recep tor</w>
r acy</w>
ques tioning</w>
psychiat ric</w>
propag anda</w>
projec tions</w>
process ed</w>
preven ting</w>
pres enting</w>
pe e</w>
path ways</w>
pas sions</w>
paras ite</w>
pa ste</w>
p ulation</w>
openha gen</w>
opar dy</w>
ome ter</w>
off shore</w>
night mare</w>
net t</w>
na ive</w>
n ick
modi fied</w>
min erals</w>
metabo lism</w>
mas sively</w>
ma tics</w>
ma sters</w>
ma st
m esh</w>
los es</w>
loc ate</w>
liber ty</w>
lear ly</w>
labor atories</w>
kid ding</w>
jud ges</w>
ir ony</w>
invent or</w>
inter s</w>
in timacy</w>
in struction</w>
impres sed</w>
ill umin
ig ned</w>
id ers</w>
human -
hon ored</w>
high- speed</w>
he l</w>
hand -
h emisphere</w>
gr ant</w>
gover n</w>
gi gan
gener ative</w>
ge stures</w>
ga ining</w>
fo ie</w>
fl at
fit ness</w>
fire flies</w>
fin ite</w>
fe t
f ec
explo ded</w>
exam ine</w>
ex por
ep er</w>
entr ance</w>
enc yclo
ec d
distribu te</w>
discipl ines</w>
dis k</w>
diagnos tic</w>
di shes</w>
determin ation</w>
deplo y</w>
d ors</w>
cus sion</w>
cru el</w>
con cl
com pla
clean ing</w>
claim ed</w>
che ating</w>
care gi
cardi ac</w>
bus es</w>
br ands</w>
bottom -up</w>
beet les</w>
batt le
bas sa
b n
att ach</w>
ari um</w>
archa e
answer ing</w>
ann a</w>
an ecd
ali ens</w>
aggre gate</w>
ag a</w>
ad mi
ad ds</w>
acc o</w>
a unt</w>
To o</w>
T eles
T ar
Su b
Speci al</w>
Som alia</w>
Snow den</w>
Si b
Red wood</w>
RIS PR</w>
R over</w>
Pi x
Phili p</w>
P art</w>
P MS</w>
O p
N ami
Mo MA</w>
Mc G
L HC</w>
K anzi</w>
K am
K A</w>
IDE O</w>
Him al
H ear
G aza</w>
Free dom</w>
F i</w>
Educ ation</w>
D M</w>
Coun try</w>
Com p
Colum bia</w>
Col a</w>
Chri stop
C openhagen</w>
C learly</w>
C anyon</w>
C RISPR</w>
Bon o</w>
Be au
B oo
Atlan ta</w>
As soci
An n
Al len</w>
3. 5</w>
198 2</w>
z e
ym es</w>
y nam
x y</w>
well- known</w>
vo y
ver bal</w>
uni on</w>
un ting</w>
un fair</w>
ultras ound</w>
u tility</w>
trac es</w>
tic k
ti ght</w>
ti de</w>
tag ged</w>
t u</w>
t ags</w>
sym pa
suppor tive</w>
su ed</w>
stret ched</w>
stres sed</w>
stic king</w>
ste pping</w>
st eri
squee ze</w>
spati al</w>
sp or
sp ite</w>
sp iders</w>
sp ark</w>
sli ce</w>
sh ut
sculp tures</w>
s ound
s ick
rop olitan</w>
rom ance</w>
respon ds</w>
re serv
rain forests</w>
ra tic</w>
progres sion</w>
process or</w>
premi se</w>
pre valence</w>
pr on
pe er-
ot on
ot es</w>
os ion</w>
orph an
ori entation</w>
ora do</w>
on to
od or</w>
ne vertheless</w>
mod est</w>
milli meter</w>
mid st</w>
mar row</w>
m ill</w>
luc kily</w>
lim ate</w>
lifesp an</w>
lef t-
lam b</w>
la hom
ju ana</w>
j o</w>
j azz</w>
invol ving</w>
inv itation</w>
in qu
in er</w>
hum ble</w>
house holds</w>
habit ats</w>
h in
gu es</w>
great ly</w>
gram mar</w>
go at</w>
gigan tic</w>
genu ine</w>
gener osity</w>
gen ic</w>
g low</w>
film maker</w>
far -
fam ously</w>
fac tion</w>
fa st-
f s</w>
epi ph
en ey</w>
elem entary</w>
ear ned</w>
dra gon
discus sed</w>
diam onds</w>
der ness</w>
deman ding</w>
deep -
d ar</w>
cri tically</w>
coura geous</w>
coun ts</w>
cool ing</w>
cong estion</w>
comp ati
commod ity</w>
color ful</w>
citiz en
chec king</w>
char ges</w>
cham ber</w>
card board</w>
car es</w>
c ables</w>
bur ger</w>
broad cast</w>
bl ast</w>
be ds</w>
bas ement</w>
b yp
b read
b ill
b ath</w>
b ark</w>
att end</w>
arre n</w>
arch i
arbit r
appropri ately</w>
appreci ation</w>
ap i
anat omy</w>
analo g</w>
an om
alter ed</w>
al pha
al le
aff air</w>
addic tion</w>
accoun ting</w>
ac commod
ac cent</w>
a z</w>
a ver
a tively</w>
Zimbab we</w>
Y emen</w>
W arren</w>
V ene
U r
Tas man
Tal ks</w>
Su preme</w>
Simil arly</w>
S tation</w>
S hi
S even</w>
S T</w>
R T</w>
Ok lahom
OE CD</w>
O ri
Ne il</w>
N az
Mex ican</w>
Mar gar
M ama</w>
La gos</w>
LGB T</w>
Kos ov
K en</w>
J ill</w>
J ay</w>
I l
Hy per
Ho ward</w>
Goo d
F al
E mi
Don ald</w>
Ch an
CM U</w>
Bru ce</w>
Beat boxing</w>
Bab bage</w>
An as</w>
Al an</w>
Ac umen</w>
AR S</w>
A S</w>
9 1</w>
198 7</w>
19 18</w>
x ious</w>
wi ped</w>
wa ste
w rec
vi able</w>
ver b</w>
vege table</w>
vari able</w>
up date</w>
tw ist</w>
tri angle</w>
transc end
tr ay</w>
tol l</w>
thro at</w>
ther lands</w>
th ank
th als</w>
tan gible</w>
t abo
symme tries</w>
symme trical</w>
survi ving</w>
sum s</w>
sulfi de</w>
statis tical</w>
sp r
sp ell</w>
si tion</w>
sh rin
sensi tivity</w>
scan ned</w>
s log
s ang</w>
s ab
rou s</w>
revolu tions</w>
recycl ed</w>
rec ession</w>
re construct</w>
r ors</w>
pros ec
proli fer
proce du
procedu res</w>
pric ing</w>
pri ori
pra g
pop s</w>
perv asive</w>
p -
ow ns</w>
ou ting</w>
os h</w>
oper ated</w>
op ing</w>
occu pi
o co
oco l</w>
nor m</w>
non violent</w>
mos pher
mo ther
metabo lic</w>
mem orial</w>
measu rement</w>
mar vel
mani pulation</w>
m ics</w>
lo y
lo com
lim bs</w>
le an</w>
kin der
kinder gar
jum ping</w>
jud gments</w>
j an
inven tions</w>
intr ic
inter n
inher ited</w>
ing ness</w>
illu stration</w>
hybri d</w>
human kind</w>
ho o</w>
hat red</w>
har ness</w>
har d-
halluc inations</w>
gr oss</w>
glaci ers</w>
fru stration</w>
fish er
fi xing</w>
ff iti</w>
fail s</w>
f ans</w>
es sive</w>
er ec
equ als</w>
empha size</w>
emer ges</w>
easi est</w>
duc k</w>
distingu ish</w>
dis plays</w>
dis appearing</w>
destruc tive</w>
defin es</w>
dec om
de fl
cust om</w>
cour t
coun cil</w>
cooper ative</w>
cont ag
colli sion</w>
clu es</w>
chol era</w>
che ap
ch ess</w>
ch at
ca us
busin ess
bul l
bri gh
brea th
bn b</w>
bl ur
bl ings</w>
bl essed</w>
bio logically</w>
billi on
benef icial</w>
b ent</w>
b ell</w>
automa tic</w>
attribu tes</w>
assem bled</w>
as leep</w>
ar range</w>
an ol</w>
an as</w>
ali ke</w>
air line</w>
addres sed</w>
accum ulate</w>
accep tance</w>
ab ad</w>
a we</w>
You tube</w>
Willi ams</w>
Wil son</w>
Wh enever</w>
Un der
U p
U SA</w>
Tha iland</w>
Teles cope</w>
Soci ety</w>
S ym
S uch</w>
Re public
R on</w>
R on
R ac
Pix ar</w>
P y
Oklahom a</w>
Ni ke</w>
Margar et</w>
Ma x</w>
M M</w>
L ater</w>
K le
K im</w>
K elly</w>
K al
J up
I ce</w>
H om
H old</w>
H ol
Fri ed
Fo x</w>
Ex c
Em p
Ed ward</w>
D ave</w>
Al right</w>
7 4</w>
6 .
4 50</w>
193 0s</w>
1 5,000</w>
x on</w>
win ners</w>
wi shed</w>
warri or</w>
volcan ic</w>
ven tures</w>
v is</w>
v ents</w>
un intended</w>
tw ins</w>
tw in</w>
tur ally</w>
transfer red</w>
trans it</w>
toler ant</w>
ti ans</w>
tho ven</w>
therap ist</w>
tem ple</w>
tabo o</w>
t ome</w>
t g
t ec
t ally</w>
symbo lic</w>
surve ys</w>
suc ks</w>
ste ady</w>
squ id</w>
so red</w>
si s
si blings</w>
shap ing</w>
ro ad
ric ane</w>
ri des</w>
reve als</w>
repeat edly</w>
regi onal</w>
reco vered</w>
re y</w>
re productive</w>
re per
re forms</w>
rac ial</w>
ra z
r atings</w>
pum ps</w>
prof essors</w>
pro ph
pro jection</w>
predic ting</w>
pol es</w>
pil es</w>
physi ology</w>
philosoph ical</w>
persu ade</w>
per sons</w>
pen cil</w>
pat ri
par ag
p .m.</w>
oper ator</w>
oper ates</w>
o be
no isy</w>
nic ely</w>
ne tic</w>
mid night</w>
mi gh
me me</w>
maxim ize</w>
mark ers</w>
loc king</w>
lo gging</w>
ligh t-
lic al</w>
les bian</w>
le ap
le ans</w>
l y-
l ings</w>
justi fy</w>
jo kes</w>
jo ining</w>
itt s
it ude</w>
ir ri
inter faces</w>
inten tions</w>
integr ity</w>
instinc t</w>
inst ances</w>
innov ators</w>
independ ently</w>
in hi
in genu
in et</w>
impro vements</w>
il ep
hu h</w>
honest y</w>
hi o</w>
har sh</w>
h s</w>
h ec
h ack</w>
gu err
good ness</w>
ge ograph
g ad
fru its</w>
fro gs</w>
flexi bility</w>
fin ishing</w>
fil med</w>
fi ghts</w>
fertiliz er</w>
explo itation</w>
ex ce
ex am</w>
ess ness</w>
er nal</w>
equi pped</w>
ep ilep
en rich
el li
e tic</w>
dra ma</w>
double -
docum enting</w>
det ector</w>
depres s
del ay</w>
dec reas
d dy</w>
cur sor</w>
cr acks</w>
convinc ing</w>
contribu tions</w>
cont acted</w>
con fined</w>
con ception</w>
chromos omes</w>
ch ers</w>
catastrop hic</w>
cap tain</w>
ca fe</w>
bul ance</w>
bu gs</w>
bi op
aug mented</w>
assum ed</w>
associ ation</w>
ash es</w>
as is</w>
arti facts</w>
app s</w>
angel o</w>
all y-
al ties</w>
air o</w>
ad er</w>
ack et</w>
acc used</w>
a- Cola</w>
a b</w>
W right</w>
W ouldn</w>
W oo
V an</w>
U V</w>
U K</w>
Tw enty-
Sup pose</w>
Sec ret
S O
Republic ans</w>
Pr ince</w>
P itts
P atr
O thers</w>
O M
Nor man</w>
No tice</w>
Neander thals</w>
Ne therlands</w>
Nat ural</w>
Nat asha</w>
N P</w>
Michel angelo</w>
Mar cus</w>
Ma c</w>
L am
Ki ds</w>
Jus tice</w>
Jup iter</w>
John ny</w>
Ira q
I sa
H ill</w>
Goo g
Gol den</w>
Go ing</w>
G 20</w>
F ac
E .</w>
Di ego</w>
De ep</w>
Coc a-Cola</w>
Ch uck</w>
Car l</w>
C airo</w>
C .
Budd ha</w>
Bra d</w>
Bee thoven</w>
Air bnb</w>
9 9.
8 4</w>
197 4</w>
0 0s</w>
- hour</w>
z ona</w>
x it</w>
work shop</w>
wol ves</w>
w ages</w>
vel ocity</w>
ve il</w>
vacc in
v ast
urban ization</w>
uni mag
trust worthy</w>
tra it</w>
to s</w>
tion ist</w>
ti ger</w>
ther wise</w>
th read</w>
th ful</w>
te dness</w>
t ling</w>
suppor ts</w>
success es</w>
stitu tion</w>
stam p</w>
sta dium</w>
st ole</w>
st -century</w>
spac e-
sp ray</w>
sp ends</w>
sour cing</w>
sor ship</w>
slo wed</w>
sket ch</w>
simil arly</w>
sim ulate</w>
shr ink</w>
shor tly</w>
sha dows</w>
scri pts</w>
sa dness</w>
rol ls</w>
rigi d</w>
ri bat
ribat i</w>
responsi bilities</w>
rehabil itation</w>
regi stered</w>
reg im
reci pi
read er</w>
re use</w>
rac ism</w>
ques tion
prom oting</w>
prom ising</w>
program mer</w>
proble matic</w>
prob able</w>
pri mates</w>
presi dential</w>
preser vation</w>
pres sures</w>
pp y</w>
philosoph ers</w>
person alities</w>
pen sion</w>
pe aks</w>
pati ence</w>
pat ch</w>
ow l</w>
obs ession</w>
ob serving</w>
no de</w>
no -
nin e-
new ly</w>
n i</w>
mou ths</w>
motiv ate</w>
mor ally</w>
mo c
mit ting</w>
mil d</w>
manufac ture</w>
m es
lo wing</w>
lif ting</w>
li ath</w>
lea k</w>
laun ching</w>
it ating</w>
inv asion</w>
indic ates</w>
im planted</w>
ill in</w>
ic illin</w>
i k
hu gely</w>
head line</w>
he ter
h ut
guaran te
gu ided</w>
gra ffiti</w>
gr ound
gi an</w>
gall eries</w>
fun gi</w>
full- time</w>
frequ encies</w>
fol k</w>
fil ters</w>
f uc
f oo
expon entially</w>
ex clu
eth ics</w>
esp ite</w>
er up
equ ili
enh ance</w>
embrac ed</w>
el ders</w>
e ats</w>
dou bling</w>
dos es</w>
disap pointed</w>
disa sters</w>
dis connected</w>
deri ved</w>
dem ics</w>
defic it</w>
defe at</w>
d ele
cylin der</w>
crow ded</w>
crash es</w>
coun try
cos t-
correspon ds</w>
cop per</w>
comm and
coher ent</w>
chemo therapy</w>
char ter</w>
cha sing</w>
canc ers</w>
calcul us</w>
ca stle</w>
bru tal</w>
bri be</w>
bo s</w>
beh old</w>
beg in
be ans</w>
band width</w>
b ust</w>
b id</w>
att acking</w>
astronom ers</w>
astron omy</w>
asth ma</w>
ari th
ap hor
anim ate</w>
adol escence</w>
accompan ied</w>
acceler ated</w>
ac a
T ay
T B</w>
Rus sians</w>
Ro os
Rec ently</w>
R .</w>
Par liament</w>
P in
O therwise</w>
N M</w>
Mon day</w>
Mini stry</w>
Mil o</w>
Mil ky</w>
Mean while</w>
M ul
M et
Lad en</w>
L im
L ama</w>
Ki ribati</w>
J ama
J A</w>
Himal ay
Hear t</w>
He For
HeFor She</w>
H ou
Gre ece</w>
G all
F ood</w>
F ol
F em
F I
En viron
Egyp tians</w>
E le
D r
D or
D omin
D ig
D espite</w>
D am
Cos ta</w>
Con ference</w>
Cam er
C ou
C limate</w>
C ham
Buddh ist</w>
Bec k</w>
B est</w>
Austr alian</w>
Au stri
Associ ation</w>
As k</w>
Ari zona</w>
A C</w>
4 0s</w>
3 60</w>
199 2</w>
197 9</w>
196 9</w>
0 000</w>
y ou
y land</w>
war fare</w>
w ells</w>
volun tary</w>
vic tory</w>
us able</w>
uniqu ely</w>
un seen</w>
un employment</w>
ul ties</w>
u n</w>
tur ers</w>
trans action</w>
tra de-
tor tured</w>
tor n</w>
to wel</w>
thri ving</w>
there by</w>
tat too
t ori
swe at</w>
suspic ious</w>
substanti al</w>
sty les</w>
strat osphere</w>
stat e-
sta tistic</w>
spher es</w>
soci etal</w>
smar test</w>
small -
sle pt</w>
sl um</w>
sing le-
sing ers</w>
si licon</w>
shi eld</w>
sec ular</w>
scenari os</w>
sc at
s wa
s en</w>
rich est</w>
ri g</w>
remot ely</w>
regi ster</w>
reg ulate</w>
refriger ator</w>
refer red</w>
re views</w>
re production</w>
re ds</w>
quali fied</w>
qu is
puzz les</w>
publi can</w>
prot ects</w>
prom ises</w>
pra ying</w>
poll ut
pl ugg
pic ks</w>
pes sim
percep tual</w>
paras ites</w>
para meters</w>
par liament</w>
pap er
op er</w>
occupi ed</w>
occup y</w>
obst acle</w>
nucle us</w>
mir acles</w>
min or</w>
mi a</w>
magne ts</w>
ma id</w>
lon gest</w>
loc a
list ed</w>
lin king</w>
ligh ter</w>
libr aries</w>
li ve
lan e</w>
la kes</w>
knoc ked</w>
kindergar ten</w>
ja w</w>
ir re
ir rational</w>
investi g
inv iting</w>
integr ating</w>
ingenu ity</w>
infor m</w>
individu ally</w>
incarcer ation</w>
improvi sation</w>
hun g</w>
he ated</w>
gr ace</w>
good bye</w>
gl ory</w>
ge ographic</w>
g ate
fu zzy</w>
fric tion</w>
fos sils</w>
fi x
fam ine</w>
expec tation</w>
ex quis
ex cess</w>
evel t</w>
eter nal</w>
equili bri
equilibri um</w>
epiph any</w>
enz ymes</w>
endeav or</w>
e z</w>
e ver-
e ted</w>
dra ws</w>
direc ted</w>
dig it
di ves</w>
di ous</w>
develop ers</w>
d uration</w>
d ump</w>
cy ber</w>
cr yp
cr ushed</w>
cous ins</w>
cou ch</w>
cor relation</w>
consum ing</w>
construc ting</w>
constitu tion</w>
connec tome</w>
concep tual</w>
commis sion
com .</w>
co ca
clos ure</w>
clos et</w>
circu it
cin ema</w>
character istic</w>
ch at</w>
ch -
cell phone</w>
celebra tion</w>
can dy</w>
campaig ns</w>
calcul ation</w>
be ef</w>
be ar
ban ned</w>
autom ated</w>
astron auts</w>
assi stant</w>
assess ment</w>
ass ure</w>
as signed</w>
ari al</w>
ap ples</w>
ambigu ous</w>
all ing</w>
adm ire</w>
acou stic</w>
a the
Z K</w>
W r
W ide</w>
Vene zu
Ven ice</w>
V enter</w>
T R</w>
Swe dish</w>
St one</w>
Secret ary</w>
Scot land</w>
Roos evelt</w>
R L</w>
Pitts burgh</w>
Phot os
PT CH
P lay
P at</w>
P ISA</w>
Net fli
Nep al</w>
Nami bia</w>
Na than</w>
M ind</w>
M T</w>
Lib ya</w>
Lib eria</w>
In iti
Icel and</w>
Hum ans</w>
HI V-
H ome</w>
H ir
Gr and
Geor gia</w>
G ri
Emi ly</w>
Dal ai</w>
CA PTCH
C up</w>
C P</w>
C IA</w>
Be tter</w>
Arab ia</w>
A. I.</w>
A us
A id</w>
A bra
8 8</w>
8 1</w>
7 3</w>
6 6</w>
40 4</w>
196 5</w>
18 th</w>
1 25</w>
. com.</w>
-con trol
- year-olds</w>
whist le</w>
vis itors</w>
ver te
ver ge</w>
vari eties</w>
vari ables</w>
underst and
un predictable</w>
un fortunate</w>
un acceptable</w>
tur bul
tradi tionally</w>
trac ked</w>
tom ato</w>
to wers</w>
to ol
til age</w>
through s</w>
thin kers</w>
tat too</w>
t ing-
surr ound</w>
surg eries</w>
sur plus</w>
strugg les</w>
stoc k
star vation</w>
spon taneously</w>
spir its</w>
slo pe</w>
sk ies</w>
sim ulated</w>
sho wer</w>
she pher
sex ually</w>
semi -
sea water</w>
scr at
sc ape</w>
sal ary</w>
righ t-
resp ir
replac ement</w>
refl ective</w>
recy cle</w>
re t</w>
re hear
re acting</w>
radi o
ra inf
r anging</w>
quanti ties</w>
qu o</w>
publi sh
protoc ell</w>
pra yer</w>
plac ing</w>
particip ating</w>
p its</w>
out door</w>
out break</w>
ou az</w>
os c
op ian</w>
op ed</w>
on- dollar</w>
o ke</w>
no ble</w>
nee ding</w>
na tion-
mytho logy</w>
my ths</w>
mor ph
micros copic</w>
medic ations</w>
mar sh
mam moth</w>
mag net</w>
ma ma</w>
m um</w>
lot tery</w>
lo be</w>
light ning</w>
li ti
less ness</w>
leop ard</w>
la h</w>
l ately</w>
k r
jewel ry</w>
j ecting</w>
it ch</w>
int an
instr um
infr ared</w>
induc ed</w>
in cu
im paired</w>
ic y</w>
ic ons</w>
ic ations</w>
hoo ked</w>
high ways</w>
ha ble</w>
h ut</w>
h ills</w>
guit ar</w>
guil t</w>
gr ounded</w>
gent le</w>
gall on</w>
g eria</w>
fun eral</w>
frustr ating</w>
free ze</w>
forec ast</w>
fo ol
fir ms</w>
fir mly</w>
fe at
fa int</w>
f lights</w>
f ills</w>
expres sing</w>
explo de</w>
excl usive</w>
eth anol</w>
eradic ation</w>
er gy</w>
enthusi asm</w>
eng ths</w>
en sla
emp ire</w>
em an</w>
ef in</w>
e po
e book</w>
do g
des ires</w>
declar ed</w>
de al
counter -
cop s</w>
conven tion</w>
contradic tion</w>
contain er</w>
conduc ting</w>
condi tioning</w>
compati ble</w>
commodi ties</w>
coca ine</w>
civili an</w>
cienti st</w>
chem ist</w>
cha otic</w>
ch ickens</w>
cere br
cathe dr
car tilage</w>
but tons</w>
broad ly</w>
bre ed</w>
bloc ked</w>
bio -
bi osphere</w>
bes ide</w>
bas sy</w>
bal anced</w>
back grounds</w>
au tistic</w>
at mospher
at i</w>
ari se</w>
ar teries</w>
appe aling</w>
ap parent</w>
and- a-half</w>
al i</w>
al bum</w>
aff ir
ad versity</w>
ac tu
ac es</w>
absur d</w>
a ked</w>
a ire</w>
a f</w>
Who a</w>
W el
UC LA</w>
Ti bet</w>
Ta h
T ext</w>
T am
T ai
S cientists</w>
Rom an</w>
Ro ger</w>
Re publican</w>
R ow</w>
R am
Po li
O reg
O .
Netfli x</w>
N av
Ma j
M ouaz</w>
M BA</w>
Lou is</w>
Le ague</w>
K ansas</w>
Jim my</w>
J R</w>
I P
H ind
H ad
H 5
H5 N1</w>
Ger mans</w>
Gar den</w>
G rou
G ro
G ran
Fried man</w>
Franc is</w>
F ul
F our
E E
De ad</w>
D L</w>
Con serv
Comm un
Christop her</w>
Camer on</w>
Cam p</w>
C op
C P
Bro thers</w>
Bar ry</w>
B ut
B hut
Al -
5 -
4 00,000</w>
3 ,
195 7</w>
194 9</w>
- in-
won ders</w>
will ingness</w>
whis per
wat t</w>
wa king</w>
w w
w iring</w>
vol umes</w>
vitam in</w>
vis cer
vi sibility</w>
v end
ur gent</w>
up ward</w>
up right</w>
un equal</w>
ul arity</w>
tu rer</w>
tim ing</w>
thin g
ther more</w>
ten tion</w>
ten th</w>
te st
tal ents</w>
tain ly</w>
ta stes</w>
t os
su ally</w>
stun t</w>
sti ci
squ e
speci alist</w>
sol o</w>
sn ap
slo wing</w>
sket ches</w>
sig ning</w>
side walk</w>
short- term</w>
shar es</w>
sh out</w>
settle ment</w>
ser vers</w>
sen sible</w>
scar ce</w>
sc ope</w>
sa u
s light</w>
s i</w>
reti red</w>
reti re</w>
repor ter</w>
recogn izes</w>
reason ably</w>
re tr
re solved</w>
re ject</w>
re b
rainf all</w>
ra il</w>
prototyp ing</w>
produc er</w>
pro jected</w>
pri mate</w>
pres en
poll u
po ols</w>
pla usi
pl er</w>
pi p
pip eline</w>
phot o
passen gers</w>
pan ies</w>
pal e
pain ter</w>
p oured</w>
p an</w>
over head</w>
or able</w>
on ies</w>
oc top
o o</w>
o logically</w>
non sense</w>
na tionally</w>
mu tual</w>
mor tg
mon ster</w>
mon soon</w>
mon o
moder n
migr ate</w>
midd le-
medi ate</w>
med itation</w>
mat tered</w>
mar i
mar gins</w>
mar gin
mag ni
lifel ong</w>
li ps</w>
li ances</w>
lad der</w>
la wn</w>
la sted</w>
l or</w>
kilome ter</w>
jeal ousy</w>
issu ed</w>
ir onic</w>
inter ro
insi sted</w>
inher ent</w>
ine a</w>
indic ation</w>
ind ul
incre mental</w>
in spec
in door</w>
in complete</w>
impul se</w>
im prison
im migration</w>
ide ological</w>
hos tile</w>
hil ar
hel met</w>
ham mer</w>
hack er</w>
h alls</w>
govern mental</w>
gor ous</w>
go ats</w>
gi fts</w>
g us</w>
g ar</w>
g ang</w>
friend ship</w>
for -
floo d</w>
flic t</w>
fl ed</w>
fl ags</w>
figh ters</w>
fi del
fidel ity</w>
ff ed</w>
fel d</w>
f i</w>
f ense</w>
exist ential</w>
exhau sted</w>
ex hilar
evalu ate</w>
es hip</w>
eri als</w>
epide mics</w>
ep y</w>
enti ty</w>
emp ir
embarrass ed</w>
el bow</w>
dragon flies</w>
do or
do -
divor ce</w>
discipl inary</w>
disa d
disad vant
dis placed</w>
dis connect</w>
din burgh</w>
dev oted</w>
des cen
dep ths</w>
dep le
den y</w>
de em
d ancer</w>
cu es</w>
corpor ation</w>
consi sts</w>
conserv atives</w>
con science</w>
con dom</w>
con ceived</w>
compos ed</w>
compar able</w>
col i</w>
cl ari
civili ans</w>
circul ar</w>
ch unk</w>
ch le
ch al
certi fic
cerebr al</w>
celebr ating</w>
calend ar</w>
bum ps</w>
break throughs</w>
bor ne</w>
bo wl</w>
bloo dy</w>
bloc king</w>
blo gging</w>
biom ass</w>
barre ls</w>
ban anas</w>
b iting</w>
b ench</w>
av atar</w>
as ym
as so</w>
arm or</w>
ari ous</w>
appro val</w>
any time</w>
ambigu ity</w>
am y
am bulance</w>
al ter</w>
ag as
adul thood</w>
aci ties</w>
ac u
a wa
Ul timately</w>
U sually</w>
Tit anic</w>
St or
So on</w>
Sm all</w>
Sif tables</w>
Se x</w>
Se ver
Sam uel</w>
S imp
S ide</w>
S -
Rus sell</w>
R ose</w>
Paul o</w>
Pati ent</w>
P la
P D
Oreg on</w>
Nor we
Ne tra</w>
N ot
N E
Mont ana</w>
Loo king</w>
Li ve</w>
Le one</w>
L ess</w>
Kosov o</w>
K it
K K
Jer ry</w>
Interest ingly</w>
In t
In no
H as</w>
Gre eks</w>
G race</w>
G a
Ear th
E ither</w>
E dinburgh</w>
Dou g</w>
Di ff
Democr ats</w>
De fense</w>
D D
Com panies</w>
Christi ans</w>
Cer tainly</w>
Bab y</w>
Al bert</w>
A S
7 9</w>
5 00,000</w>
197 8</w>
196 7</w>
18 00</w>
11 th</w>
-c o
zo o</w>
yl on</w>
wrec k</w>
wa sting</w>
voy age</w>
vot es</w>
vo ic
vivi d</w>
vibr ating</w>
vi an</w>
vers y</w>
v ent</w>
v ali
ur us</w>
um -
u pri
u it</w>
u a</w>
tremend ously</w>
top -down</w>
ti more</w>
thous and
the irs</w>
th ick
ten ded</w>
temp tation</w>
tail -
t age</w>
t ably</w>
susta ined</w>
subur bs</w>
su it
stra ins</w>
stoc ks</w>
stat ements</w>
st ated</w>
st a</w>
spir al</w>
slog an</w>
seven th</w>
sequ enced</w>
sel ls</w>
scri p
scre w</w>
scienti fically</w>
sc rap
sc are</w>
sa iling</w>
rhyth ms</w>
ren dered</w>
relev ance</w>
rele ases</w>
reg ulated</w>
re viewed</w>
re serves</w>
re over</w>
re design</w>
quot es</w>
quanti ty</w>
purcha se</w>
pri orities</w>
pos ts</w>
poll s</w>
plan kton</w>
pil ots</w>
pen icillin</w>
paral ysis</w>
par all
ow an</w>
our se</w>
ough ly</w>
ot er</w>
optimi ze</w>
op ho
ob tained</w>
num erous</w>
nucle i</w>
notic ing</w>
nor theast</w>
nec tar</w>
nanot echnology</w>
mul tic
mu til
mom s</w>
mo on
mix ture</w>
metho do
ment ors</w>
mat s</w>
make up</w>
li zing</w>
li me
la sts</w>
k it
jun c
jo y
j ury</w>
j ur
j ar</w>
it ated</w>
introduc ing</w>
int end</w>
inj ection</w>
incu b
in ject</w>
immigr ants</w>
ill as</w>
hur ts</w>
hip po
hero ic</w>
h r
h m
h int</w>
h h</w>
h en</w>
h eck</w>
guid ance</w>
gu est</w>
grass roots</w>
gl orious</w>
gall ons</w>
func tionality</w>
frequ ent</w>
flou rish</w>
flo wn</w>
finger tips</w>
financi ally</w>
femin ine</w>
f itting</w>
explic itly</w>
explan ations</w>
evi dent</w>
enti tled</w>
embr y
effici ently</w>
disgu sting</w>
dis on</w>
diff er</w>
diag nose</w>
di tions</w>
di ment</w>
decep tion</w>
day light</w>
dang ers</w>
d son</w>
d ity</w>
cy matics</w>
cro codi
cri p
cop ies</w>
contro versy</w>
consist ently</w>
conf usion</w>
con dem
compu ter-
compl aining</w>
competi tors</w>
com pressed</w>
co ded</w>
clean ed</w>
circul ation</w>
circuit ry</w>
cen sus</w>
cat alo
care ers</w>
can e</w>
bomb sight</w>
bo ost</w>
ben ign</w>
bas eline</w>
ban kers</w>
ban k
back up</w>
b are</w>
auton omy</w>
at -
ash ing</w>
ar ate</w>
ap ar
an don</w>
altru ism</w>
alpha bet</w>
all as</w>
al ert</w>
ag ging</w>
advant ages</w>
activ ism</w>
ac ute</w>
Wi -
We b
Vir gin</w>
V s</w>
V is
V ill
V e
Tur n</w>
Tay lor</w>
Sup er</w>
Su dan</w>
Some how</w>
Sk y
Sib eria</w>
Ro yal</w>
R an
Palest ine</w>
P sy
Mo vement</w>
Mis s</w>
L ots</w>
L ight</w>
L E
K no
K is
Juli a</w>
Jord an</w>
Je opardy</w>
J enni
J K</w>
J .</w>
Int ellig
H und
H mm</w>
G old</w>
G ary</w>
G an
F ant
E ri
Do esn</w>
De pression</w>
D -
Comp any</w>
C ro
C -
B ook</w>
B ay
Aur ora</w>
A B</w>
8 0,000</w>
7 .
5 .
21 st-century</w>
198 8</w>
197 2</w>
1. 4</w>
z we
yl an</w>
y me</w>
wh it
wer ing</w>
weigh ed</w>
wat ches</w>
volcan o</w>
vibra tions</w>
veter ans</w>
ver ted</w>
vel ing</w>
valu ed</w>
v ani
up loaded</w>
under graduate</w>
und ry</w>
und ane</w>
ultra -
ul ative</w>
two- dimensional</w>
tro pics</w>
tro l</w>
tri gg
transi stor</w>
tox ins</w>
tic als</w>
ti ful</w>
the on</w>
termin al</w>
tempor al</w>
tat or
synap ses</w>
syn thesis</w>
sym phony</w>
sy stem
sus cep
summar ize</w>
suc c
subsi di
sub sequ
storyt eller</w>
stand point</w>
speci alists</w>
sou ls</w>
sol ar-
so lem
si le</w>
si ghts</w>
shut tle</w>
shu ff
sever ely</w>
ser oton
ser en
sel ler</w>
secon dary</w>
secon d-
schol ars</w>
satis fy</w>
satis faction</w>
s thand</w>
s ought</w>
roc kets</w>
ro oted</w>
ri p
restric ted</w>
requi rement</w>
repe ti
rela x</w>
rel uc
re wards</w>
re tail</w>
re strial</w>
re serve</w>
re fined</w>
random ness</w>
ra tion
r um
r he
r ented</w>
r ant</w>
qua tic</w>
pur suing</w>
pub lication</w>
progres sive</w>
preser ved</w>
practic ed</w>
pollut ants</w>
po or
ph er</w>
peti tion</w>
pestici des</w>
perman ently</w>
pedestri an</w>
patho gens</w>
pack aging</w>
p ag
p acking</w>
oun ce</w>
organiz ational</w>
or tex</w>
one- on-
on ists</w>
om ers</w>
oblig ation</w>
ob o</w>
o ch
neuros cientists</w>
neuro logical</w>
neuro genesis</w>
negoti ations</w>
ne oc
mir rors</w>
minist ers</w>
minim al</w>
mic r
mer cy</w>
meas urable</w>
meaning less</w>
mat ching</w>
marvel ous</w>
mar ath
m undane</w>
low- income</w>
lo ading</w>
liz ation</w>
liter al</w>
lear ns</w>
le ver
lan der</w>
j ail
ir relevant</w>
intrigu ing</w>
interven e</w>
institu te</w>
install ations</w>
influ ences</w>
infin itely</w>
industri alized</w>
in ti
in habit</w>
in fer
imm un
ima tions</w>
hypothe tical</w>
hot ter</w>
hot els</w>
holi day</w>
hi ves</w>
head- tail-
he lium</w>
he h</w>
ha irs</w>
h ind</w>
gu el</w>
gri ef</w>
gh et
ge eks</w>
ga ze</w>
g ec
g ang
frighten ed</w>
fo g</w>
fir sthand</w>
fil ed</w>
femin ism</w>
fas c
exten ding</w>
experim entation</w>
exp ose</w>
exp ense</w>
execu tives</w>
excep tional</w>
ex port</w>
et ta</w>
es a</w>
environ ment
enni al</w>
employe e</w>
emer gent</w>
embo died</w>
ell ers</w>
electromag netic</w>
el le</w>
eff ec
ed iting</w>
ed -
drow ning</w>
dra gged</w>
don ated</w>
doc tr
dis si
dis appears</w>
develop s</w>
deser ts</w>
dep ended</w>
demo graphics</w>
degra ded</w>
de light</w>
de er</w>
d ur
cultiv ate</w>
crow d
cra m
cra b</w>
cour ts</w>
counter intuitive</w>
coo ked</w>
cont est</w>
cont acts</w>
consider ation</w>
confer ences</w>
con ce
comb inations</w>
clim bers</w>
clear ed</w>
character ized</w>
ce ton</w>
calcul ating</w>
cal ci
c ad
br ate</w>
boun ce</w>
bo ots</w>
ble eding</w>
bl essing</w>
bl ad
biot echnology</w>
ber a</w>
be ard</w>
be aches</w>
bassa dor</w>
bas ket</w>
ban ana</w>
avi ation</w>
author itarian</w>
atten ding</w>
at an</w>
arbitr ary</w>
ar row</w>
ar ch</w>
anim ated</w>
an xious</w>
an n</w>
an ism</w>
aby tes</w>
a ut</w>
Wi- Fi</w>
W ars</w>
W al-
V as
V .</w>
Un like</w>
Tuni sia</w>
Tr ans
Tasman ian</w>
T ro
T C</w>
Syri an</w>
Sever al</w>
S w
Ra dio</w>
R -
Qu e
Prin ceton</w>
P ros
P H</w>
P .</w>
O ld</w>
O hio</w>
N O
Moder n</w>
Mi guel</w>
M uch</w>
M art</w>
M BI</w>
Luc kily</w>
Le ban
L angu
Ki bera</w>
Ke ith</w>
KK M</w>
K y
Ju an</w>
J av
In side</w>
In dex</w>
IN C
INC RA</w>
I de
Ho ly</w>
Hel p</w>
H ad</w>
Gir ls</w>
Gi ven</w>
Fif ty</w>
F il
Ex pl
En tro
ED I</w>
E du
E C
Des ert</w>
Den mark</w>
De ath</w>
D ylan</w>
D allas</w>
Col orado</w>
Co de</w>
Car ol</w>
CP U</w>
C ru
C ore
C oper
C lic
Bu ff
Bos nia</w>
Bit coin</w>
Amer ic
A venue</w>
8 000</w>
40 1</w>
194 8</w>
194 7</w>
17 th</w>
10 1</w>
1- 2-
&apos; all</w>
z ation</w>
x t
writ es</w>
wr ence</w>
wi pe</w>
wh ol
we ir
war d
w ear
vel ty</w>
vast ly</w>
v o</w>
under way</w>
ul ously</w>
uc ky</w>
twe ets</w>
tra il</w>
toler ate</w>
to ast</w>
ting- edge</w>
thou se</w>
th an
tall er</w>
tab let</w>
t oss</w>
sugg es
sub scri
su le</w>
struc tured</w>
stic ky</w>
statis tically</w>
sp ot
so le</w>
sli p
ski p</w>
sing er</w>
si p</w>
shrin king</w>
sh ire</w>
set tle</w>
seroton in</w>
sel ective</w>
seas ons</w>
sch ed
sc ru
sa il
sa dly</w>
s api
rou tin
ri pped</w>
ri b
rhe tor
resurrec tion</w>
rep lied</w>
ren dering</w>
rele asing</w>
regre ts</w>
reduc es</w>
red und
recru it</w>
recei ver</w>
re mix</w>
re define</w>
re claim</w>
ra dar</w>
provi ders</w>
pro vo
prefer ences</w>
pre jud
post -con
pos ture</w>
poor ly</w>
pol ite</w>
plu to
perpe tu
perf ection</w>
pe l</w>
parti al</w>
part ments</w>
par tis
p ond</w>
over s</w>
os ter</w>
or angu
op pon
onym ous</w>
one-on- one</w>
of- the-
o e</w>
o des</w>
na ils</w>
na h</w>
midd le
ment ality</w>
me er</w>
mari juana</w>
manuscri pt</w>
manufac turers</w>
mal nutrition</w>
mal low</w>
m its</w>
lou der</w>
loca ust</w>
lime stone</w>
liber als</w>
len ses</w>
le m</w>
lap se</w>
la tions</w>
l ure</w>
kilo grams</w>
ke en</w>
k ings</w>
j acket</w>
ir able</w>
ir a</w>
intan gible</w>
insi c</w>
initi atives</w>
inci dentally</w>
in ent</w>
in efficient</w>
illustr ates</w>
ill usions</w>
il st</w>
ig ners</w>
idi ot</w>
ide als</w>
human e</w>
hom osex
hi ve</w>
he ating</w>
harvest ing</w>
han dy</w>
ham mad</w>
hall way</w>
gri m</w>
gl uc
gi o</w>
gh ost</w>
ful filling</w>
follo wers</w>
fo am</w>
fic tional</w>
fair y</w>
fair ness</w>
fa de</w>
f ame</w>
exc av
ex cer
et tes</w>
enz yme</w>
emplo y</w>
elev ated</w>
el low
el ites</w>
el and</w>
e an</w>
drin ks</w>
dri ed</w>
dre amed</w>
distor ted</w>
dispos al</w>
differenti ate</w>
den ied</w>
dec lining</w>
dd ler</w>
daf -2</w>
d war
d ome</w>
cyber criminals</w>
cut ting-edge</w>
cryst al</w>
critici zed</w>
cri ticism</w>
cre ators</w>
cr ank</w>
cr acked</w>
coun ty</w>
cou pled</w>
coordin ate</w>
cool er</w>
conveni ence</w>
continu um</w>
contex ts</w>
contem pl
contamin ated</w>
cont ents</w>
confir med</w>
concl usions</w>
comm only</w>
coll ar</w>
cogni tion</w>
citizen ship</w>
chur ches</w>
che f</w>
ch e</w>
centi meter</w>
cen sorship</w>
categ or
cas u
car pen
capit alist</w>
c am</w>
br icks</w>
boy friend</w>
bo t</w>
blue print</w>
blu efin</w>
bl end</w>
biot ech</w>
bio fuels</w>
bicy cles</w>
begin nings</w>
be aring</w>
battle field</w>
b li
athle te</w>
at us</w>
aspi rations</w>
as ph
ar ous
ar ena</w>
app er</w>
ap plause</w>
anti depress
ans en</w>
anom al
anci es</w>
al ore</w>
air ports</w>
ad mitted</w>
accep ting</w>
ab used</w>
ab andon</w>
a un
a quatic</w>
Y u
Ver meer</w>
Venezu ela</w>
Un cle</w>
U s</w>
U N
Tur k
Tr ust</w>
Tor onto</w>
T um
T op</w>
T on
T ech
T BP</w>
Sy d
Swe eney</w>
St art</w>
S low</w>
S ist
S and
S ad
S MS</w>
S .
Ru by</w>
Ren aissance</w>
Re agan</w>
Rac hel</w>
Qu ite</w>
Q atar</w>
Pri me</w>
Po wer</w>
Plan et</w>
P ink</w>
Or leans</w>
O O
Nic hol
N u
N ice</w>
N BA</w>
Mur ray</w>
Mu hammad</w>
McG owan</w>
Mathema tica</w>
La wrence</w>
L isa</w>
Kur zwe
Ki va</w>
Kan ner</w>
Juli an</w>
Jes se</w>
Jenni fer</w>
I. Q.</w>
Hu h</w>
H appy</w>
Go liath</w>
Fin anci
F am
Exc use</w>
Emp ire</w>
Edu ardo</w>
Di dn</w>
Demo cratic</w>
D un
D own</w>
Chri st</w>
Ch er
CAPTCH A</w>
C la
C ir
C ar</w>
C C</w>
Bar ack</w>
Bang alore</w>
Bal timore</w>
BM W</w>
B lo
B ey
An dy</w>
A w
A qu
A my</w>
8 .
2 7
2 40</w>
190 8</w>
18 50</w>
1, 100</w>
y able</w>
worth while</w>
whis per</w>
wh i
wh ere
week ly</w>
week ends</w>
war ms</w>
war m
wa x</w>
w ounds</w>
w en</w>
w an</w>
volcan oes</w>
viol in</w>
vie wers</w>
vege tation</w>
v on</w>
v icious</w>
ut en
us s</w>
ur ine</w>
unimag inable</w>
under estimate</w>
under -
un lock</w>
un finished</w>
un employed</w>
un certain</w>
un a</w>
tw ist
trou bled</w>
tre ss</w>
transc end</w>
tr unk</w>
tim ber</w>
tex tile</w>
testi mony</w>
tax i</w>
synthe si
sw am
surr ound
sur ing</w>
super power</w>
suff ers</w>
sub urban</w>
stron gest</w>
stre aming</w>
stimul us</w>
steri le</w>
ster dam</w>
stand ar
st en</w>
squ at
so l</w>
sli p</w>
short age</w>
sh outing</w>
self- assembly</w>
secon dly</w>
sau ce</w>
sal mon</w>
routin ely</w>
ris m</w>
ri r</w>
requ ests</w>
repor ters</w>
rela tivity</w>
ref ers</w>
re turning</w>
re treat</w>
re d-
re create</w>
ran ean</w>
radi us</w>
ra ff
r hin
puni shed</w>
pun c
prosec ut
propor tion
proble m-
pres ents</w>
prejud ice</w>
pr one</w>
pot ato</w>
pos s
port able</w>
polic ing</w>
pluto cr
play ground</w>
pix els</w>
phr ases</w>
perpe tr
oper ational</w>
op i
om mun
off ensive</w>
o ven</w>
o ved</w>
not -
ni e</w>
nes see</w>
need les</w>
ne gie</w>
must ache</w>
moun ted</w>
mos que</w>
mon thly</w>
mis m</w>
migh ty</w>
ment ary</w>
mem bran
may ors</w>
man ages</w>
m at</w>
loo m</w>
lo ver</w>
li x</w>
legis l
le um</w>
lar vae</w>
k u
k ies</w>
jour neys</w>
j uni
invent ors</w>
inten tional</w>
instinc ts</w>
ing es</w>
in er
in comes</w>
in ability</w>
imper ative</w>
imp ose</w>
immer sed</w>
hus bands</w>
hos ts</w>
hop eless</w>
honey bees</w>
hi stories</w>
he el</w>
har mon
happ iest</w>
ham burger</w>
h acked</w>
gr u
go -
gluc ose</w>
g ery</w>
g ently</w>
fis cal</w>
film makers</w>
ff ing</w>
fear ed</w>
fe asi
fashi oned</w>
f ool</w>
extre mes</w>
exp end
exerc ises</w>
eradic ate</w>
er osion</w>
ent ine</w>
eng er</w>
en vision</w>
en ched</w>
el essness</w>
du m</w>
do do</w>
distur bed</w>
dis semin
direc tors</w>
digit ally</w>
dig its</w>
diffic ulties</w>
di al
develop ments</w>
develop er</w>
deli ghted</w>
dec entr
de alt</w>
cust oms</w>
crash ing</w>
cop ying</w>
contrac ts</w>
contin ually</w>
con spir
con cussion</w>
con ceive</w>
con cei
compla ined</w>
comp ass</w>
comb ining</w>
coinci dence</w>
cl er
cigar ette</w>
chle ar</w>
chem ists</w>
certi fied</w>
cap sule</w>
c is
bur n
bur ial</w>
bre w</w>
bra kes</w>
br on
bl ink</w>
ber to</w>
belon ging</w>
bel oved</w>
bal con
b log
aw i</w>
avi an</w>
attemp ted</w>
at erials</w>
ass ing</w>
arrang ement</w>
ar ding</w>
appreci ated</w>
appl au
anten na</w>
analy tical</w>
an imations</w>
ambi a</w>
amate urs</w>
amate ur</w>
ali en
agre es</w>
ag en</w>
aes thetics</w>
ad ow</w>
ad or</w>
aci ds</w>
ach ers</w>
acci dentally</w>
a ward</w>
a tion
a thers</w>
Y ale</w>
Wi red</w>
Wal- Mart</w>
Wal ter</w>
W is
Vic tori
To wer</w>
Th er
Tah rir</w>
TED Women</w>
Syd ney</w>
Sim ple</w>
Si x
Sha di</w>
San dy</w>
S ev
S ARS</w>
Rab bit</w>
R and
R He
RHe x</w>
Power Point</w>
Photos hop</w>
Ph ys
O S</w>
N ev
N et</w>
Mc C
M r
Loc al</w>
K ab
Jos h</w>
J am
Isa ac</w>
Iraq i</w>
In stag
IS IS</w>
Hund reds</w>
Himalay as</w>
Hill is</w>
Her bie</w>
Haw king</w>
Gra ham</w>
Govern ments</w>
Gol d
G ot</w>
Frank lin</w>
For get</w>
Financi al</w>
Fa b</w>
F G</w>
Ex actly</w>
E specially</w>
E ff
Dig ital</w>
Darwin ian</w>
D ur
Core xit</w>
Com ple
Com passion</w>
Car negie</w>
CD C</w>
C el
C at
B ag
Am sterdam</w>
A mel</w>
A G</w>
2 500</w>
2 50,000</w>
196 2</w>
195 3</w>
0. 2</w>
- year</w>
ã o</w>
ys s</w>
y m</w>
xt apos
work shops</w>
wor ries</w>
wor n</w>
wan der</w>
w ing
vie w
veter an</w>
ve tica</w>
vag ina</w>
va o</w>
v als</w>
up load</w>
un sustainable</w>
ul ed</w>
trium ph</w>
tr ans</w>
tor al</w>
tim eline</w>
the id</w>
ten nis</w>
te am
tax pay
tap irs</w>
tal es</w>
ta h</w>
t at</w>
t ants</w>
t ans</w>
sy rin
syrin ge</w>
suscep tible</w>
surround ings</w>
sup pli
sub stitute</w>
stun ning</w>
stum bled</w>
stro kes</w>
stra igh
str ous</w>
ste er</w>
state- of-the-
state-of-the- art</w>
sta kes</w>
spe eding</w>
solem n</w>
sne a
six -year-old</w>
simpli fy</w>
side walks</w>
shat tered</w>
se aled</w>
se af
school ing</w>
scholar ship</w>
scal able</w>
sapi ens</w>
s wee
rul ed</w>
ru ins</w>
rou tes</w>
rewar ded</w>
resul ted</w>
respir atory</w>
reson ance</w>
remin der</w>
recei ves</w>
re n</w>
rap h</w>
rac es</w>
r ushed</w>
r on
ques tioned</w>
prot ocol</w>
pro ving</w>
pro cra
presen tations</w>
predic ts</w>
pre ference</w>
pot atoes</w>
post-con flict</w>
post cards</w>
pop -up</w>
poo rer</w>
poo p</w>
poly mer</w>
plas ma</w>
plac e
pin point</w>
pic a</w>
photograph ers</w>
pher om
peri or</w>
pe p
pe el</w>
pe an
p lied</w>
p ad
outra ge</w>
ou trage
ommun ications</w>
octop us</w>
obsc ure</w>
o bos</w>
nur turing</w>
num er
no velty</w>
no vels</w>
no tions</w>
neuros cientist</w>
ner d</w>
negoti ation</w>
negoti ating</w>
ne um
na il</w>
n ut</w>
n ical</w>
moc k
mind- wandering</w>
mil it
migra ine</w>
metr on
metaph ors</w>
met ropolitan</w>
medi eval</w>
mathema tically</w>
marsh mallow</w>
marri ages</w>
mani fest</w>
man n</w>
mammo graphy</w>
ma ge</w>
m ating</w>
m ally</w>
lec tures</w>
le af
lay ing</w>
la undry</w>
la in</w>
kilo s</w>
jur is
jugg ling</w>
iz ard</w>
iter ranean</w>
it a</w>
irri gation</w>
ir l
inter rup
inf ect</w>
inc i</w>
in corpor
immigr ant</w>
imag inary</w>
im mortality</w>
i or
hyper bo
hun ters</w>
hi j
heav ens</w>
har n
hand ling</w>
h ran</w>
h es</w>
guarante ed</w>
go d
ger ms</w>
gen omics</w>
frac tal</w>
foun ders</w>
for cing</w>
for bi
fli pped</w>
fit ted</w>
fil ming</w>
fes tival</w>
fel lows</w>
favel as</w>
expres sive</w>
explor ers</w>
expe ditions</w>
ex -
et y-
escap ed</w>
es ian</w>
environ mentally</w>
ent agon</w>
end ants</w>
emis sion</w>
em it
el ines</w>
effec tiveness</w>
eff ic
ed ited</w>
ech o
e able</w>
du g</w>
dro id</w>
dre am
doc k</w>
div ine</w>
disp arate</w>
dis cre
dis c</w>
digi tize</w>
dic tator
di m
develop mental</w>
devast ated</w>
deter ior
descri ptions</w>
dec o
dd led</w>
d ging</w>
curr ents</w>
cu red</w>
cra wl</w>
country side</w>
corri dors</w>
contag ious</w>
construc tive</w>
compe t
comp li
commis sion</w>
com plain</w>
com a</w>
co w
clean er</w>
cl ap</w>
cho re
cho ir</w>
ch ool</w>
carb on-
calci um</w>
cab inet</w>
but t</w>
bul lets</w>
bu z
bo il</w>
bla de</w>
bl an
bit ter</w>
ber y</w>
be ats</w>
be at
b ending</w>
b acked</w>
az ine</w>
avail ability</w>
audit orium</w>
att or
astron aut</w>
aspi ration</w>
artic ulate</w>
arri ving</w>
arrang ed</w>
ar rows</w>
ap or</w>
ap min
anticip ated</w>
anno ying</w>
al ge
agas car</w>
ad ventures</w>
ad jac
ac tic</w>
absor bed</w>
ab ama</w>
Wit ness</w>
Vill age</w>
V inci</w>
Un der</w>
U se</w>
Tru th</w>
To yota</w>
Ten nessee</w>
T ami
Stu dents</w>
Ser vice</w>
Scot tish</w>
Sa ve</w>
S ounds</w>
S ony</w>
S inging</w>
Re ed</w>
R um
R ule</w>
R al
Portu gal</w>
Po lice</w>
P as
Nan op
N BC</w>
Med iterranean</w>
Mad agascar</w>
M ass
M all</w>
L earning</w>
L at
L ang
Ke pler</w>
K han</w>
K at
Ju stine</w>
Jour nal</w>
Jac ques</w>
J on</w>
J i
J ack
Inter viewer</w>
Incre dible</w>
IC U</w>
Hun g
Hu dson</w>
Hu bble</w>
Hop efully</w>
Hel vetica</w>
Har ri
Har lem</w>
H ope</w>
H D</w>
Gu ar
Gr ound</w>
Govern ment</w>
Gor don</w>
Gal vao</w>
G am
Fur by</w>
Fant astic</w>
Entro pica</w>
E mer
E is
E H</w>
E -
Di ana</w>
Dar fur</w>
DD T</w>
Co oper</w>
C uba</w>
Buil ding</w>
Bu y</w>
Bri dge</w>
Bhut an</w>
Be tween</w>
B its</w>
An onymous</w>
Ale c</w>
Al ready</w>
Al i</w>
Al abama</w>
A gency</w>
A ch
A O</w>
7 8</w>
7 000</w>
6 2</w>
4 0-
2 20</w>
197 7</w>
193 9</w>
19 30</w>
10 th</w>
10 0-
-in- law</w>
-c h
z oning</w>
wr ink
wonder fully</w>
w ounded</w>
vibr ate</w>
ver tically</w>
v ory</w>
v ar
us et
uset ts</w>
ur anium</w>
univers ally</w>
uni fied</w>
under wear</w>
un limited</w>
un ite</w>
tru sting</w>
trans actions</w>
tr illions</w>
to- peer</w>
ti pping</w>
ti a</w>
threat en</w>
thr ust</w>
thir dly</w>
thi um</w>
ten se</w>
ten ding</w>
tec ton
t am
syn c</w>
swal lowed</w>
swa p</w>
susta ining</w>
susp ected</w>
survi ves</w>
sur ge</w>
super no
super computer</w>
sup ple
summar y</w>
suit case</w>
submer sible</w>
stun ts</w>
stri pped</w>
streng ths</w>
stimul ate</w>
ster ies</w>
star ter</w>
standar di
spon taneous</w>
speech es</w>
space- time</w>
sp ouse</w>
sp oo
sol ves</w>
smart phones</w>
sl u
sion ately</w>
si ghted</w>
si es</w>
si de-
sh irts</w>
sh iny</w>
sh ells</w>
sh allow</w>
seven -
ser i
separ ating</w>
self- organizing</w>
secre tly</w>
se iz
se gre
se am
satis fying</w>
s- on</w>
ri gorous</w>
ri ghtly</w>
retr osp
reper to
rect angle</w>
recru ited</w>
reci pes</w>
realiz es</w>
re stra
re members</w>
re lies</w>
re inventing</w>
rac ist</w>
ra tive</w>
r inging</w>
r ank</w>
pun ish</w>
pul sion</w>
pul ses</w>
prosp ect</w>
pri est</w>
preven ted</w>
pres chool</w>
pre frontal</w>
pop ping</w>
po o</w>
po ets</w>
pl un
pill ar</w>
pi res</w>
phot osyn
pay ments</w>
pay load</w>
over lap</w>
outrage ous</w>
out -of-
optim al</w>
op tics</w>
oo p</w>
on t</w>
on set</w>
om a</w>
ol is</w>
o we</w>
nur ture</w>
num ber
neighbor ing</w>
my steries</w>
mur dered</w>
mon d</w>
mis ery</w>
mir ac
minim ize</w>
milli on
migr ants</w>
metr ics</w>
met aphor
mat ernal</w>
mas ks</w>
log istics</w>
locom otion</w>
lif ts</w>
liber ation</w>
li d</w>
li ation</w>
le ys</w>
le gen
kid neys</w>
ju xtapos
ju dic
jan itor</w>
iter ation</w>
ir rit
inv aded</w>
intr insic</w>
ins ically</w>
inj ected</w>
in puts</w>
in habit
imp lication</w>
ill nesses</w>
ill es</w>
il ey</w>
hy gi
hum idity</w>
hu b</w>
horri fic</w>
hol der</w>
histor ian</w>
hippo campus</w>
gri p</w>
gra d</w>
gi raff
ger m</w>
ge tic</w>
gam ma</w>
ful fill</w>
free way</w>
fre ed
fre ak</w>
fra ming</w>
fra med</w>
for um</w>
foc uses</w>
fo li
flou ri
floo ding</w>
fe ter
fe e</w>
f ty</w>
f ten</w>
f ounding</w>
extre mism</w>
execu ted</w>
ex it</w>
evalu ation</w>
ev es</w>
est ing</w>
es say</w>
es cents</w>
erec tus</w>
er ty</w>
er ase</w>
equ ator</w>
epilep sy</w>
ensla ved</w>
empha sis</w>
empa th
ell i</w>
elimin ated</w>
el o
eigh th</w>
effic acy</w>
educ ators</w>
educ ating</w>
eas ed</w>
domin ate</w>
do s</w>
do l</w>
distr acted</w>
disc ourse</w>
dis ruption</w>
din ing</w>
di min
di l
det ecting</w>
deser tification</w>
der -
deman ded</w>
delic ate</w>
dec lined</w>
cul turally</w>
cri ses</w>
cre epy</w>
cra wling</w>
cra ft
cr an
convic tion</w>
conv ul
contribu tes</w>
contain ers</w>
compe tent</w>
comm ands</w>
collabor ator</w>
collabor ating</w>
cock tail</w>
co p</w>
co ined</w>
claim ing</w>
char is
champi on</w>
ch er
centi meters</w>
cel ad
celad us</w>
ce me
catastrop he</w>
carri age</w>
car ved</w>
ca mel</w>
ca feter
c ue</w>
bul k</w>
bor rowed</w>
bom bar
blo b</w>
black -
biolumin escent</w>
bee keepers</w>
ban ker</w>
bal lot</w>
b ump</w>
ay ed</w>
avo iding</w>
audit ory</w>
au top
attr action</w>
astronom ical</w>
assa ult</w>
as y</w>
arro g
arrang ements</w>
are foot</w>
arch ive</w>
ar ose</w>
ar c</w>
anti bodies</w>
anc ement</w>
adol escents</w>
acknowled ged</w>
ach usetts</w>
ac on</w>
ab usive</w>
a uc
a ka</w>
X- rays</w>
Wh ole</w>
Wel come</w>
V in
Tami flu</w>
T ype</w>
T echno
T O</w>
Stan ley</w>
Sol ar</w>
S wa
S on
S la
Pan theon</w>
O ften</w>
O dys
O -
Norwe gian</w>
N either</w>
N L</w>
Mr s.</w>
Mo bile</w>
Mill ennium</w>
May or</w>
Mat the
Mass achusetts</w>
Mar yland</w>
Mar shall</w>
Mar ine</w>
Mal dives</w>
Mal awi</w>
M into</w>
M em
K h
K atr
Instag ram</w>
In di
I r
I Q</w>
Hou ston</w>
H ot
H T
H A</w>
G l
G apmin
Fo rest</w>
Fin land</w>
Fal con</w>
Fa ther</w>
F ind</w>
En celadus</w>
E ight</w>
E igh
E den</w>
D G</w>
Con ven
Colom bia</w>
C lu
C had</w>
C ent
C ause</w>
C ass
Ba ker</w>
BM I</w>
B ul
B om
B ad</w>
An th
A gn
A SL</w>
A D
7 47</w>
6 50</w>
5 1</w>
20 25</w>
198 1</w>
197 1</w>
-c ar
- out</w>
zer os</w>
z ler</w>
z ip</w>
yi elds</w>
wh ilst</w>
weak ness</w>
water fall</w>
vision ary</w>
viscer al</w>
ver ts</w>
venti l
ve ins</w>
ur gency</w>
under mine</w>
un stable</w>
un necessary</w>
ty ran
ty po
tun as</w>
tri ple</w>
tri angles</w>
tre adm
transforma tional</w>
tr action</w>
tou rist</w>
to b
tic ut</w>
tic kets</w>
tic es</w>
ti re</w>
ti des</w>
thro ws</w>
thor oughly</w>
thir d-
the ft</w>
tele phones</w>
tattoo s</w>
t asking</w>
t apped</w>
synthe size</w>
surpri ses</w>
sun ny</w>
sub mitted</w>
stran gely</w>
sti t
star ving</w>
st al
spon sor</w>
sp elling</w>
sp ades</w>
sol itary</w>
sing ular</w>
si bly</w>
shepher d</w>
settle ments</w>
schol ar</w>
sc ars</w>
s ful</w>
ru ined</w>
ru in</w>
ru b</w>
rop ic</w>
rop a</w>
roc ke
ri ot</w>
ri fu
restric tions</w>
replic ating</w>
reperto ire</w>
regim es</w>
refl ecting</w>
refer ences</w>
re vi
re ply</w>
re moving</w>
re fle
re cl
re building</w>
radio active</w>
ra mi
r is</w>
r ine</w>
quick er</w>
prov ince</w>
profes sions</w>
pri stine</w>
prev ail
prefer red</w>
preci pit
pp m</w>
pp i</w>
power fully</w>
pot enti
poe tic</w>
po ke</w>
plac ement</w>
pir ate</w>
pill ars</w>
physi ological</w>
perform ers</w>
penetr ate</w>
peer- to-peer</w>
pe ek</w>
pe dal</w>
pay off</w>
para dise</w>
par tici
p neum
p lo
p ins</w>
p ine</w>
p ant</w>
over load</w>
oun ced</w>
orphan age</w>
orb iting</w>
or n</w>
open ly</w>
op tic</w>
offici ally</w>
ob server</w>
ob iles</w>
not ation</w>
nin th</w>
ne sts</w>
n on</w>
n eling</w>
mun ici
mom ent
mod ules</w>
mind ful</w>
migr ant</w>
men ting</w>
membran es</w>
mel ody</w>
mean while</w>
mast ery</w>
manufac turer</w>
manufac tured</w>
man- made</w>
mag ician</w>
m ite</w>
m acr
loc k
lob s</w>
liter ary</w>
lim itation</w>
li thium</w>
li king</w>
lea ks</w>
lab els</w>
la stly</w>
l ym
k ra
k ick
k en
k ar
jo ints</w>
is tically</w>
ir y</w>
intr insically</w>
inter viewing</w>
inten sely</w>
inser t</w>
incarcer ated</w>
in ha
in go</w>
in gen
in clusion</w>
in adequate</w>
ign ant</w>
identi fication</w>
ic ry</w>
i ors</w>
i o</w>
i me
i ghts</w>
hypothe ses</w>
hundre d-
human ities</w>
hu g</w>
hom ici
histor ians</w>
high- quality</w>
her d</w>
head ache</w>
he ights</w>
he els</w>
h iring</w>
h ats</w>
gr ace
glob alized</w>
gi g
gec ko</w>
g ically</w>
frag mented</w>
fra u
fore ground</w>
for mats</w>
for gi
fluctu ations</w>
fin e-
fil ing</w>
fi shes</w>
fi br
fac ulty</w>
f u</w>
f laws</w>
f ir</w>
eye bro
exten sive</w>
exten ds</w>
explos ions</w>
exp ands</w>
exhilar ating</w>
excell ence</w>
eth ic</w>
et t</w>
establi shment</w>
eri ously</w>
ep ic</w>
ener gi
end lessly</w>
encyclo pedia</w>
e- to-
e ps</w>
e ager</w>
du de</w>
distinc tive</w>
dis comfort</w>
dis belief</w>
depres sing</w>
degra dation</w>
defin itions</w>
def ending</w>
dec eased</w>
dar ity</w>
da ho</w>
d unes</w>
cur ator</w>
cu res</w>
cu bic</w>
cri ed</w>
constra ined</w>
conspir acy</w>
confron tation</w>
conf using</w>
conf ession</w>
compreh ensive</w>
comm entary</w>
collap ses</w>
col der</w>
cockro ach</w>
clic ks</w>
class mates</w>
cl ed</w>
circum stance</w>
chap ters</w>
ch op
cathedr al</w>
cam els</w>
buc ket</w>
brow sing</w>
br ac
bor rowing</w>
boo t</w>
blo ggers</w>
ble ed</w>
bio tic</w>
bi ome
bel ts</w>
be st-
be dro
bal ancing</w>
back pack</w>
b lobs</w>
az e
at eral</w>
ast ing</w>
ass ed</w>
as yl
as er</w>
ari ot</w>
apar theid</w>
ap oc
anthropo logy</w>
ant ane
ang led</w>
ang els</w>
aliz ations</w>
ali e</w>
a ura</w>
Y a
U kra
U N</w>
U .</w>
Tw enty</w>
Thir ty</w>
Th ank
Tes zler</w>
Te hran</w>
TED sters</w>
TED Global</w>
T ech</w>
T P</w>
T K</w>
T H</w>
Sp ec
Sp ace
Shir ley</w>
S ue</w>
S toc
S ound</w>
S now</w>
S adly</w>
Ru n</w>
R ou
R N</w>
Por t
Pic asso</w>
Per son
Per f
Patr ick</w>
PE T</w>
P lay</w>
On line</w>
O t
O liver</w>
O ak
Nichol as</w>
Nanop atch</w>
Moun tains</w>
Mo vember</w>
Mi ami</w>
Medic ine</w>
Mag azine</w>
M a</w>
M G</w>
M .</w>
Lin d
Langu age</w>
LO L</w>
L esters</w>
Kurzwe il</w>
Kis met</w>
Ken yan</w>
Katr ina</w>
K ir
K ick
Joh ann
J ose</w>
Is ab
I daho</w>
I D</w>
Hot el</w>
Hind u</w>
H it
H amp
G rowing</w>
F ro
F ish</w>
Eu ropa</w>
Es s
Elec tr
ES G</w>
E aster</w>
Diff er
Cor ps</w>
Connec ticut</w>
Co hen</w>
Christi anity</w>
Cass ini</w>
CE RN</w>
Bro ad
Bil ly</w>
Be verly</w>
Austri a</w>
Ar ts</w>
Antar ctic</w>
An droid</w>
An ders</w>
Am ong</w>
Am anda</w>
Abra ham</w>
A th
A ar
A L</w>
8 0
7 50</w>
2. 3</w>
196 3</w>
19 40</w>
19 12</w>
0. 1</w>
-con sum
y elling</w>
wom b</w>
win -
wea ker</w>
war n</w>
wan a</w>
wal let</w>
wa vel
visu alizing</w>
vibr ant</w>
vi ous</w>
ver bs</w>
val ve</w>
val id</w>
ur ch
under cover</w>
un thin
un c
un aware</w>
um ann</w>
ucle ar</w>
treadm ill</w>
transi stors</w>
trans forms</w>
tra tion</w>
tra de
tr i</w>
to ddler</w>
to aster</w>
tin iest</w>
ti sts</w>
three- year-old</w>
thre ads</w>
telec ommunications</w>
t- shirt</w>
t ;</w>
swe ar</w>
sur fing</w>
super massive</w>
stri ve</w>
str o</w>
str apped</w>
ste ering</w>
ste ak</w>
spi ke</w>
speci alize</w>
sp ine</w>
sovere ign</w>
soli darity</w>
so ils</w>
sm iles</w>
slic es</w>
simpli stic</w>
sett ings</w>
se tup</w>
se me
sche dule</w>
sc and
sa ves</w>
s no
rul ing</w>
ru bble</w>
rough out</w>
rop es</w>
rol l
ro de</w>
ri sed</w>
rhyth m-
rhythm- etic</w>
revolution ize</w>
reven ge</w>
retro viral</w>
resul ting</w>
respon sive</w>
respec tful</w>
requi rements</w>
renew ables</w>
recor dings</w>
recomm end
recep tors</w>
re x</w>
re tri
re fin
re construction</w>
raz ine</w>
rab bits</w>
rab bit</w>
r ans
que z</w>
pub erty</w>
prolifer ation</w>
program m
pro xim
pro hibi
pri zes</w>
presum ably</w>
preser ving</w>
predic tive</w>
pre valent</w>
pos edly</w>
por n</w>
point ment</w>
pneum onia</w>
plan tation</w>
place bo</w>
pix el</w>
photograph ing</w>
peri o
par an
pa thetic</w>
p end
p acks</w>
p able</w>
ou ver</w>
os copy</w>
os cope</w>
or ded</w>
on co
ol ding</w>
occup ation</w>
o zone</w>
o is</w>
not ed</w>
neur ot
navi gation</w>
multi verse</w>
modi fy</w>
mod ular</w>
mod eled</w>
mobili ze</w>
mill ennium</w>
mess aging</w>
memor able</w>
mean time</w>
margin alized</w>
manu el</w>
manipul ating</w>
main taining</w>
ma il
m ingly</w>
lo ops</w>
listen er</w>
lic en
lean ed</w>
law suit</w>
la zy</w>
l ump</w>
l ousy</w>
kill ers</w>
k u</w>
k el</w>
juven ile</w>
juris dic
it is</w>
ir onically</w>
invol vement</w>
intric ate</w>
inter nationally</w>
inter f
interf ere</w>
inst antane
insec ure</w>
inqu iry</w>
in nate</w>
in ely</w>
in corporate</w>
improvi se</w>
imag in
im posing</w>
il literate</w>
ign ment</w>
i Po
iPo ds</w>
hyper tension</w>
hi es</w>
hi de
h ill
h ence</w>
gu ides</w>
gra titude</w>
gra ding</w>
ge ological</w>
ga it</w>
g y-
fu eled</w>
freed oms</w>
fre aking</w>
fr an
forgi veness</w>
floo ds</w>
flash ing</w>
fla p</w>
fl ames</w>
fertiliz ers</w>
fer tility</w>
f red</w>
extrac ted</w>
extrac ellular</w>
expend it
exha us
ex posing</w>
evol ves</w>
ester land</w>
enlighten ed</w>
enjo yable</w>
encryp tion</w>
encryp ted</w>
en der</w>
el ve</w>
e- up</w>
e b
dra gging</w>
dr ank</w>
dood ling</w>
do x
disp ute</w>
dis rupt</w>
diam ond</w>
di ac</w>
determin ing</w>
desc endants</w>
decentr alized</w>
de pri
d der</w>
cros ses</w>
cri tics</w>
cour ty
cos tly</w>
cor respond</w>
cool ed</w>
conver gence</w>
connec tedness</w>
con gres
comp rised</w>
comp act</w>
commun al</w>
coll ections</w>
clin ically</w>
cli ffs</w>
classi fied</w>
cl apping</w>
cin o
cigar ettes</w>
ci a</w>
check list</w>
char ging</w>
ch unks</w>
ch o</w>
cer am
cent rifu
casu alties</w>
carto onist</w>
caregi vers</w>
carb on
ca de</w>
c lit
c it
bureauc racy</w>
bron ze</w>
bom bing</w>
blo ws</w>
blad der</w>
bit ten</w>
biolumin escence</w>
bio graphy</w>
belon ged</w>
be st
be having</w>
batt les</w>
bas s</w>
awk ins</w>
automo tive</w>
atmospher ic</w>
at razine</w>
asyl um</w>
ast ery</w>
assign ments</w>
assem bling</w>
asph alt</w>
arre tt</w>
arch et
ar th
ar ming</w>
appar atus</w>
app liances</w>
ap e
announ cement</w>
announ ce</w>
ang ular</w>
anesthe sia</w>
anc ouver</w>
an ist</w>
an al</w>
al tar</w>
agre ements</w>
addic ted</w>
accum ulated</w>
ac ey</w>
abor tion</w>
a ver</w>
a sts</w>
a is</w>
Y esterday</w>
Y ears</w>
Whit opia</w>
W ei
W ed
Vo y
V el
V ancouver</w>
U m</w>
U ber</w>
U NI
Th roughout</w>
Th ous
T uring</w>
T em
Star bucks</w>
Sol di
Sen ate</w>
S ão</w>
S tran
S hu
S A
Ron ald</w>
Ro y</w>
Re port</w>
R ica</w>
R CA</w>
Pot ter</w>
P rou
P entagon</w>
P ap
P L</w>
O ut
O L
Ni k
Neander thal</w>
N on
N ar
N ano</w>
N ancy</w>
Mo ving</w>
Mis sion</w>
Maj or</w>
Mag ic</w>
M s.</w>
M organ</w>
M itch
M D</w>
Leban on</w>
L y
L esterland</w>
L ED
K ri
Initi ative</w>
I van</w>
I g
I II</w>
He brew</w>
H il
H as
H P</w>
Ge tting</w>
Fin ance</w>
Fi re
F ar</w>
Europe ans</w>
En ough</w>
En ergy</w>
Ear ly</w>
Don nell</w>
Di am
D em
Cor por
Clu b</w>
Ch ange</w>
Ch all
C ab
C L</w>
Bro w
Br yan</w>
Boo ks</w>
Ber tie</w>
Be li
Be ar</w>
Bal i</w>
B ou
B ased</w>
B and
B an
B .C.</w>
An ton
An im
Americ as</w>
Ach illes</w>
Ab u</w>
7 ,
6 0-
3 65</w>
24 -hour</w>
2 ,500</w>
12 th</w>
1 600</w>
0. 5</w>
yo gur
y ro
y makers</w>
y l</w>
world view</w>
wor ship</w>
wh ip</w>
weap on
wea ving</w>
virtu ous</w>
vir ul
vibra tion</w>
veter in
vers a</w>
vari ed</w>
val ves</w>
v ity</w>
v ine</w>
usi vely</w>
up wards</w>
unthin kable</w>
un pleasant</w>
un natural</w>
un healthy</w>
un folding</w>
un familiar</w>
two- way</w>
tw enti
tw eight</w>
tur tle</w>
tribu te</w>
tri ggers</w>
treas ure</w>
transl ates</w>
traff icked</w>
tou rism</w>
tor ing</w>
tle Bits</w>
til t</w>
ti tan</w>
ti me
ti fied</w>
thin ess</w>
thank fully</w>
th ou</w>
ten sions</w>
tempor arily</w>
te es</w>
te ens</w>
te ase</w>
targe ting</w>
ta tives</w>
sympa thy</w>
swit ches</w>
swe eping</w>
substanti ally</w>
sub marine</w>
su perior</w>
stun ned</w>
stri ps</w>
stres sful</w>
stat ue</w>
specim ens</w>
sp y</w>
sp otted</w>
sp ills</w>
so m</w>
smo o
sl am
sk irts</w>
sim ulations</w>
si e
sha man</w>
sha de</w>
semin al</w>
se wage</w>
se at
se -
scar city</w>
scaff old</w>
san itary</w>
s ounding</w>
rot ating</w>
ro s</w>
ri p</w>
ri e</w>
rhetor ic</w>
revel ations</w>
revel ation</w>
reve aling</w>
reserv o
resem ble</w>
reg ulating</w>
reg ain</w>
re tain</w>
re pur
re fine</w>
re bel
rain bow</w>
ra ms</w>
r anges</w>
protoc ells</w>
prot esters</w>
prosper ous</w>
pro voc
pri mor
prev ents</w>
prev ent
presi dents</w>
pre mature</w>
pra yers</w>
pp ines</w>
por no
pop ulated</w>
poll ination</w>
pois oning</w>
plugg ed</w>
plausi ble</w>
pl ying</w>
pl uri
pl otted</w>
pione ers</w>
pharmaceu ticals</w>
pharm ac
persist ent</w>
per me
per cei
pe es</w>
pe ar
pat ory</w>
parti ally</w>
par o
pa vi
pa sted</w>
p ies</w>
p he
over l
ous es</w>
op oli
op hi
one- two-
one- third</w>
ome ters</w>
om ist</w>
oli thic</w>
ol ec
off line</w>
of i</w>
oce an
occasi onal</w>
o live</w>
o ked</w>
nur sing</w>
ni an</w>
new s
neuros ur
near -
nan o-
n as
motor cycle</w>
monit ored</w>
mit es</w>
mis understood</w>
min eral</w>
mim ics</w>
middle -class</w>
methodo logy</w>
mer ge</w>
men u</w>
me en</w>
me des</w>
me adow</w>
mas cul
mar in
man gro
main tained</w>
ma tized</w>
ma ize</w>
m in</w>
lon ging</w>
lit tleBits</w>
lit ers</w>
life times</w>
lic k</w>
li ative</w>
laugh s</w>
l y
know -
k nit
junc tion</w>
joy ful</w>
journ als</w>
it t</w>
investi gative</w>
investi gating</w>
inv ari
intui tively</w>
inti mid
intell ect</w>
instinc tively</w>
ingen ious</w>
in st</w>
in son</w>
in ner
in expensive</w>
in doors</w>
in da</w>
impro ves</w>
imm unity</w>
im probable</w>
im mortal</w>
illi ant</w>
ile o</w>
identi fying</w>
hur ry</w>
hun ter-
hor n</w>
hom o
hob by</w>
hi d</w>
hero in</w>
heart beat</w>
hear s</w>
head aches</w>
he m</w>
hat ma</w>
habit able</w>
ha un
h u</w>
h ren
great ness</w>
gre ed</w>
grand ma</w>
glo wing</w>
genu inely</w>
gener alize</w>
ge ese</w>
fresh water</w>
fre e-
forbi dden</w>
foot prints</w>
fle et</w>
fla wed</w>
fla me</w>
fl ush</w>
fisher men</w>
fis sion</w>
fin est</w>
fe tus</w>
fe athers</w>
fat ty</w>
fac ade</w>
fa x</w>
f us</w>
f lock</w>
extr action</w>
explo rer</w>
exec ute</w>
exc uses</w>
exam s</w>
ev an
ethn icity</w>
est ed</w>
es y</w>
es -
epis odes</w>
enthusi astic</w>
enterpri ses</w>
en vy</w>
en as</w>
embarrass ment</w>
ema iled</w>
em ia</w>
elec tri
ei gh</w>
ed it
e ste
e ag
dys functional</w>
dri ft</w>
dres ses</w>
dre ad
dr ums</w>
don ations</w>
don ate</w>
dis played</w>
differ ential</w>
diagnos tics</w>
det ectors</w>
des cent</w>
der abad</w>
den ed</w>
demon strations</w>
deliber ate</w>
de vised</w>
d- up</w>
d anced</w>
d able</w>
crow ds</w>
crash ed</w>
correspon ding</w>
coordin ated</w>
conver ting</w>
concep tions</w>
con grat
compos er</w>
compan ion</w>
comp ul
comp en
commun ist</w>
common place</w>
commit ments</w>
comm u
co co
clit or
clari fy</w>
cl ut
cl oned</w>
cl ash</w>
che wing</w>
che ated</w>
ch u</w>
certific ate</w>
ce ly</w>
cataly st</w>
car rot</w>
car cino
cap turing</w>
c ali
butter fly</w>
break down</w>
brea sts</w>
bra in-
bon us</w>
bon acc
bonacc i</w>
bo thered</w>
bo ils</w>
bl a</w>
ben ch
bar a</w>
b und
ax es</w>
autom obiles</w>
attribu te</w>
atten ded</w>
attemp ting</w>
at orial</w>
associ ations</w>
assi c</w>
ass ess</w>
arri val</w>
ar tery</w>
announ cing</w>
and an</w>
am ents</w>
al ignment</w>
al igned</w>
adjac ent</w>
acr on
ack ers</w>
ach s</w>
accommod ate</w>
acceler ation</w>
aca demics</w>
ac ous
abstr action</w>
ab normal</w>
a ke</w>
Y V</w>
World changing</w>
Wor k</w>
Wed nes
Wal mart</w>
Wal k</w>
Vir tual</w>
Victori an</w>
Vi en
Tru e</w>
Tom orrow</w>
Tit us</w>
Th ough</w>
Tas k
Tai wan</w>
TED Talks</w>
T ata</w>
Sym phony</w>
Stor y
Ste p</w>
St ay</w>
Spe aking</w>
Sou theast</w>
Sif table</w>
Ser gio</w>
Sec ret</w>
Sch war
Sa int</w>
S ri</w>
S li
S kid</w>
S hor
S ay</w>
S av
Ros etta</w>
Ro ad</w>
Ri ver
Re ady</w>
RN G</w>
R ot
Prou st</w>
Portu gu
Pol and</w>
Po or</w>
Phili ppines</w>
Perf ect</w>
PE C</w>
P ep
Oak land</w>
O il</w>
O PEC</w>
No ah</w>
Nev ada</w>
N ine</w>
N ight</w>
Mo hamed</w>
Mitch ell</w>
Mill er</w>
Matthe w</w>
Mal ay
Ma p</w>
Ma hatma</w>
Lu ke</w>
Li ving</w>
Le ad
Lar ge</w>
L ev
L abs</w>
L C</w>
K ent
Ju d
Je an</w>
Jama ica</w>
Jack son</w>
J L</w>
Intellig ence</w>
I rish</w>
Hy derabad</w>
Hon dur
Hom er</w>
Ho locaust</w>
Hit ler</w>
Hir os
He al
Harri et</w>
H G</w>
Guar dian</w>
Gu inea</w>
Gal ileo</w>
Gab ri
G lass</w>
G il
G ame</w>
Fore ign</w>
Fi sh
Fi bonacci</w>
Fe deral</w>
F it
F ey
F air</w>
Every where</w>
Ess entially</w>
Eri k</w>
E ver</w>
E vel
E cu
Dre am</w>
Doc tor</w>
De ar</w>
D um
D ick</w>
Con stitution</w>
Cap it
C ultural</w>
Br illiant</w>
Bi o
Bey ond</w>
Ber n
Bal k
B ring</w>
B lu
B L</w>
Aus tin</w>
An n</w>
An dre
Al fred</w>
Agn es</w>
A ut
A long</w>
A lis
A ga
A I</w>
99. 9</w>
3- 4</w>
196 6</w>
195 6</w>
19 29</w>
19 28</w>
18 58</w>
15 th</w>
10 5</w>
- A-
- 1</w>
z e-
z al
wor thiness</w>
woo d
wit z</w>
whist les</w>
w ig
volunte ered</w>
vol ution</w>
vir gin</w>
vac ant</w>
v et</w>
v apor</w>
v ague</w>
ur ated</w>
up grade</w>
un ra
un fold</w>
ul ar
u ts</w>
u ro
twist ed</w>
tur n
tun nels</w>
tu ce</w>
transl ating</w>
tran scri
tough er</w>
tou rists</w>
tob acco</w>
ti tled</w>
ti stici
ti st</w>
ti ers</w>
threat ens</w>
tem ples</w>
techno logists</w>
te ddy</w>
tap ir</w>
tall est</w>
take -
ta d
t earing</w>
swe at
swal low</w>
susp ects</w>
sur render</w>
sur f</w>
sup posedly</w>
sul fur</w>
sugges tions</w>
su itable</w>
stric tly</w>
stra in</w>
str and</w>
str al</w>
stimul ated</w>
st ap
st an</w>
st acks</w>
squ ared</w>
spo res</w>
spar ked</w>
spac eship</w>
sp rings</w>
sp read
sp ines</w>
soc ket</w>
so lic
skelet ons</w>
sk -
sis si
sissi ppi</w>
simil arity</w>
simil arities</w>
side ways</w>
shoc ks</w>
sha ming</w>
sh ook</w>
serv ant</w>
se ize</w>
scre wed</w>
scar f</w>
scar es</w>
scaff olding</w>
sc uba</w>
s ari</w>
s ali
ri sk-
ri a</w>
resi dential</w>
replic ation</w>
repe ating</w>
rela tional</w>
rel ying</w>
reinfor ce</w>
reg arded</w>
recru it
reconci liation</w>
reco vering</w>
reci pro
re generative</w>
ran g</w>
rain y</w>
rain water</w>
rail road</w>
rab bi</w>
r r
r hi
pur pos
pup pet</w>
prop elled</w>
procra stin
pro ves</w>
pro jecting</w>
pro hi
primor dial</w>
prevent able</w>
pre domin
prag matic</w>
pp ies</w>
porno graphy</w>
po s</w>
pl ywood</w>
ph y</w>
perform er</w>
per -
pen alty</w>
pedi atr
patho logy</w>
pas sively</w>
pack aged</w>
pa iring</w>
pa ds</w>
p itch
p ale</w>
oy ster</w>
overwhel mingly</w>
over looked</w>
ov ascular</w>
oul der</w>
ot t</w>
org es</w>
orchestr as</w>
orb ital</w>
or tho
op t</w>
on ey</w>
om on</w>
ol l</w>
ograp her</w>
occu pa
occasi ons</w>
ob li
num b</w>
nos tal
non- profit</w>
new born</w>
nat ures</w>
n omin
n ies</w>
mu tually</w>
mon sters</w>
mo ist
mo des</w>
mini -
min orities</w>
milli seconds</w>
micro wave</w>
mi ti
mi sts</w>
mel ts</w>
mel ted</w>
mega -
mean ings</w>
master piece</w>
mar ching</w>
manife station</w>
man ure</w>
man tra</w>
man tis</w>
ma h</w>
m ist</w>
loy alty</w>
lower ed</w>
low- up</w>
lish ments</w>
ligh tweight</w>
ligh ted</w>
li min
le is
lau re
las ers</w>
l um
l engths</w>
kilo gram</w>
kidn apped</w>
ket t</w>
ke f
kef eller</w>
k le</w>
k ingly</w>
k hol
khol m</w>
juni or</w>
jud ged</w>
iz on</w>
is ot
irl wind</w>
ir o</w>
intui tions</w>
inter ference</w>
inten tionally</w>
insec tici
inno c
influ ential</w>
infl ate</w>
inf lic
indic ator</w>
immen sely</w>
im por
im plants</w>
im pe
im pair
im itate</w>
hyper -
humili ation</w>
hum ming
holi stic</w>
hol low</w>
hm oud</w>
hi ke</w>
hes ive</w>
he im</w>
hand some</w>
h n</w>
guid elines</w>
gu ts</w>
gu ests</w>
grab bing</w>
gra di
govern or</w>
go dd
gg les</w>
geograph ical</w>
gen it
ge ology</w>
ge ek</w>
ge able</w>
g le
g ey</w>
g ement</w>
g ades</w>
fun gus</w>
four -year-old</w>
fore most</w>
for aging</w>
for agers</w>
for age</w>
floo ded</w>
flo wering</w>
fil tered</w>
fabric ation</w>
f law</w>
f in</w>
exquis ite</w>
evol u
evan ge
este em</w>
est rogen</w>
er ve</w>
enti mes</w>
enti a</w>
enh anced</w>
ener gy-
ener getic</w>
end uring</w>
emplo yers</w>
embry onic</w>
embr yo</w>
em pires</w>
em en
el usive</w>
ear nings</w>
dum ped</w>
dri fted</w>
dr us</w>
down loaded</w>
don ation</w>
do ve</w>
dictator ship</w>
di stil
dest ined</w>
deplo yment</w>
dem ption</w>
dec l
de partments</w>
day -to-
day-to- day</w>
dat as
d econ
d ances</w>
cul t</w>
cryp to
cruci ally</w>
cre di
cr abs</w>
counsel ing</w>
cosmo logy</w>
cos ting</w>
cor related</w>
coo kie</w>
conqu er</w>
conf use</w>
condem ned</w>
con taining</w>
con den
compet ence</w>
commit tee</w>
commission ed</w>
commerci als</w>
commerci ally</w>
comm erce</w>
come dian</w>
co res</w>
co chlear</w>
co ali
clitor is</w>
clic king</w>
char ming</w>
ch lor
ch arities</w>
cere al</w>
cell ul
cat ches</w>
cardi ovascular</w>
car c
car -
calcul ator</w>
byp ass</w>
bureauc ratic</w>
bur ns</w>
bul l</w>
bu tter</w>
bu le</w>
bru te</w>
bos on</w>
bo ws</w>
bo oth</w>
blin d
bl ess</w>
bit es</w>
biom olec
bill board</w>
ber ries</w>
be tra
bat on</w>
back ward</w>
b ail
b ag
aze era</w>
avo id
au s</w>
attor ney</w>
at er
at able</w>
ast on
assum es</w>
arri ves</w>
ar ises</w>
appe ti
anthropo logists</w>
ance stry</w>
aliz es</w>
al yp
al arming</w>
ag nos
after math</w>
advoc acy</w>
adverti se
adop ting</w>
adap ting</w>
accum ulation</w>
accum ulating</w>
acci dental</w>
a x</w>
a wards</w>
a j
a erial</w>
Y emen
Wor king</w>
Woo dy</w>
Won der
Wednes day</w>
W H
W .</w>
Voy ager</w>
V on</w>
US C</w>
U V
U E</w>
TED ster</w>
T rin
Sur vey</w>
Su g
Stoc kholm</w>
St acey</w>
Ser gey</w>
S ul
S ci
Rou ge</w>
Ros ling</w>
Roc kefeller</w>
Robo t</w>
Ro ots</w>
Rit a</w>
Re al</w>
R el
R ain
R SW</w>
R M</w>
Portugu ese</w>
Port land</w>
Palestini ans</w>
PD F</w>
Or chestr
O z</w>
Nor mally</w>
Net work</w>
Ne umann</w>
NI H</w>
Mos es</w>
Mon go
Mo reover</w>
Mis sissippi</w>
Michel le</w>
Mc Donald</w>
Ma hmoud</w>
MP 3</w>
M ola</w>
M illions</w>
M W</w>
M L</w>
Le o</w>
LED s</w>
L e</w>
L au
L ap
L ank
L and
L abor
Kent ucky</w>
K ofi</w>
Jon as</w>
J ur
J azeera</w>
Iran ians</w>
In uit</w>
I. T.</w>
Hum anity</w>
Hon ey</w>
H us
H ul
H az
Grou p</w>
Fre ud</w>
Fer mi</w>
Fe ar</w>
F red</w>
Ex tre
Ex per
Eng ine
En lighten
E qu
E C</w>
Du ke</w>
Dav is</w>
D ol
D imit
D K</w>
D .
Cur r
Cre ative</w>
Corpor ation</w>
Compu ter</w>
Com mission</w>
Ci tiz
Chan nel</w>
Car ter</w>
CA T</w>
C s</w>
C BS</w>
Br ent</w>
Bla ir</w>
Bat man</w>
B s</w>
B -
Arab s</w>
Any thing</w>
Ann oun
Ad d</w>
Aar on</w>
A- rhythm-etic</w>
A ward</w>
A gr
A ges</w>
A K-
9 ,000</w>
8 0-
6 -
4 5,000</w>
3 5,000</w>
2 nd</w>
196 4</w>
1. 6</w>
1-2- 3-4</w>
0. 0
. org
z i
yp sol</w>
yogur t</w>
yo ga</w>
wr ong
wet suit</w>
wee ds</w>
war ran
vul tures</w>
vel and</w>
ve ts</w>
vari ability</w>
v il
v ascular</w>
up stairs</w>
unle ash</w>
under ing</w>
un- S
un-S ook</w>
un touched</w>
um bre
umbre l
ul ls</w>
uc ker</w>
typ ed</w>
tw ater</w>
tun neling</w>
tu toring</w>
tru de</w>
transcend ence</w>
tr ic
ti res</w>
three- four</w>
thi est</w>
therap eu
the astern</w>
ten ed</w>
te or
tap e
tac tics</w>
t ucked</w>
t ari
system ic</w>
syn chr
synchr ony</w>
symp tom</w>
swe pt</w>
sw ir
sur v
suffici ently</w>
suc ked</w>
suc cum
stu pi
stric ts</w>
stret ching</w>
stic ker</w>
sti ff</w>
stereotyp es</w>
ste ep
star tling</w>
stabili ze</w>
sta tistici
sp a
some place</w>
soci o
snap shot</w>
sna p</w>
sm en</w>
sla m</w>
sk in
shor test</w>
sho w
sho ots</w>
sett ling</w>
seri ousness</w>
seren di
sen sa
seme ster</w>
self- esteem</w>
self -c
secre tary</w>
seas onal</w>
sear ched</w>
sched uled</w>
sal twater</w>
sal es
sal ad</w>
sa dd
s warms</w>
s wana</w>
s op
s late</w>
s day</w>
ru pees</w>
rot ation</w>
rit is</w>
respec ts</w>
res ort</w>
rel essly</w>
re tar
re jection</w>
re imagine</w>
re bel</w>
re ar</w>
re active</w>
re acted</w>
ra ging</w>
r ounded</w>
r ated</w>
que ue</w>
quanti tative</w>
push es</w>
purcha sed</w>
pum ping</w>
psychiat rist</w>
provi der</w>
prom otion</w>
problem- solving</w>
pro pri
pro of
pro files</w>
prescri be</w>
pre sti
pra h</w>
port foli
port al</w>
pop ped</w>
pon te</w>
polic ymakers</w>
polar ization</w>
po d</w>
plum me
photosyn thesis</w>
photograp hic</w>
ph ery</w>
peri phery</w>
perform ances</w>
per y</w>
per ger</w>
pe g</w>
parag raph</w>
par ked</w>
pale onto
pal liative</w>
pa ign</w>
p us</w>
p ace
over weight</w>
other mal</w>
or ist</w>
or ch
old- fashioned</w>
ol ingo</w>
oc ul
oc key</w>
o on</w>
no thing
nick name</w>
ni k</w>
ni ece</w>
neoc ortex</w>
ne -
nam ese</w>
na e</w>
my s
mut ant</w>
mu ff
moder ate</w>
mo ons</w>
min ers</w>
middle- aged</w>
mid -</w>
meta data</w>
mess ing</w>
menstr uation</w>
mel o
mega watts</w>
medi ated</w>
meas les</w>
me try</w>
me mo
manuscri pts</w>
manipul ated</w>
mand ate</w>
mammo gram</w>
mac ro
ma x</w>
m um
listen ers</w>
liber ating</w>
lex icon</w>
let tuce</w>
lean or</w>
lau g</w>
la va</w>
l umin
l est</w>
l as</w>
l acks</w>
kn it</w>
k ite</w>
k ansas</w>
jeal ous</w>
j er
iz zy</w>
it ra</w>
is cu
inv ade</w>
intrigu ed</w>
inter -
inst ability</w>
inspi rational</w>
ini sts</w>
indic ators</w>
in os
imp acted</w>
ime e</w>
imagin ative</w>
illi e</w>
ignor ing</w>
hy dra
hur ricane</w>
hur d
hunter- gather
hren he
hrenhe it</w>
high- risk</w>
high- resolution</w>
helicop ters</w>
he dr
ha ul</w>
h yp
h ello</w>
h ap
gro ponte</w>
grand mothers</w>
grab s</w>
gra zing</w>
gra ded</w>
gol ese</w>
glo ves</w>
gl ands</w>
gener ator</w>
ge othermal</w>
ge o-
ga dish
gadish u</w>
g ym
fund raising</w>
fund ers</w>
fu tures</w>
fr anch
fore head</w>
for bid</w>
fon ts</w>
five- year-old</w>
fish ery</w>
fi erce</w>
fi dence</w>
facil itate</w>
f ill
f an
extr ap
expor ting</w>
excer pt</w>
exc essive</w>
es el
en za</w>
em it</w>
em es</w>
ec o-
dy e</w>
du al</w>
dri fting</w>
dr illing</w>
down stairs</w>
do omed</w>
divi ding</w>
divi d
disper sed</w>
dis proportion
diplom atic</w>
dig est</w>
differenti ated</w>
dict ator</w>
di os</w>
dev ote</w>
desper ation</w>
den i
demonstr ating</w>
dem entia</w>
deem ed</w>
de grade</w>
datab ases</w>
dat a-
dark est</w>
damag ing</w>
da ism</w>
d well
cur ved</w>
cur tain</w>
cu bic
crocodi le</w>
credi bility</w>
crea tively</w>
cre dible</w>
cor ds</w>
control ler</w>
continu ity</w>
consist ency</w>
consider ably</w>
concer ts</w>
concent rations</w>
con firm</w>
compreh en
compen sation</w>
comp ose</w>
colli de</w>
col m</w>
clos e-up</w>
clear ing</w>
cla mation</w>
cl one</w>
cienti fic</w>
chi efs</w>
cheap ly</w>
champi ons</w>
cham bers</w>
ch y</w>
ch i</w>
ch ester</w>
cell o</w>
car ve</w>
cap acities</w>
cafeter ia</w>
c ans</w>
burn t</w>
bur gl
bul lying</w>
bu ys</w>
bu sted</w>
brow se</w>
bra him</w>
bot t
bor ough</w>
bom bed</w>
bo died</w>
bir ch</w>
beli ever</w>
be ta</w>
bas ics</w>
bal let</w>
ba k
b our
b au
av en
at em
aston ished</w>
as sured</w>
as ser
artif ici
arth ritis</w>
arith metic</w>
argu ably</w>
archi ves</w>
ar tis
anthropo logist</w>
ann e</w>
analy tics</w>
an te</w>
am o
alo is</w>
algorith mic</w>
al pha</w>
al be
after ward</w>
adol escent</w>
acron ym</w>
achiev ements</w>
accomp li
ac ulture</w>
a urus</w>
a il</w>
Viet namese</w>
Vien na</w>
Vi king</w>
Ve gas</w>
V ac
US B</w>
Task Rabbit</w>
T ou
T 20</w>
Su sta
So bule</w>
Sho ots</w>
S tri
S tra
S mo
S ir
S ene
S earch</w>
S c
Re g
R ice</w>
Pro gress</w>
Pro duc
Par t
Pakist ani</w>
O prah</w>
No w
Nin ety-
Ne groponte</w>
Ne ed
Mos tly</w>
Mo gadishu</w>
Mo del</w>
Mari o</w>
Malay sia</w>
Mal colm</w>
M t</w>
M es
M en
Loo ks</w>
Lang ley</w>
LO L
L or
L ick
L N</w>
Kam en</w>
K id</w>
K hal
K az
K ath
K ate</w>
K ah
Juli us</w>
Juli ano</w>
Ju daism</w>
J .
Israel is</w>
Inno vation</w>
IM F</w>
I brahim</w>
I V</w>
Hy un-Sook</w>
Hun ter</w>
Hum an
Hel en</w>
H ansen</w>
Gu atem
Ger trude</w>
Ge iger</w>
Ge h
Gapmin der</w>
Gall ery</w>
G wen</w>
G alois</w>
G ad
Fa hrenheit</w>
F as
Evel yn</w>
El l
Econ omic</w>
E. U.</w>
E ur
E t
E nd</w>
E leanor</w>
E R</w>
Du olingo</w>
Dan ish</w>
D ri
D olly</w>
Con golese</w>
Compu ters</w>
Com pare</w>
Co ach</w>
Cl oud</w>
Chi ef</w>
Che ers</w>
Cam paign</w>
Cal ypsol</w>
C li
C at</w>
Bot swana</w>
Blo om
Ben ki</w>
Be hind</w>
Bar ric
Bar bie</w>
Bar bara</w>
Bab ylon</w>
B yr
B ond</w>
B et
At ten
As perger</w>
Archit ecture</w>
Archi medes</w>
Ar kansas</w>
Anth ony</w>
Announ cer</w>
Alex and
Air port</w>
Aga inst</w>
Ad ams</w>
AT M</w>
A imee</w>
7 00,000</w>
6 500</w>
50 th</w>
4 .5</w>
3 ,500</w>
25 th</w>
2. 4</w>
2 D</w>
2 3
194 1</w>
15 -year-old</w>
15 -
1 200</w>
1 1,000</w>
-control led</w>
-c re
- free</w>
zo diac</w>
z i</w>
yo to</w>
ynam ic</w>
x- ray</w>
wor d
won d
wond rous</w>
wet lands</w>
wel com
welcom ed</w>
wea ve</w>
wal kable</w>
w ob
w ears</w>
vit ro</w>
visu als</w>
virtu es</w>
viol ation</w>
venti lation</w>
val leys</w>
v ot</w>
v ing
ur ance</w>
unbeliev ably</w>
un s</w>
u ter
type face</w>
two- year-old</w>
turb ine</w>
tu ary</w>
trigg ered</w>
tre ats</w>
trans national</w>
trans gender</w>
trans duc
tr aps</w>
tr act</w>
tox in</w>
tough est</w>
to fu</w>
tiv als</w>
time- lapse</w>
tic king</w>
ti um</w>
ti gers</w>
ti fying</w>
thum bs</w>
th op
ter n</w>
temp ting</w>
tag ging</w>
t man</w>
t ently</w>
swit ching</w>
sw am</w>
sustain ably</w>
surv eyed</w>
sur ance</w>
suppli ers</w>
super star</w>
super conductor</w>
sun set</w>
sug ars</w>
sub set</w>
su ite</w>
su bor
stres ses</w>
streng then</w>
stor ing</w>
ste ep</w>
stand -up</w>
stag n
sour ced</w>
sou thwest</w>
sophistic ation</w>
soc ks</w>
sna il</w>
small- scale</w>
sle eve</w>
ski ing</w>
skep ticism</w>
sk ins</w>
simul ator</w>
sie ge</w>
si us</w>
sh run
shrun k</w>
sen su
self- driving</w>
sel ectively</w>
secon d
sec u
se u
scre en
sat urated</w>
sa me-
s ect</w>
s ands</w>
run ner</w>
ru gu
rugu ay</w>
ru de</w>
rot ates</w>
ro yal</w>
ris king</w>
rever ber
restor ation</w>
ren e</w>
reluc tant</w>
reli ev
rel ent
reinfor ced</w>
regul atory</w>
refriger ation</w>
recruit ment</w>
recipi ent</w>
rea dily</w>
re mit
ran king</w>
quot ed</w>
que ens</w>
quanti fy</w>
pur se</w>
punc tu
pu r</w>
psych e</w>
protoc ols</w>
propor tions</w>
programm able</w>
profession ally</w>
pro xy</w>
pro posing</w>
priv ation</w>
priori tize</w>
pre tending</w>
power ing</w>
pos ting</w>
pollin ators</w>
pluri potent</w>
plan ners</w>
pla que</w>
pl ague</w>
pione er</w>
pi geons</w>
ph i</w>
pessim istic</w>
person nel</w>
persist ence</w>
per il</w>
pedestri ans</w>
pe d
pas sionately</w>
partis an</w>
partici patory</w>
pac kets</w>
p ted</w>
p raise</w>
p iled</w>
p a</w>
outw ard</w>
ou l</w>
os te
opho bia</w>
opa que</w>
op o
op es</w>
oo s</w>
on able</w>
off enders</w>
of t
obe y</w>
o dd
nou ri
not ebook</w>
non violence</w>
net worked</w>
negl ected</w>
negl ect</w>
nam ing</w>
n ut
n acle</w>
mys tical</w>
mur der
motiv ations</w>
mon ument</w>
mon opo
moist ure</w>
modi fication</w>
mit ter</w>
mis sile</w>
mirac ulous</w>
min ster</w>
metron ome</w>
mess ed</w>
medic inal</w>
medi oc
me tics</w>
marath on</w>
mar gin</w>
mar ched</w>
main frame</w>
ma ze</w>
m ons</w>
ligh tly</w>
li p</w>
li k
les ion</w>
leis ure</w>
le uk
le dge</w>
lan kton</w>
la titude</w>
l ton</w>
ke eper</w>
ke d
k ering</w>
jo ins</w>
je ans</w>
jail s</w>
j ars</w>
j ams</w>
iz a</w>
ir man</w>
interrup ted</w>
institu tion
ins ult</w>
infin ity</w>
inf eri
indic ated</w>
inci dents</w>
in ert</w>
imprison ed</w>
im port</w>
im balance</w>
illumin ate</w>
ignor ant</w>
i shes</w>
hydro thermal</w>
hur ting</w>
hos tility</w>
him a</w>
hi king</w>
hh hh
he lix</w>
haz ard</w>
hand s-on</w>
hand ic
ha w
ha sh
h ull</w>
h ers</w>
guerr illas</w>
gu iding</w>
gu essing</w>
gu esses</w>
gri zz
gradu ation</w>
gradu al</w>
gr asses</w>
gos h</w>
goo d-
gl as</w>
gi fted</w>
gate way</w>
gard ening</w>
gar den
g ots</w>
fur thermore</w>
ful filled</w>
friend ships</w>
for- profit</w>
for wards</w>
for getting</w>
fool ed</w>
fol low-up</w>
feat ured</w>
f MRI</w>
ey es
extinc tions</w>
exter n
exhibi tions</w>
exec ution</w>
exclu ded</w>
ex clusion</w>
ex changes</w>
est -
es tive</w>
eradic ated</w>
enrich ed</w>
ener gies</w>
ende mic</w>
end urance</w>
end ment</w>
en code</w>
empir ical</w>
empath ize</w>
em its</w>
em bro
electro de</w>
el astic</w>
econ ds</w>
e u</w>
e ph
e dible</w>
dum ping</w>
dri p</w>
dread ful</w>
dom a
doma ins</w>
diver gence</w>
distur b
disc oura
diplom ats</w>
di ver</w>
devast ation</w>
desc end</w>
des al
den omin
defe ated</w>
def ec
dec ode</w>
deb ates</w>
dead line</w>
de vi
dar ker</w>
da unting</w>
d urable</w>
d orm
d lock</w>
d ently</w>
d addy</w>
curr encies</w>
cri tic</w>
cr ater</w>
court ship</w>
counsel or</w>
cost- effective</w>
cor rhi
convic tions</w>
conver ge</w>
constra int</w>
concei vable</w>
con gre
compli ment</w>
comp ens
communic ates</w>
comm ander</w>
com press</w>
com ics</w>
coc k</w>
clin icians</w>
classi fy</w>
cla ws</w>
che e
charis matic</w>
char ts</w>
chal k</w>
ch ord</w>
ch et</w>
cen tered</w>
cen sored</w>
catalo g</w>
cas ually</w>
carpen ter</w>
carb ons</w>
can als</w>
cab in</w>
c one</w>
c coli</w>
broad casting</w>
bro ccoli</w>
brilli ance</w>
bran ded</w>
br ink</w>
block chain</w>
bl aming</w>
bl amed</w>
bit ch</w>
biome dical</w>
biom aterials</w>
beha ves</w>
bec ca</w>
be ams</w>
bal d</w>
back -
b uck
auc tion</w>
assi sted</w>
asp ir
ar in</w>
app lic
ap i</w>
anticip ation</w>
anten nae</w>
ans on</w>
ang ed</w>
anecd ote</w>
analo gies</w>
an ship</w>
am ino</w>
am bassador</w>
alle vi
albe it</w>
ain ts</w>
aff ection</w>
aer od
adv ancing</w>
admi red</w>
activ ation</w>
acqui sition</w>
aby te</w>
a ic</w>
Z ambia</w>
Y o</w>
Wester ners</w>
Wal ker</w>
WH O</w>
Vin cent</w>
Vi sion</w>
Uni verse</w>
US DA</w>
U ruguay</w>
U h</w>
Tw in</w>
The ater</w>
Th us</w>
Ter min
T. B.</w>
T iger</w>
T ele
T ab
T O
T D</w>
Sy n
Super man</w>
Su rely</w>
Ste in</w>
Sp ut
Sol omon</w>
Shor tly</w>
Shar on</w>
Sha h</w>
Sh red
Ser ra</w>
Sad dam</w>
Sa fe
S incl
S ey
S em
S aul</w>
S ally</w>
S F</w>
S AT</w>
Ric h
Ri ft</w>
Re zero</w>
Re becca</w>
R yan</w>
R is
R ho
R W</w>
PC C</w>
P ost</w>
P ope</w>
P oll
P ear
P age</w>
P .
Orchestr a</w>
Nic ole</w>
Nic ol
Naz i</w>
Nav y</w>
N ico</w>
N ative</w>
N Y
Mon ey</w>
Ma ha
Le g
Lap top</w>
LOL cats</w>
L iter
L ab
Kno wing</w>
Kin ect</w>
Kick starter</w>
Kab ul</w>
K yoto</w>
K ha
K ap
Jam ie</w>
J obs</w>
In dependent</w>
I PCC</w>
Hondur as</w>
Han nah</w>
Had ron</w>
HIV- positive</w>
H ei
H ay
H app
Grand ma</w>
G row
G ot
G on
G it</w>
Four th</w>
For tune</w>
Fif th</w>
Far mer</w>
F ly</w>
F es
F ace</w>
Ex xon</w>
Enlighten ment</w>
Eng lish
Ecu ador</w>
Earth -like</w>
E. T.</w>
E volution</w>
E dison</w>
E cos
Dou glas</w>
Differ ent</w>
Del ta</w>
D ev
D C</w>
Cor rec
Conserv ation</w>
Comm and
Col lider</w>
Cle veland</w>
Char ter</w>
Cel sius</w>
CA D</w>
Bu drus</w>
Bra d
Bon obo</w>
Bo x</w>
B un
B uck
B ird</w>
B illie</w>
B ig
B es
Archi e</w>
An na</w>
African- Americans</w>
AD HD</w>
A y
A x
A v
A dri
9 0,000</w>
7 0,000</w>
5 .5</w>
4 ,
3. 3</w>
195 4</w>
190 2</w>
14 th</w>
12 -year-old</w>
1, 600</w>
1, 200</w>
1 75</w>
-c elled</w>
ó n</w>
á n</w>
z ac</w>
worth less</w>
world -class</w>
wo ven</w>
win- win</w>
where by</w>
wear able</w>
wat ch
waste water</w>
warri ors</w>
warm th</w>
w ool</w>
vol ati
vis its</w>
vill agers</w>
vi o</w>
veterin arians</w>
veri fy</w>
ver t</w>
vari ants</w>
valu ing</w>
v ices</w>
v ector</w>
v as
usi e</w>
uri ties</w>
urban ism</w>
understand able</w>
umbrel la</w>
u re
turbul ent</w>
turb ines</w>
tur tles</w>
treat y</w>
trade- offs</w>
tra ded</w>
tr ance</w>
top -
ton ian</w>
to e</w>
thum b
three- quarters</w>
thou ghtful</w>
ther mo
ther ine</w>
ter restrial</w>
ten derness</w>
tap ed</w>
tack ling</w>
ta sted</w>
t- to-
t- in</w>
t wit
t ours</w>
t el
synchron ize</w>
sym bi
syl lab
swe ep</w>
surr ounds</w>
sur ro
surro gate</w>
super markets</w>
sup press</w>
sum med</w>
suici dal</w>
succe eding</w>
stu ffed</w>
stra w
sti r
stere o</w>
ster oids</w>
st onia</w>
st an
squar e-
spon sored</w>
specim en</w>
spec ulation</w>
sp elled</w>
sovere ign
sole ly</w>
sol vable</w>
socio economic</w>
so y</w>
so y
snea kers</w>
sne ak</w>
sl augh
ski er</w>
simpli fied</w>
shel ters</w>
sem ble</w>
see ks</w>
see d
sec rec
secrec y</w>
se us</w>
scat tered</w>
scand al</w>
sc ram
sandw ich
same- sex</w>
s have</w>
rul er</w>
ru g</w>
rou ghts</w>
rot ten</w>
roman tici
ro gue</w>
ro d</w>
rich ness</w>
revers ed</w>
respec tive</w>
resour ce
reson ate</w>
represen tatives</w>
represen tations</w>
replic ator</w>
replic ated</w>
rela xed</w>
rehear sal</w>
reconci le</w>
recomm ended</w>
reck less</w>
real- world</w>
rea u</w>
re stored</w>
re sting</w>
re served</w>
re ka</w>
re generation</w>
re frame</w>
re constructed</w>
re ception</w>
ran e</w>
rami ds</w>
ra v
r ushing</w>
r ots</w>
quad ru
qu al
puzz ling</w>
puzz led</w>
publish ers</w>
provi sion</w>
progres sively</w>
proce ed</w>
pro pulsion</w>
pro geria</w>
prin cess</w>
pri mal</w>
pres ent-
predat ory</w>
pr inters</w>
pr ince</w>
pos session</w>
pos it
portfoli o</w>
por ous</w>
por a</w>
polic emen</w>
plan ner</w>
pl ots</w>
pione ering</w>
pil gri
ph on
ph al
pestici de</w>
person alization</w>
persi st</w>
pavi lion</w>
pat ches</w>
paradig ms</w>
pag ne</w>
pa ins</w>
p seu
os ter
op -
on ion</w>
on esel
onesel f</w>
oft entimes</w>
off ense</w>
o x</w>
nutri ent</w>
nu anced</w>
nit ric</w>
neutr ons</w>
neurot rans
nes ota</w>
ne ga
n man</w>
n as</w>
multi tasking</w>
motiv ating</w>
mot to</w>
mortg age</w>
mis use</w>
milli on-
mil k
mic ro</w>
meta st
mer ging</w>
medi an</w>
mechan ically</w>
marri es</w>
maneu ver
mail box</w>
mag gots</w>
macr o</w>
m uni
m our</w>
lun ch
los er</w>
lor ia</w>
loc als</w>
lo vers</w>
lingu istic</w>
lin ois</w>
liber ated</w>
li an</w>
lever aging</w>
legi timacy</w>
legen dary</w>
le aps</w>
law ns</w>
l yr
l ord</w>
l l
knoc king</w>
kill ings</w>
k h</w>
j u</w>
isol ate</w>
ir regular</w>
investig ations</w>
inter tw
inter medi
inter fer
inter dependent</w>
inten si
integr al</w>
int ol
innoc ence</w>
inj ecting</w>
inha bited</w>
influ enza</w>
inf ants</w>
inci dence</w>
incenti vi
in sky</w>
in organic</w>
in oc
in as</w>
in adver
imp acting</w>
im perfect</w>
il -
ight y-
id -
hyperbo lic</w>
hygi ene</w>
humming bird</w>
hu bris</w>
homici de</w>
hip pie</w>
hill side</w>
high er-
hedr on</w>
head phones</w>
ham as</w>
ha y</w>
ha ired</w>
h ating</w>
h anding</w>
guerr illa</w>
gu essed</w>
gro om</w>
grass land</w>
gr in
gover ning</w>
gover ned</w>
gos sip</w>
gl ance</w>
gi ants</w>
geome tric</w>
gener ators</w>
gan gs</w>
gad gets</w>
ga me
g us
g t;</w>
g ous</w>
g les</w>
g la
g ill</w>
g gy</w>
fundament alism</w>
fron t-
fra gr
flouri shing</w>
fla vors</w>
fl our</w>
fl ag
finger print</w>
fes tivals</w>
fec al</w>
far m
facil it
fac e-to-
fabric ated</w>
f use</w>
f ences</w>
explo ding</w>
explic it</w>
exam ining</w>
exam ined</w>
ex ports</w>
ex ile</w>
even son</w>
ev a</w>
er ic</w>
epide mi
environment alists</w>
enter taining</w>
enter tain</w>
enh ancing</w>
encoun ters</w>
en si
en do
emit ted</w>
elo qu
elimin ating</w>
elev ation</w>
el ect</w>
el -
ed ness</w>
ec ologist</w>
e ber</w>
du plic
down hill</w>
doub ts</w>
dou bles</w>
domin ance</w>
docum entation</w>
do o</w>
divid end</w>
dist ress</w>
disc oun
dis missed</w>
dis miss</w>
dimin ished</w>
diff use</w>
di p</w>
di ary</w>
descen ded</w>
des irable</w>
den ser</w>
den gue</w>
degra ding</w>
def ect</w>
dedic ate</w>
de x
de pu
de privation</w>
de par
d roughts</w>
d ot
d in</w>
custom ization</w>
cur y</w>
cur se</w>
cubic le</w>
cryst als</w>
cro wn</w>
cre ations</w>
courty ard</w>
counter parts</w>
cor n
conven tions</w>
contradic tions</w>
conclu ded</w>
comprom ised</w>
compl aints</w>
compar ative</w>
comp elled</w>
comm ute</w>
colle ges</w>
coll agen</w>
col os
cock pit</w>
coc cus</w>
co bra</w>
co aster</w>
clear er</w>
choos es</w>
cheap est</w>
che er</w>
cham pagne</w>
centr alized</w>
centi grade</w>
ce as
carbon ate</w>
cap tures</w>
cand le</w>
ca b</w>
bre e
book store</w>
bo x
blur ry</w>
blue prints</w>
blin king</w>
blin ded</w>
bi es</w>
ber ing</w>
be ts</w>
ball room</w>
bad ge</w>
bab ys
ba o</w>
b ou
b lical</w>
awar ded</w>
aw ning</w>
aw a</w>
avo ided</w>
autom ation</w>
atten dance</w>
att acker</w>
atro cities</w>
astro lab
ast ounding</w>
ast ers</w>
asp ire</w>
as pora</w>
ar sen
apoc alyp
ap pointed</w>
anti retroviral</w>
anth a</w>
anonym ity</w>
ance stral</w>
analo gous</w>
an ian</w>
an gi
an gel</w>
an dic</w>
am pu
am ber</w>
al o</w>
al liance</w>
al leg
al ine</w>
al ign</w>
aim ing</w>
ai res</w>
ag ra</w>
ag ile</w>
aff lic
adv ent</w>
adap table</w>
ad ren
activ ating</w>
ach el
access ing</w>
acade mia</w>
ac in
ab sent</w>
ab dom
Z et
Yor kers</w>
Ya hoo</w>
Y ellow</w>
Y ellow
Y an
W y
W ell
Vis ual</w>
Vi ol
V R</w>
Tum or</w>
Thous ands</w>
Techno logies</w>
TE MP
TEMP T</w>
T ree</w>
T radi
T own</w>
T ol
T est</w>
Sub -
Stu dio</w>
Story Corps</w>
Sput nik</w>
Sp ir
Shred dies</w>
Sha ke</w>
Sey mour</w>
Sene gal</w>
Schwar z
S usie</w>
S tal
S mi
S af
S R
Rw andan</w>
Robo tics</w>
Ra ise</w>
RO D</w>
R ush</w>
R esp
R and</w>
R C</w>
Pos t
Pla to</w>
P and
P P
Oper ations</w>
Ok api</w>
O scar</w>
O sa
O s
O pen
Now adays</w>
Nor thwest</w>
Ni xon</w>
New tonian</w>
Need less</w>
Ne uro
Nat alie</w>
NA TO</w>
N T</w>
Mu g
Mor oc
Mongo lia</w>
Mol as</w>
Min nesota</w>
Mil an</w>
Mid west</w>
Mer maid</w>
Me e
Mar x</w>
Ma o</w>
M s</w>
M om
M o</w>
M aps</w>
M .
Lick lider</w>
Li ving
Li ber
Labor atory</w>
La ur
L ey
L en
L as</w>
Ko ol
Kar l</w>
K r
K a
Jud ith</w>
Jour n
Joh ns</w>
J ab
J PL</w>
J N</w>
In v
Il linois</w>
Icel andic</w>
I G
Human ae</w>
Hill ary</w>
He in
Hamp shire</w>
H is
[...]
